#version: 0.2 - Trained by `huggingface/tokenizers`
e r
e n
Ġ s
Ġ d
e t
Ġ a
Ġ o
Ġ f
i n
o r
Ã ¥
Ġ m
t i
Ã ¦
a n
e d
e l
Ġ h
Ã ¸
Ġ v
i g
Ġ b
e s
Ġ k
Ġo g
Ġ i
a r
Ġ p
d e
in g
Ġf or
s t
ti l
l e
Ġ er
Ġa t
Ġ til
r e
o m
Ġ en
Ġ g
Ġa f
a l
s k
Ġ l
a g
Ġ n
o n
t er
u n
t e
i l
d er
k k
Ġp Ã¥
n e
Ġ t
e g
u d
v er
Ġm ed
r a
Ã¸ r
Ġ D
Ġd et
s e
o l
Ġd er
l er
i s
l ig
Ã¦ r
Ġs k
Ġs t
kk e
a m
Ġ S
Ã¥ r
n ing
Ġd e
d en
Ġ in
Ġ ud
Ġd en
g e
Ġh ar
a t
Ġ r
Ġ j
Ġd u
an d
o g
Ġs om
v e
Ġo m
Ġv i
o d
Ġk an
Ġi kke
Ġh v
Ġ et
r i
Ġ H
er e
Ġo p
Ġa n
r u
h ed
i t
e j
Ġ 1
Ã¦ n
Ġ M
Ġ 2
i k
u r
en de
Ġ e
Ã¦ l
a d
ed e
Ġa l
el s
Ġs Ã¥
el se
Ġ F
ti on
i d
Ġ el
Ġ A
g er
â Ģ
a s
Ġj eg
Ġ B
f or
Ġp r
Ġ K
u l
sk e
st e
a v
en s
Ġin d
l i
en t
Ġm an
Ġ V
om m
Ġv ar
Ġf ra
k t
m m
a b
Ġ T
k s
Ġel ler
Ġs am
Ġ I
Ġ E
er ne
u s
f ter
Ġv il
Ġs p
Ġ P
r Ã¦
un d
en d
el ig
. .
Ġm en
j e
Ġsk al
an g
Ġ L
Ġhv or
Ġo ver
es t
in d
Ġv Ã¦
o k
Ã¸ b
o p
Ġv ed
Ġ c
ti d
Ġ J
s p
ag e
ĠD et
ol d
le v
b ej
Ġs ig
Ġm Ã¥
or t
o v
Ġ N
lig e
Ġ -
s Ã¥
el t
Ã¸ j
Ġb ru
Ã¦ g
Ġ2 0
ti g
Ġ re
v is
Ġk un
l ing
Ġ (
a tion
Ġ O
Ġ un
f t
n d
Ġ âĢ
i v
Ġn og
Ġn y
Ġ G
y g
ĠvÃ¦ re
Ġe fter
Ġ R
Ġog sÃ¥
s er
ig e
Ġa r
Ġ Ã¥r
i st
o t
Ã¦ t
Ġb e
d et
Ġd in
Ġ u
y r
Ġd ig
d an
Ġs e
Ġk omm
Ã¸ n
Ġb es
Ġb li
Ã¸ d
kk er
Ġ C
Ġk on
or es
p p
Ġg od
Ġb l
Ġb lev
Ã¸ g
Ġs i
le m
s m
u t
Ã¸ l
Ġ 3
eg et
el v
lig t
a ve
v Ã¦r
o b
ar t
d re
a le
i r
s en
l et
Ġf Ã¥
r ing
s i
y n
r et
0 0
Ġh an
a k
h old
m en
Ġv ores
Ġh er
Ġv Ã¦r
el e
Ġun der
ed er
k e
c e
Ġf Ã¸r
f f
en ne
Ġ20 1
v ar
r o
Ġk l
Ġm in
ar k
Ġm eget
re m
sk ab
els er
Ġ U
ag er
Ġen d
Ġs elv
Ġm ere
Ġm od
l y
en e
u m
Ġar bej
Ġal le
i sk
ning er
r y
Ġs m
s l
it et
er s
i e
al g
Ġm u
Ġf in
k er
n es
t et
o s
Ã¸ re
m e
Ã¦n d
ĠV i
n er
b e
Ġd ag
lig hed
ĠJ eg
b er
l a
Ġ tid
es te
Ġl Ã¦
e m
Ġb et
or d
Ġn Ã¥r
Ġbru g
l ad
els en
y l
Ġh av
n et
id t
c i
Ã¦n g
Ġ le
Ġman ge
r Ã¥
k ti
ĠâĢ ĵ
ĠD er
l Ã¦g
ig t
k l
r ed
er et
p er
c h
Ġn u
a ti
j Ã¦l
Ġst or
Ġb ed
j er
.. .
Ġ 4
i ver
Ġbli ver
l ed
an t
Ġvi r
m er
Ġb il
ler e
Ġhv is
Ġk v
ĠF or
p e
Ġtil b
od u
a st
ar bej
d i
Ġm ig
enne m
Ġud v
Ġd an
Ġg r
Ġf rem
Ġ Ã
a ter
Ġkun ne
d el
Ġh je
ar e
Ġ te
Ġde m
in e
ag t
e b
y t
Ã¥ l
or g
Ġb Ã¸r
Ġnog et
ĠD an
y d
Ġd a
ig tig
Ġ Ã¸
Ġgod t
Ġ 5
d ag
Ġh ave
l an
ers on
Ġhav de
Ã¦ s
s Ã¦t
Ġfor sk
Ġr et
Ġo s
Ġden ne
ing en
Ġan dre
Ġhv ad
k tion
t en
Ġk r
y der
i de
g ang
i ske
av n
Ġo r
ti k
o de
i c
Ġ ti
d k
al t
Ġal t
m a
as s
st er
ning en
ri v
Ġh Ã¸j
Ġt r
Ġl ig
l and
d t
m p
k et
Ġfor b
Ġder es
els es
Ġh elt
Ġh ver
Ġud en
i ve
Ġre g
sk er
âĢ Ŀ
Ġfor t
Ġk Ã¸b
d r
p r
ks om
ĠS t
Ġb eg
den de
Ġpr o
a p
s b
Ġbe h
Ġf Ã¥r
Ġ w
f Ã¸r
Ġk om
i er
Ġl idt
mm er
Ġsam t
Ġm el
m el
Ġsam men
v end
i on
Ġl ige
l es
o ok
ĠD u
Ġforsk el
Ġh un
Ġs er
Ġny e
Ġp erson
h ol
Ġg ra
hed er
Ġkon t
k st
s at
D et
an ge
ĠD e
at ur
Ġg ennem
Ġf l
ĠD en
v et
al er
Ã¸ de
Ġdet te
Ġs id
Ġt rÃ¦
t ag
Ġ 6
ĠvÃ¦r et
en ter
Ġg en
Ġf lere
Ġ ig
Ġt o
Ġs l
Ã¥ de
Ġnog le
Ġpr odu
Ġd el
Ġfor m
Ġh jÃ¦l
c er
il le
Ã¸r g
Ġf Ã¸l
mm e
v i
el le
is er
Ġbli ve
Ġh ele
ĠM en
g Ã¸r
i en
ti sk
Ġm a
s til
ve j
k ter
v en
Ġ "
Ġv ej
Ġg Ã¸r
u g
a de
der e
s Ã¸g
elig e
is se
Ġa d
o st
Ġn ed
Ã¸ ger
ĠE n
Ġbru ger
Ġin den
g et
Ġp ar
ĠO g
m ark
Ġmel lem
Ġn Ã¦
for m
ol i
u b
ning s
Ã¥ nd
ĠA l
ul t
d s
i m
elig t
Ġkomm er
a f
Ġd it
Ġg ang
ĠS k
Ġst Ã¸r
ly s
Ġin ter
ĠH v
Ã¥ b
g iv
Ġ1 9
kk en
Ġhv il
Ġmu lighed
et s
Ġm ind
Ġs in
Ġ ra
Ġ eg
Ġb Ã¥de
end t
g en
J eg
in der
Ġg iver
h us
Ġl ang
ĠfÃ¸r ste
Ġforskel lige
Ġl y
Ġ Ã¸n
Ġdin e
o ver
ĠbÃ¸r n
ĠH vis
Ġg Ã¸re
dan n
Ġb r
Ġ 7
ĠA n
ing er
un der
Ġudv ik
kti v
Ġbes k
es k
Ġs en
Ã¸ s
t al
Ġhvor dan
ĠmÃ¥ n
V i
Ġsk ul
Ġhje mm
k on
ing s
ĠI n
an s
Ġb are
Ġh el
Ġl iv
Ġse x
a kt
Ġfin de
Ġal tid
h ver
ĠH er
ol ig
Ġd at
Ġl and
r Ã¸
Ġh en
Ġstor e
Ġsi den
Ġv en
al d
g i
k en
Ġh os
st en
Ġ 8
ru g
al itet
and t
d ig
Ġd i
a c
n u
in de
ĠS Ã¥
f Ã¸l
Ġg Ã¥r
ed et
Ġr es
Ġan det
g ende
Ġgr und
t es
Ġvir ksom
Ġv Ã¦l
i es
ti ge
y k
f te
h avn
Ġle ver
Ġ W
Ġj o
Ġskul le
Ġ20 0
Ġg Ã¥
) .
si on
Ġv er
Ġs y
Ã¦ re
and ling
k omm
or n
un kt
ter e
m Ã¦r
Ġsam me
Ġg erne
as se
Ġfor s
Ġ1 0
Ġs yn
ag et
Ġv el
Ã ©
Ġkomm un
Ġan den
Ġf ar
ti s
a ver
Ġd es
am p
a u
r er
Ġs u
Ġsp il
ist er
Ã¸rg sm
ĠS e
Ġsi kker
Ġbed ste
l ede
s el
Ġn et
kk et
Ġblev et
og ra
Ġtil f
ul d
k n
r es
Ġp er
Ġder for
Ġ Â
Ġhjemm es
st Ã¥
ĠK omm
lig ere
Ġf ri
Ġsk ri
v ent
ĠDan mark
te m
Ġg ode
Ġvil le
Ġd og
hed s
Ġl Ã¸b
hed en
Ġr igtig
Ġc ook
Ġig en
ĠI nd
y nd
Ġl av
o le
Ġmen nes
Ġtilb age
Ġom k
Ġ 9
ol og
lad s
Ġs til
ru pp
r an
Ġsk ab
Ġpr Ã¦
u st
Ġarbej de
den s
Ġbru ge
at ter
j en
l en
ol k
r en
te g
Ġn atur
ff e
Ġs Ã¦t
Ġg l
Ã¸r er
Ġl ille
Ġf ik
l ik
lys ninger
Ġb ag
E R
Ġ ej
âĢ Ļ
Ġs o
en havn
ass age
Ġin de
o der
ar d
ist or
Ġb yg
ĠU d
Ġn ok
ĠKomm un
Ġre j
m ed
Ã¸rgsm Ã¥l
Ġt y
am il
ĠK Ã¸b
es ter
Ġh ol
Ġv and
t te
2 0
Ġfor hold
Ġen k
Ġl ov
b org
Ġb ar
ur tig
Ġs it
t r
ation er
Ġs n
Ã¦ v
Ġt Ã¦n
Ġsid ste
Ġv igtig
as ser
Ġfor di
Ġn em
Ġdan ske
st yr
Ġb y
Ã¦ kke
Ã¥ d
k te
Ġnog en
Ġ Ã¥b
ti ske
Ġd isse
Ġop lev
ĠT il
e ci
Ġs Ã¸
ob lem
i b
Ġw eb
ĠÃ¸n sker
Ġs Ã¦r
Ġcook ies
Ġk ra
ĠmÃ¥ de
a ft
Ġv alg
el ler
s igt
Ġh urtig
Ġs ik
Ġt ing
Ġm est
Ġf un
Ġc h
Ġkomm e
Ã¦l les
s om
Ġh old
ĠH an
Ġo n
Ġ 0
ĠmÃ¥ l
Ġdan sk
Ġh and
Ġl ed
Ġn Ã¦r
Ġh am
m in
Ġg ive
Ġt age
Ġe ks
Ġp en
ce p
Ġel e
Ġf r
Ġs ag
Ġvir k
Ġh Ã¥nd
Ġgra tis
g Ã¥
Ġt ra
ov ed
ĠM ed
ring er
Ġomk ring
il j
Ġpr is
s am
an den
led ning
arbej de
l ag
je kt
Ġn Ã¸d
g r
u p
b et
Ġf ast
l Ã¸b
Ġsi de
Ġl u
Ġsp Ã¸rgsmÃ¥l
ste m
s et
f ar
Ġbe k
Ġom rÃ¥
Ġb est
on er
Ġg Ã¦l
Ġm and
yl d
sp unkt
end es
o f
Ġl Ã¦ng
ry k
Ġf il
ĠâĢ Ŀ
Ġp lan
Ġmu ligt
ĠÃ ĺ
o ks
o w
ĠU n
Ġarbej d
Ġvi de
re g
f er
Ã¦l dre
Ġsp eci
ĠE r
Ġfin der
or m
Ġo ff
Ġm ark
l eder
Ã¦ k
ent lig
st ru
s h
Ġ ingen
s ti
ĠKÃ¸b enhavn
s n
Ġg am
ĠhjÃ¦l p
ve m
in er
Ġ1 8
ĠT h
Ġsig er
Ġs v
Ġj er
on t
ĠmÃ¥ ske
Ġgen er
und et
Ġpr Ã¸
r is
ĠP Ã¥
g es
Ġal ler
ĠsÃ¥ dan
re vet
Ġst ad
Ã¥ n
ĠC h
Ġe k
Ġudvik ling
p en
Ġbed re
s var
âĢ ¦
Ġmind re
Ġb og
Ġ Ã¦nd
Ġpr oblem
Ġ1 5
Ġl ok
D er
Ġr Ã¦kke
c es
sk ri
Ġud dann
Ġsm u
Ġkv alitet
led es
l ine
ilj Ã¸
Ġny t
Ġhan s
Ġs var
ig er
et er
Ġl Ã¦r
Ġp oli
v s
stil ling
Ġf amil
Ġd age
Ã¦r k
ĠS p
st ed
Ġf ly
hol der
v ir
ol en
00 0
ind else
ĠmÃ¥n eder
re v
Ġop lysninger
Ġm it
Ġhje m
Ġk rÃ¦
Ġd elt
) ,
h Ã¦ng
i et
sl ag
Ġsm Ã¥
mel d
g Ã¥r
ĠKommun e
Ġkom p
ĠfÃ¥ et
der ne
E N
Ġkv inder
b yg
s s
Ġh istor
b y
Ġ1 2
ĠA r
al l
m od
Ġfort Ã¦l
f ik
Ġt ager
Ġbl andt
Ġhvil ket
Ġver den
Ġk li
Ġk ort
Ġlig ger
Ġp o
i den
und t
vi ce
Ġst Ã¥r
Ġr ed
Ġl et
ĠO p
ind es
c ent
Ġst ed
r Ã¦n
Ġstad ig
F or
Ġend nu
tid ig
Ġg j
Ġhjemmes ide
ant as
Ġudv alg
Ġk n
Ġb or
Ġmennes ker
ĠfÃ¸r st
Ġan vend
Ġt re
Ġmod t
ĠDet te
Ġb en
Ġe kst
ud en
Ġh Ã¥r
Ġinter es
v t
kon om
v el
ĠÃ¥r s
Ġ &
H vis
Ġdi re
Ġ /
ĠHv or
Ġtilb ud
in k
al en
t rÃ¦
e ks
ĠvÃ¦l ge
Ġg ange
Ġop g
Ġa ktiv
ater i
Ġb u
ok us
Ġm assage
ĠA f
Ġn r
Ġmin e
Ġh us
ter er
ĠV ed
Ġl ave
Ġkl ar
e k
t else
f on
i a
Ġforb indelse
la de
ra tion
f il
Ġh al
Ġvirk elig
se mp
Ġt v
Ġp l
i o
ĠlÃ¦ se
Ġk a
ĠâĢ ľ
g t
ud v
Ġst yr
ti m
Ġeg en
b r
Ġf Ã¦lles
be f
st and
an ske
p lan
be h
ĠÃ ©
an de
ĠL Ã¦s
m id
Ġun ge
Ġor d
f e
ĠlÃ¦ng ere
om rÃ¥
om p
skab er
Ġst art
E n
t ede
or e
Ġi s
ĠN Ã¥r
Ġh oved
b ud
c k
s yn
Ġf antas
Ġbes Ã¸g
s for
Ġp a
Ġf ag
Ġf indes
Ġb olig
Ġon line
Ã¦n ge
Ġst ort
D u
b rug
ult ur
form ation
Ġo fte
r ig
ĠmÃ¥n ed
Ġprodu kter
I N
Ġf Ã¦r
o er
d om
ĠAl le
Ġp ra
ĠÃ ħ
a der
ri k
m ar
ĠS am
omm e
m ind
v an
Ġind lÃ¦g
Ġp riv
Ġsyn es
Ġm ens
n en
o ur
Ġv is
ĠstÃ¸r re
ĠhjÃ¦l pe
Ġ1 4
Ġc a
ma il
Ġf okus
Ġs et
ag en
Ġ1 1
ler ne
Ġs el
t u
Ġom f
Ġ .
yt te
Ġs ol
Ġf olk
Ġ und
Ġaller ede
Ġt ur
r og
er ing
Ġbeh andling
ej l
Ġbet al
Ġm ad
D en
Ġl Ã¦g
u e
Ġst ra
gÃ¸r else
Ġso ci
ter et
Ġhurtig t
f ri
Ġs vÃ¦r
Ġud t
p ar
Ġbe v
Ġm Ã¦nd
Ã¦ d
Ġtilf Ã¦l
y s
20 1
Ġt Ã¦t
n on
Ġt h
r ag
at te
Ġsom mer
l ut
Ġlang t
Ġek semp
i re
y m
dr ig
Ġk Ã¦r
a pp
Ġarbej ds
Ġbes til
it al
Ġvi dere
ur der
Ġk or
ak tisk
ol le
Ġbet yder
ti v
ĠD enne
Ã¸ v
i ft
Ġv in
Ġs ine
Ġd ri
Ġb er
Ġsik re
Ġg ik
Ġfor h
g a
Ġhol de
Ġde j
Ġr Ã¥d
Ġtid ligere
g elig
Ġman g
Ġk Ã¸
Ġ3 0
ĠnÃ¸d vend
ig n
Ġr ig
Ġs und
Ġp orn
Ġg ar
Ġr est
sn it
Ġv oks
Ã¦ de
Ġm us
Ġl Ã¸s
ig hed
Ġ yder
c en
le ver
Ġal drig
i der
Ġ1 6
r on
u der
Ġ [
Ġr undt
m t
an is
ĠkÃ¸b e
Ġvirksom hed
Ġsig e
Ġ201 5
vÃ¦r k
Ġst and
Â «
Ġa c
ur op
Ġan bef
a i
Ġfun ktion
Ġmed arbej
ag s
Ġkr op
Ġst k
y kke
Ġer hver
Ġv iser
Ġop d
Ġfor et
s y
Ġk ar
ĠR e
ri p
Ġrej se
or i
tag et
Ġp lads
an k
Ġp art
Ġb ry
ter ne
l o
Ġ :
f tig
Ġbrug es
ir k
Ġpen ge
ĠHv ad
fÃ¸r t
Ġsp Ã¦n
ĠE t
Ġvi den
komm en
Ġlav et
Ġher under
ri st
Ġad gang
Ġd yr
Ġe ffe
el te
end te
Ġbil leder
b o
Ġ1 7
Ã ĺ
Ġvi a
ot el
Ġh ende
Ġh u
a y
Ġpro jekt
Ġbeh ov
Ġekst ra
Ġd y
m ent
ĠnÃ¦ ste
Ġf al
Ġkon k
ive au
un de
Ġte kn
Ã¦s s
Ġprodu kt
S t
Ġ1 3
u elle
Ġkont akt
Ġf uld
Ġres ult
Ġor g
Ġop f
Ġvigtig t
f Ã¦r
Ã¸r ende
p rÃ¦
ut ter
Ã¦r ke
O R
org en
Ġer far
Ġdire kte
Ġ2 5
Ġbl ot
gr und
Ġj ob
ĠH ar
Ġa kti
v or
Ġu ge
Ġarbej der
skab et
ĠÃ¸ v
Ġr en
Ġalt sÃ¥
m b
on e
Ġsam arbejde
Ġbl og
or s
sp il
Ġsk Ã¸n
Ġind hold
vis ning
Ġgam le
Ġk ur
ĠM an
Ġb o
es sion
b lik
ud s
v and
mm et
Ġti den
lig vis
Ġh aft
le je
f ra
c ort
Ġej end
Ġaf sl
ĠÃ© n
Ġan svar
ens en
Ġp la
ĠE l
og le
n ere
ĠvÃ¦r di
t s
Ġaf t
Ġs Ã¸ger
Ġ201 4
ĠÃ¸ konom
Ġen er
Ġf aktisk
Ġb el
ĠstÃ¸r ste
ĠDer for
i se
ele fon
Ġhver t
Ġj u
r ede
mar ks
ation en
men ter
Ġst Ã¸
Ġnem lig
p s
Ã¸ ge
Ã¸ je
pp e
Ġskab e
Ġfl este
Ġg e
Ã¸ se
Ġs alg
a te
v ed
Ġk Ã¸r
Ġind k
Ġfl ot
t ra
Ġf er
Ġsam tidig
Ġig ennem
Ġvirksom heder
ĠE fter
Ġb ud
al et
st Ã¦nd
ĠspÃ¦n dende
der s
ĠnÃ¦ sten
Ġk o
Ġst edet
1 0
ĠÂ »
Ġm il
Ġ Ã¦g
Ġud for
b ar
Ġf Ã¸d
or den
Ġ ...
Ġoplev else
le mmer
Ġbes lut
Ġf ul
al is
ĠsÃ¥ ledes
g iver
Ġa ut
Ġle j
ĠgÃ¦l der
w w
Ġh endes
del ing
Ġte g
al y
A N
ĠM ar
Ġh in
Ġunder sÃ¸g
Ġ ,
Ġk al
Ġf re
Ã¦ st
Ġt og
un den
itet er
ĠA t
s ent
Ġj ul
Ġmind st
rÃ¥ d
sk ud
Ġ1 00
Ġm or
Ġop ret
o te
Ġu ger
Ġin sp
Ġg u
Ġs j
Ġg rupp
n ede
Ġg iv
om st
yl land
g rupp
Ġd ele
Ġen g
oli tik
sat te
ĠO m
Ġt ab
un i
ĠS om
c om
b il
en ing
or er
ĠÃ¸ je
es til
ed es
Ġac cep
Ġs yg
ĠH un
o u
Ã¥ et
Ġeksemp el
ud dann
Ġbeg ynd
Ġenk elte
p ro
o ff
Ġe vent
Ġ201 6
l agt
Ġ %
Ġl Ã¥
in t
Ġt ale
dr es
Ġop mÃ¦r
Ġt al
Ġvi st
ru m
ter ing
Ã¥r et
Ġm ateri
ĠfÃ¸l ge
Ġm id
or de
s yk
ĠR eg
S k
arbej det
fÃ¸l gelig
Ġenk elt
Ġ es
Ã¦ der
Ġma j
an sk
a sk
ĠP r
Ġp ri
Ġhvil ke
els erne
Ġn avn
ĠnÃ¦r m
E D
b en
Ġt aget
ĠN ord
Ġsikker t
Ã¸r n
Ġser vice
f ic
Ġinde holder
Ã¸r en
Ġl in
E L
d at
an u
ĠsvÃ¦r t
Ġtr or
den t
Ġ201 3
Ġs te
u re
ĠtilfÃ¦l de
Ġsk er
Ġf jer
Ġs at
Ġskri ve
Ġm o
Ġfort sÃ¦t
Ġu de
Ġan non
Ġin v
Ġa b
Ġmulighed er
Ġnet op
s f
Ġn o
ak ter
ov en
Ġmed lem
Ġs let
pp ort
ĠfÃ¸l gende
Ġst at
Ġan tal
Ġ Y
D enne
D e
ft en
art s
Ġfor stÃ¥
Ġk ig
Ġs Ã¦l
Ã¦ m
ĠG r
Ġbed st
ik ring
Ġtilb yder
Ġf od
an ter
c eret
der en
Ġm Ã¸d
ĠK l
Ġr is
est yr
jer g
y de
Ġf y
Ġt op
Ġhin anden
Ġk ri
ati v
Ġma il
ĠF r
ĠD a
Ã ħ
e fter
ĠO ver
a kke
Ġp iger
Ġkra v
ĠK on
r ol
k ort
Ġfil m
Ġk amp
er er
Ġal mind
Ġh yg
Ġc ent
Ã Ĩ
red s
Ġl Ã¦nge
Ġt ro
sk il
hol de
Ġe v
Ġm et
k v
Ġbrug t
b old
ĠDan marks
Ġkv inde
Ġin formation
k endt
Ġn orm
am er
ol er
Ã¦l d
S T
N Ã¥r
an ce
Ġk ap
c t
Ġm orgen
ĠopmÃ¦r ksom
Ġforb ed
ĠDan sk
a x
Ġopd ater
iver s
ogra f
Ġpro f
v id
st re
av en
ĠsÃ¦t te
giv et
yl dt
Ġk ultur
Ġ201 8
Ġfor Ã¦ldre
Ġbar n
Ġm Ã¸de
it ter
le j
f l
Ġ ter
Ġp asser
Ġen hver
Ġsu per
Ġbes tem
Ġf Ã¸
ag es
Ġi de
Ġud gang
Ġdat a
Ġselv fÃ¸lgelig
Ġb an
Ġgr Ã¸n
E T
Ġved r
Ġti mer
Ġp op
ĠE U
Ġ201 7
u ter
hed sb
Ġh jer
an ti
t t
re j
Ġfamil ie
Ġi d
Ã¥ let
f und
ch e
Ġpra kti
Ġb red
Ġform Ã¥l
Ġaf ten
Ġis Ã¦r
u ler
ling en
A T
ens ion
Ġel sker
Ġv urder
Ġvar er
Ġe m
er en
re b
ĠSe x
Ġ Ã¸j
Ġbet yd
v n
Ġ2 4
kk es
en der
Ġf a
Ġmen er
Ã¦n ger
Ġs and
ry d
vis or
anu ar
at or
ati sk
ĠJ o
h and
Ġgj ort
A d
Ġsag de
Ġbeg yn
ĠM in
Ġsen ere
Ġsk ole
ĠsÃ¸ ge
k ning
Ġmus ik
Ġhand ler
Ġind t
Ġh j
Ã¸ ver
ans et
Ġs ti
tion er
ĠB il
ar er
at t
ĠlÃ¸b et
Ġkun st
ĠstÃ¸r r
Ġm asse
Ġnem t
Ġl og
ati ve
Ġl aver
Ġ5 0
Ġrig tige
Ġn e
u se
es s
ĠfortÃ¦l ler
olog i
Ġly st
a ur
Ġpriv at
ĠlÃ¦ kker
Ġ '
Ġele ver
il ler
Ġhver dag
Ġhol der
ĠN y
vÃ¦r ende
el l
Ã¸ der
Ġst ar
Ġr Ã¥
Ġ lev
Ġd rÃ¸
ĠbÃ¸r ne
pp er
Ġ2 1
ĠA nd
Ġreg n
Ġpr ogra
ĠhÃ¸j t
sti tu
Ġm oder
Ġperson er
Ġm ob
Ġh ens
udv alg
sÃ¦t ning
ob er
Ġb ro
.. ..
Ã¦s on
Ġf ejl
Ġgra d
Ġar tik
ĠT e
Ã¸ st
S A
c enter
Ġs agt
ĠUn der
Ġun g
Ġfor d
lighed er
Ġt Ã¸r
r ige
k rÃ¦
Ã¸j er
sp ort
Ġlig es
Ã¦r er
Ġt an
Ġfantas tisk
P Ã¥
Ġ Ã¦n
Ġr o
Ġr el
A l
ret ning
Ġb Ã¸ger
IN G
li v
Ġarbej det
Ġper fe
ĠL e
Ġd Ã¦
s v
Ġv ind
min ist
Ġhvor for
A R
Ġfor vent
Ġreg ist
in a
m and
Ġvar me
ĠsÃ¦t ter
Ġskri ver
Ġind sat
h op
Ġ Ã¦ldre
or ter
den e
ĠlÃ¦ re
yt ter
Ġ201 2
b u
Ġc yk
f Ã¸re
Ġst eder
ing e
Ġin kl
ling er
Ġhal v
end else
k Ã¥r
Ġb as
Ġtil g
et en
h e
s dag
lige vel
ĠÃ¦n dre
Ġoff ent
vem ber
Ġfor ud
ĠV ej
b at
an n
Ġm iljÃ¸
Ġind til
3 0
ĠomrÃ¥ de
Ġproblem er
f ul
Ġeller s
l Ã¸s
Ġbeh and
Ġop n
Ġh Ã¸r
Ġen este
Ġj a
ation s
ĠT V
Ġ eget
Ġsam let
- -
Ġpop ul
Ø ±
vÃ¦r re
Ġpo si
kt ur
ĠN u
Ġdes ign
Ġj uni
Ġkl ub
on s
var er
ĠvÃ¦ k
ru ger
Ã¦v n
ot or
Ġf ald
Ġt elefon
S Ã¥
i ste
ti den
Ġud g
Ġsk revet
Ã¦ss ige
Ġbeg ge
Ġsk i
ĠkrÃ¦ ver
pr odu
n ation
al ler
Ġen ten
Ġbil led
je kter
Ġp syk
al ing
iv l
Ġf x
Ġhje mme
arbej d
ĠkÃ¸ kken
Ġf rÃ¦
Ġhel ler
rip Ad
Ġt Ã¸j
y kker
Ġris ik
ĠmÃ¥ tte
ning erne
Ġsl ut
Ġyder ligere
ĠvÃ¦l ger
le ks
Ġsp rog
Ġly s
es p
Ã¦ ster
a a
1 1
omm en
Ġn Ã¸g
Ġs Ã¸g
kk ede
i kke
Ġst Ã¥
Ġl eder
Ġinden for
m ens
Ġk Ã¸re
at et
p l
s els
Ġmodt age
b og
Ġd Ã¥r
Ġkun der
Ġliv et
i te
Ġpr iser
T il
Ġh otel
Ġfar ver
ic in
Ġmed lemmer
Ġuddann else
H er
Ġporn o
Ã© r
Ġud s
Ġj anuar
Ġp ati
rÃ¦ t
Ġbestem t
Ġvi d
ce m
jÃ¦l p
Ġkomm et
Ġf ire
Ġfy si
Ġsk yld
giv ning
Ġder med
b an
od s
ĠlÃ¦ s
Ġsy ge
Ġc m
ĠP ro
. ,
Ġperson lige
Ã¥ ber
ktion er
ĠK v
Ġmod tag
Ġm on
Ġen e
b l
Ġdag en
' s
i kker
ripAd visor
hol m
fÃ¸l ge
Ġd ok
ĠprÃ¸ ve
Ġlok ale
ĠAr bej
ĠhjÃ¦l per
Ġst ud
Ġbest yr
Ġmodt ager
Ġn ord
Ġsit u
i um
Ġret ur
ir ma
M en
ĠB l
Ġfor eg
Ø± Ø±
Ġvel kommen
ĠB e
o se
Ġvir ker
Ġsen este
ra t
Ġsy stem
Ġener gi
sp r
Ġo ven
ere fter
en er
Ġhvil ken
in s
Ġmark ed
est en
Ġorg anis
kt ober
di tion
5 0
ĠE urop
M ed
l ende
Ġf em
Ġud b
as si
ĠA ar
Ġmin utter
m u
f atter
1 2
Ġkonk ur
Ġan meld
Ġc omp
I L
Ã¦ dag
Ġhjemmes iden
h t
ĠÃ¸n sk
Ġt ak
ĠgÃ¦l dende
mm else
u el
yr er
Ġfer ie
h en
Ġtid spunkt
Ã¦dag og
O N
u er
Ġm asser
Ġtv ivl
ĠH ol
st at
Ġm arts
Ġprof ession
Ġf andt
j ylland
Ġarbejd sm
Ġr u
f rem
ak te
Ġjer es
i ch
Ġvide o
Ġa pp
v il
Ġudgang spunkt
Ġhistor ie
Ġs es
Ġse ks
ĠÃħ r
Ġny hedsb
Ġf ot
Ġsi mp
Ġf undet
Ġsmu kke
ed t
Ã¦ ftig
Ġ19 9
Ġb id
cem ber
i ode
d a
gi fter
ru p
Ġh vem
st Ã¥r
kk ende
hus et
Ġse k
Ġbil lede
Ġk ender
Ġal ligevel
Ġes cort
ik ling
Ġf ol
ud over
Ġte kst
Ġkont rol
Ġudfor d
Ġ y
Ġmedarbej dere
Ġnet tet
ab ler
la der
Ġi mp
Ġfor sÃ¸g
Ġanvend es
Ġbek rÃ¦
Ġweb si
elig hed
Ġreg ler
S K
Ġp ige
Ġtilg Ã¦ng
og n
Ġ2 2
Ġno vember
Ġbeg rÃ¦n
Ġerhver vs
Ġan g
Ġr ele
ra v
in ister
st rÃ¦
Ġ ur
um ent
Ġ201 1
Ġp ass
pr il
t ter
u elt
Ġselv om
Ġlu ft
Ġm is
Ġd isk
o ve
Ġn iveau
Ġg anske
Ġse p
i p
I n
or te
ag ra
Ġbag grund
i le
Ġgj orde
Ã¥n den
as sen
Ġ |
Ġa kt
Ġud styr
Ġstil le
stÃ¦nd ig
Ġ4 0
ĠR o
ĠG o
ab el
âĢĿ .
Ġbe f
fÃ¸r er
yg t
Ġspil ler
v Ã¦g
res s
ac k
ĠFr eder
tem ber
Ġs c
eg n
ĠÂ §
Ġsi der
Ġw ww
ĠgÃ¥ et
fÃ¦r d
ug ust
hold t
Ġbor ger
v ende
sp ro
el sk
Ġfor del
ĠlÃ¦ ge
Ġeg ne
lad ser
Ġliges om
Ġbes te
ĠB r
j erne
Ġal ene
Ġfor n
Ġ #
Ġt jen
E r
eg net
Ġakti ver
Ġh e
Ġsid der
ð Ł
sp lan
ĠsÃ¦r ligt
Ġt red
Ġh ed
Ġtil lad
Ġsk Ã¦r
Ġl ade
Ġ X
Ġs ej
Ġm idt
ĠstÃ¸ tte
Ġsk e
Ġf red
h er
ĠS ide
Ġmob il
Ġfor kl
Ġ ul
er ede
ĠprÃ¦ c
ĠHvor dan
ĠD es
ĠK an
" .
Ã¸r ne
1 9
Ġtil mel
an lÃ¦g
ven der
Ġl ande
tr ol
Ġg Ã¦ster
ĠtÃ¦n ke
Ġ Z
Ġmil li
ov edet
ber g
ĠomrÃ¥ det
Ġl Ã¸n
ĠS und
Ġh Ã¸re
Ġst ri
Ã¦r ker
âĢĿ ,
Ã¦l g
Ġkont akte
tig hed
ĠfÃ¦r dig
ĠT r
ĠN i
on d
ĠV ores
ĠÃ¥b en
ĠL and
Ġaf gÃ¸r
lad sen
Ġsj ov
t el
Ġk ost
Ġop skri
l l
ag n
fÃ¸r es
Ġ201 0
ft et
ĠS elv
Ġaut om
Ġlok al
am mer
p Ã¥
ĠF Ã¸r
o en
1 5
Ġdy b
ris ti
Ġhen hold
ĠA d
Ã¦l dende
Ġtr an
yn g
els ens
Ġpoli ti
Ġh Ã¥ber
ar s
Ġsp ise
ĠT ripAdvisor
Ġpart nere
kt or
U d
Ġd ren
ĠhÃ¸j ere
i ci
ĠvÃ¦ gt
Ġsl ags
Ġde cember
o ci
le jer
a h
g ere
Ġt ru
ir ke
Ã¸r s
al og
Ġvi se
g te
Ġgr Ã¦n
sp e
Ġn av
Ġen s
h je
Ġbest Ã¥r
Ġk Ã¦m
Ġvalg t
h Ã¸j
Ġbek endt
Ã¥ ende
jÃ¦l land
l id
Ġby en
il l
ĠS yd
Ã¸ det
Ġwebsi te
Ġs ende
Ġan sÃ¸g
Ġs li
fer en
Ġo ktober
Ġopg aver
Ġrest aur
Ġlej lighed
Ġn at
sk l
a den
Ġe vt
Ġb i
Ġg av
uder ende
Ġan lÃ¦g
Ġl yd
Ġaccep terer
a ch
Ġsam fund
Ġg lad
a il
Ġvej en
Ġdes uden
ĠV Ã¦r
Ġudt ryk
ĠK ont
omrÃ¥ det
Ġland et
Ġk il
Ā Ā
Ġm Ã¦rke
al borg
ĠÃ Ĩ
Â Ń
i ti
Ġf eb
riv else
Ġrigtig t
Ġerfar ing
Ġre prÃ¦
A L
l Ã¦
Ġt vÃ¦r
Ġg ul
Ġsoci ale
ap ir
kl ub
Ġfor an
ru ar
op lysninger
Ġgar anti
ĠprÃ¦ sen
sÃ¦t t
Ġdes vÃ¦rre
Ġf isk
Ġan d
Ġfor slag
p ligt
Ġkomm ent
Ġi mod
Ġk olle
b art
Ġpro ces
ĠAar hus
Ġr yg
Ġk end
Ġa pril
Ġsn art
Ġgl Ã¦de
yt tet
Ġj ord
Ġkra ft
Ġan aly
Ġinteres ser
f ald
b olig
Ġn Ã¥
for stÃ¥
Ġ us
Ġst op
r al
Ã¦n der
Ġbil lig
Ġ2 3
Ġdelt ag
fÃ¸l gende
cep t
Ġj f
" ,
n ende
Ġbu ti
Ġsk et
Ġ2 6
Ġgiv et
st Ã¸
Ġo f
ĠkÃ¸b er
Ġpr es
Ġprodu ktion
Ġbet ale
Ġt est
Ġoff entlig
ĠB er
ks is
ĠvÃ¦ g
pr is
! !
Ġs Ã¦son
Ġmang ler
il d
Ġver dens
ar en
ent et
g else
Ġu anset
Ġbyg ge
ĠtrÃ¦ ning
Ġg eb
Ġ x
Ġin st
en ingen
le ve
Ġka teg
Ġafsl ut
Ġv old
l in
Ġd Ã¸d
Ġfun ger
Ġcomp uter
Ġsep tember
ĠfÃ¸l ger
Ġele kt
f ly
Ġf akt
ĠAl t
Ġhens yn
K K
Ġop r
ĠG od
a j
o c
ĠÃ¥r et
Ġind sam
Ġl ag
n al
Ġsp ille
stilling er
ĠInd hold
Ġaktiv iteter
g ene
Ġvin ter
Ġeg entlig
1 8
Ġej er
Ġven ner
k Ã¸b
r ange
nu mmer
Ġ2 8
kt Ã¸r
Ġbegyn der
s d
Ġder efter
Ġb ook
Ã¸n der
rÃ¸ m
S om
dig hed
Ġh und
Ġinter nation
Ġaft ale
Ġma sk
a kker
tig t
den se
ĠsÃ¦r lig
Ġsid st
Ġo li
Ġs endt
ĠF ol
Ġsm ag
Ġgennem snit
Ġm at
Ġkomp eten
p h
f in
Ġr Ã¸d
p ort
Ġg rÃ¦
d else
ĠkÃ¦r lighed
Ġl ager
ĠlÃ¦r er
s ig
O g
Ġl ide
vÃ¦r ks
c ces
Ġkom b
Ġk Ã¸n
yl der
r eret
ga ard
ĠG ra
omm er
v in
Ġfar ve
mid del
mel lem
âĢ ĭ
Ġaf h
Ġvej ledning
Ġvar i
ĠS u
Ġ2 7
m Ã¥l
Ġnatur ligvis
b li
yl de
Ġr um
Ġju le
Ġ Ã¦r
Ġs jÃ¦l
Ġbetal ing
k o
ĠÃ¦nd ringer
ar l
ĠomrÃ¥ der
Ġsund hed
Ġkor re
Ġk Ã¸rer
Ã¦r ing
sm inister
Ġinter net
ĠH en
Ġm Ã¸r
Ġresult ater
Ġvigtig ste
Ã¥r s
Ġvedr Ã¸rende
Ġind gÃ¥
Ġf yr
I G
Ġkommun ik
i ration
ĠfortsÃ¦t ter
am pe
Ġf ug
Ġfor l
a ske
Ġt yd
H ar
Ġfin t
Ġr ent
ra ft
Ġarbejd sp
Ġm Ã¸der
a ce
ĠM assage
sÃ¦t telse
Ġoffent lige
ra s
k om
t o
Ġst od
Ġf at
ivers itet
A n
estyr elsen
S E
ĠvÃ¦ kst
Ġreg ion
ĠV il
yg ge
ĠlÃ¦ ser
Ġa ugust
sk ole
ĠlÃ¸b ende
ĠF ra
ĠfÃ¸ ler
Ġret te
Ġuddann elses
mid ler
Ġmoder ne
ĠDan ske
f o
ĠFreder ik
v alg
y sk
Ġid Ã©
t ager
ĠvÃ¦r d
Ġbl od
kt Ã¸j
Ġfor lÃ¸b
Ġal vor
Ġb Ã¦r
Ġbeh Ã¸ver
O L
Ġkomm ende
ĠU SA
E t
Ġbev Ã¦g
riv il
Ġsikker hed
Ġa dres
Ġm otor
Ġvoks ne
udvalg et
Ġbetyd ning
Ġdat ing
ter es
Ġp ost
mm es
Ġk endt
Ġm Ã¦ng
an er
mer ik
u en
ati s
et te
it y
v Ã¦
Ġa k
o sp
den ti
for lÃ¸b
Ã¸r ger
ĠnÃ¸dvend igt
Ġt ag
ĠO r
Ġopn Ã¥
Ġs yd
Ġp ik
ĠEl ler
r igt
Ġad minist
Ġindk Ã¸b
ĠfortÃ¦l le
Ġd r
ar m
Ġw e
Ġ200 9
var e
al i
Ġ ðŁ
esk ab
Ġ +
Ġpro cent
1 4
ust ri
V ed
rÃ¥ det
beh andling
Ġeffe ktiv
Ġl Ã¸
Ġdej lig
Ġoplev elser
Ġmu lige
off er
Ġm m
ter n
for t
Ġsel skab
ĠtÃ¦n ker
sÃ¦t te
us ion
el u
el Ã¸b
al for
ĠJ es
k endelse
b ook
risti an
om s
Ġ2 9
Ġkl asse
ĠpÃ¥ vir
ring e
Ġfod bold
Ġb al
Ġty p
ĠsÃ¦r lige
ok ol
ri t
E fter
kti ve
Ġ yd
Ġk re
ĠS er
mÃ¦r k
1 6
ri d
Ġgam mel
Ġkl art
s us
ĠM ad
Ġpoli tik
t age
ĠG ud
m Ã¸de
Ġpro fil
an si
Ġh Ã¦
Ġmed icin
Ġinsp ir
Ġtilf reds
Ġb org
Ġbruger ne
Ġtred je
un kter
2 00
sl ut
h av
Ġbar net
Ġnorm alt
p o
Ġsam lede
ĠK un
b es
i kken
Ġkar akter
Ġst ykke
y stem
Ġo b
Ġd om
Ġfre mm
ĠN e
Ġop tim
vis er
Ġbestil le
Ġbetal es
u sk
Ġl agt
Ġtil p
Ġned en
Â »
ig ur
m ad
un g
olog isk
ast er
f uld
Ã¦s sigt
ĉ Ċ
Ġfeb ruar
ĠJo h
Ġet abler
ĠD at
Ġudvik le
Ġan vender
Ġk m
Ġpriv ate
Ġbegynd te
o ft
del es
an der
Ġsk u
b ro
a ff
ĠkÃ¸b t
i z
Ġtra dition
ĠlÃ¸s ning
ĠstÃ¸rr else
Ġrest en
Ġkr oner
Ġmod el
y st
ab il
Ġplan lÃ¦g
ing elser
Ġen gang
Ġ6 0
Ġth ai
Ġl ad
Ġkonkur ren
Ġsammen lig
ret tet
Ġsund heds
Ġskab er
ist en
yt telse
Ġbel Ã¸b
q u
Ġop lys
j ort
s ol
Ġl ange
ĠâĢ ¦
Ġven lig
ĠI kke
Ġeks per
Ġin form
Ġkonk ret
f ag
stÃ¥ ende
vir ksom
Ġ â
Ġor dre
ĠH Ã¸j
ma sk
Ġs tig
m us
Ġl ink
dr ag
Ġbro w
Ġre kl
f un
am e
b esk
d es
Ġsammen hÃ¦ng
h jÃ¦lp
ĠD isse
tag else
Ġd is
iv id
Ġsk ol
sÃ¦t tes
ĠÃ¥b ne
k ur
a se
ĠâĢ Ļ
Ġin tet
Ġtr Ã¦n
Ġsp ort
ote k
beh Ã¸r
Ġgrupp e
ĠM Ã¥
m et
Ġfa ste
Ġsu cces
Ġopg ave
Ġny heder
Ġsoci al
m an
ĠÃ¦nd ring
Ġnu vÃ¦rende
n as
g u
ens er
Ġkl assi
as in
ĠSÃ¥ dan
el kommen
Ġkon st
ĠnÃ¦ vn
ĠReg ion
al es
g ede
Ġerhver v
Ġud sk
ĠP ar
Ġud f
Ġret ning
ĠV ar
c o
il ke
Ġdet al
Ġny de
Ġinteres s
tion en
Ã¸r ge
Ã¸g et
Ġsimp elt
Ġl Ã¥n
Ġpr in
ĠE s
Ġt ry
ob b
Ġp ark
Ġsp r
ĠS te
Ġti t
Ġs al
id st
Ġdig it
Ġar k
O M
Ġmod taget
Ġvar e
le mm
Ġs h
ĠGo ogle
io den
ti ve
ĠbÃ¸rn ene
Ã¦ b
om ster
Ġst Ã¦rk
Ġfunger er
Ġspeci elt
Ġper iode
Ġhel st
1 7
Ġautom atisk
Ġperfe kt
ud t
Ġpra ksis
Ġforbed re
Ġb ur
Ġfly t
as h
Ġkon se
sy stem
s ikring
N D
k ald
g ade
Ġle ve
Ġartik el
Ġp Ã¦dagog
k re
Ġsen der
ĠAnd re
Ġdri ft
I nd
an te
Ġhed der
Ġund gÃ¥
Ġos v
Ġkun de
red it
ĠH ans
Ġbry ster
omrÃ¥ de
ĠâĢ ĭ
p lads
Ġst uderende
Ġi mellem
ĠkÃ¦m pe
1 3
S e
Ġindsat s
Ġtr ods
ĠprÃ¦c is
em Ã¦rk
r and
ym nas
on ne
l d
ĠP eter
Ġk ol
ĠA alborg
k r
Ġinsp iration
an cer
Ġop hold
Ġefter fÃ¸lgende
ĠÃ¦g te
arbej der
ĠB Ã¸rn
ĠP er
ynd ig
v ad
Ġpen is
m Ã¥
Ġvil kÃ¥r
or et
n r
d age
Ġr om
s st
- )
f al
Ġin stru
Ġud elu
iser ing
Ġsk rev
ĠS ch
Ġved lige
Ġle je
Ġkrop pen
ĠÃ¸n ske
nd ag
Ġop leve
im um
Ġkon f
som t
I D
Ġsyg dom
Ã¦n k
tr odu
r agt
Ġskyld es
ĠH ver
Ġn ation
Ġaf hÃ¦ng
Ġm ar
Ġudt ry
v ic
tig heder
Ġsk j
Ġf est
ĠhÃ¸j re
Ġk op
Ġstar ter
Ġs ort
Ġbud get
Ġend elig
ĠIn ter
Ġh ot
Ġlig nende
Ġh Ã¸rer
. âĢĿ
Ġs Ã¦d
Ġf ej
si den
ot en
Ġregist rer
Ġn eg
pp et
ĠF ran
Ġk ry
Ġudvik let
sam ling
Ġeks ister
Ġpopul Ã¦re
Ġkl o
b jerg
Ġvar en
it el
Ġk at
ĠH el
gi ft
Ġre ger
ĠÃ¸je bli
n Ã¥r
ĠN et
ing et
Ġh Ã¸je
s ul
Ġopdater et
Ġind ivid
Ġt aler
Ġforb i
Ġd Ã¸
Ġa merik
Ġfort sat
Ã¸r dag
Ġbesk Ã¦ftig
b eg
m ere
Ã ¶
Ġtra fik
ĠEurop a
Ġop ly
ab y
ra pport
c ere
Ġm ag
Ġfor v
ov ens
Ġb ade
Ġth e
Ġen de
for hold
Ġgeb yrer
Ġle ge
ĠJ a
Ġ200 8
Ġmateri ale
Ġover ra
t y
Ġpla cer
ati vt
Ġud n
i an
Ġhv id
ĠP orn
t Ã¦g
ĠN ogle
ĠâĢĭ âĢĭ
Ġop lever
Ġh um
Ġhold t
âĢ ľ
Ġskri ft
Ġpart ner
p olitik
Ġhu ske
ĠlÃ¦g ger
Ġinteres se
vÃ¦r else
Ġanvend else
ĠH oved
Ġr ol
Ġop krÃ¦
Ġu h
ĠF l
ĠvÃ¦r elser
d ige
op lev
Ġl yder
Ġdes ig
Ġkommun en
Ġgl as
Ġsek under
Ġbog en
Ġinv ester
Ġlever ing
6 0
Ã¦r kt
Ġbrow ser
Ġbyg ger
ĠL u
Ġh ud
s es
y ge
stil let
Ġtil h
uddann else
m per
Ġf rug
Ġbr and
Ġfr agt
H vor
sh op
ĠInd ledning
Det te
Ġmen ing
Ġt ast
ĠkÃ¦r este
l Ã¸se
ĠB ar
Ġi det
n else
ok ra
Ġf rivil
ĠT ra
ark ed
Ġdat o
gÃ¥ ende
stru p
sk ov
Ġfamil ien
Ġbl and
Ġty pe
ĠB esk
ch en
Ġin stitu
ĠO ff
Ġb ad
udv ikling
Ġpro jekter
Ġbid r
Ġaf snit
n ov
vej en
under sÃ¸g
y re
Ġresult at
Ġudv id
Ġreg el
i x
ĠO dense
ĠnÃ¦rm ere
Ġvalg te
Ġti me
er es
Ġres pe
olog iske
sm Ã¦ssige
Ġb ord
ĠundersÃ¸g else
ĠM od
riv es
c el
Ġtran sport
frem t
el edes
Ġflot te
ĠâĢ ĺ
k ast
Ġtyp isk
ĠÂ ·
L C
ĠM ange
in en
ĠEr hver
Ã¸ m
ib li
Ġu for
z a
at tet
or ier
Ġ3 1
ig tige
Ġser ver
osp ital
Ġeffe kt
Ġra mmer
Ġf irma
Ġaktiv itet
ost ninger
b Ã¦k
ĠV er
ĠS oci
Ġvi ste
ĠmÃ¥ der
Ã¸j et
Ġrej ser
ĠB et
Ġar range
Ġdelt age
t re
Ġnet vÃ¦rk
styr elsen
vis ion
A G
ed yg
2 5
Ġb ort
Ã¦ mp
w e
Ġden s
Ġunder vis
land et
ĠsÃ¦l ger
es er
Ġalmind elige
Ġm eter
ĠF ri
ant en
vej ledning
m ester
te gi
Ġm Ã¦rk
ĠEs cort
. "
Ġsik rer
Ġdat oer
hold else
Ġhvor nÃ¥r
Ġgl Ã¦der
Ġb elig
Ġpris en
Ġbesk ed
Ġan der
t ast
Ġber eg
Ġf yldt
fic eret
Ġkomb in
O p
Ġspeci al
ot o
Ġred u
Ġdok ument
Ġover f
ĠlÃ¦g ge
Ġk endte
Ġs Ã¸n
ĠN atur
k al
Ġfri sk
sÃ¦t ter
ĠpÃ¥ g
ow n
Ġn Ã¸j
dig vis
o den
Ġsm er
Ġty per
I S
ur en
a pe
am en
Ġunder visning
ĠG l
ĠB rug
ĠlÃ¦ kre
ful de
ad res
Ġkommun e
ĠE ner
v ne
D a
Ġover blik
ĠTh e
Ã¦t ter
Ġform id
i el
Ġnyhedsb rev
Ġt je
Ġre f
Ġend da
Ġpl uds
Ġud sigt
is sion
Ġh ul
ktion en
ĠV is
h Ã¥nden
Ġp leje
p erson
Ġjul i
ie w
Ġmid ler
ĠÃ¸v rige
Ġd yg
ve je
or k
o ter
Ġfrem tid
ĠdÃ¦ kker
oli ti
N ING
s ende
e f
Ġweb sted
mm ere
og en
j ob
, -
Ġful dt
R E
giv elser
ĠB o
ru ktur
Ġskab t
ĠÃ¸v rigt
Ġled ige
Ġg ave
Ġfunktion er
Ġp as
ĠKÃ¸benhavn s
Ġstyr ke
ĠP o
Ġsk olen
Ġh y
ĠF in
k ende
Ġnu mmer
v ist
Ġander ledes
Ġ *
Ġor dent
oten ti
Ġgener elt
ber et
van te
Ġvirksom heden
Ġal der
Ġf Ã¸de
b are
mm en
n a
Ġstart ede
ag ent
Ġener g
Ġf edt
Ġspil let
atis tik
r ere
Ġp ub
Ã¥r ige
vi se
i erne
ĠlÃ¦r ing
ĠS el
i at
spunkt et
ĠGr Ã¸n
v al
Ġdej ligt
l f
Ġpati enter
a ks
be var
Ġejend om
ĠL LC
Ġudford ringer
Ġregn skab
Ġs or
Ġf ran
Ġst ol
l Ã¥
n y
Ã¦ kker
ĠEn g
Ġsel ve
c a
Ġannon cer
Ġsk o
Ġst Ã¦rkt
g ar
ĠpÃ¥g Ã¦ldende
I T
iv en
Ġfor Ã¦l
Ġkont ra
Ġsid de
Ġp il
Ġsu pp
Ġh andling
get Ã¸j
Ġhus et
Ġko ster
Ġt un
4 0
ĠnÃ¸dvend ig
vÃ¦r di
Ġadres se
Ġa p
Ġgra vid
Al le
ger ne
Ġborg ere
vej s
Ġp ct
Ġcyk el
. :
Ġtan ker
op g
Ġm ist
Ġan er
Ġsitu ation
ĠP ris
v ede
Ġg li
v ig
si de
h Ã¦
Ġfin ansi
urop Ã¦
fÃ¸r ing
Ġkr ig
Ġf ac
ĠKont akt
ĠDer udover
ok al
p leje
Ġfor ker
Ġstar te
af hÃ¦ng
M ere
Ã¦r t
Ġsen est
Ġmennes ke
Ġm io
komm ende
rÃ¦ k
ĠG ener
Ġka ffe
Ġbas eret
Ġsam mens
v es
Ġlever et
Ġpri mÃ¦r
al s
Ġfor st
f Ã¦l
Ġkorre kt
Ġud gÃ¸r
Ġfor fatter
del ingen
Ġs Ã¸d
Ġfor estil
Ġvenlig st
Ġopr ind
lÃ¦g gende
ĠgÃ¸r es
Ã¦ss ig
A f
d elt
komm er
Ġ200 7
Ġp ort
s our
Ġ8 0
ĠS en
Ġtil syn
Ġkli kker
Ġhyg g
for b
ind re
i f
ogra m
Ġstand ard
Ġa m
Ġmu ligvis
Ġsag en
for ening
im od
Ġvar m
Ġt and
Ġcook ie
bet aling
ĠP l
Ġmilli oner
ik e
Ġoverra sk
ĠD ag
ĠhÃ¥r dt
in den
ĠS h
Ġbrug ere
Ġvil d
Ġ7 0
ĠCh ristian
sol ut
Ġver sion
h j
ĠF ort
il m
v ok
ĠÃħr hus
ĠnÃ¸d t
amp ing
Ġ3 5
Ġsp Ã¦nd
obb elt
Ġm v
Ġind b
eb yg
Ġliv s
ĠfortsÃ¦t te
ĠtvÃ¦r s
h istor
ge b
Ġbes Ã¸ger
Ġkommun er
ord ning
dag en
Ġomf atter
Ġv est
ĠlÃ¸s ninger
ĠB yg
Ġud arbejdet
Ġfors Ã¸ger
let ter
Ġtil lÃ¦g
Ġres er
Ġstart en
Ġ19 8
U n
Ġly kk
ĠP erson
Ġk ul
Ġmarked s
Ġv ore
Ġsl Ã¥
ĠI s
Ġsp ur
ĠB y
ĠsÃ¥ vel
Ġ z
h use
dr er
Ġbesk ri
Ġvide oer
ĠS m
ĠhÃ¸j de
Ġpa a
Ġbek ym
Ġvurder ing
ud styr
p la
Ġs tem
Ġso ve
Ġudg ave
Ġomf ang
ĠprÃ¸ ver
Ġc irk
Ġsmu k
Ġforb rug
Ġud gifter
tal ien
Ġtilb yde
ĠE x
Ġsk ift
Ã¥ g
Ġl o
or is
ug t
st ra
ĠkÃ¸b enhavn
Ġfin e
grupp e
skri ft
Ã ¼
Ġt rÃ¥d
Ġdri kke
Ġvi agra
âĢ ĵ
Ġ Q
omrÃ¥ der
Ġk g
ĠR es
r ene
ĠnÃ¸dvend ige
Ġsk il
Ġud bud
Ġfjer n
kl en
Ġaf deling
Ġpati ent
sl in
Ġvand et
ĠtrÃ¦ kke
Ġbet aler
Ã¦v net
Ġch okol
Ġd Ã¦k
Ġover h
Ġde bat
ĠF ace
ĠafgÃ¸r ende
a en
ĠlÃ¦ st
Ġny este
Ġf leks
p et
v iew
Ġind gÃ¥r
Ġdej lige
Ġgener alfor
Ġt ages
ĠA m
t on
ĠH e
Ġtid s
Ġben ytte
Ġfor retning
Ġbur de
ĠSt or
Ġop byg
Ġaf sp
ti ver
ĠV and
Ġres sour
V ores
Ġm agt
Ġt en
ĠfrÃ¦ kke
ĠF OR
Ġi denti
Ġk ald
ak tion
ĠG u
Ġrele vante
ĠprÃ¸ vet
Ġhand le
g Ã¦ld
Ġefter hÃ¥nden
Ġb eret
i ens
var me
itter atur
Ġh a
Ġprojekt et
st eder
Ġin teg
ru s
ĠPr odu
Ġvej r
Ġsm art
Ġmennes k
/ /
Ġforeg Ã¥r
ĠMÃ¥ ske
Ġgod kendt
Ġudvikling en
Ġunder stÃ¸
ĠÃ© t
Ġbl Ã¸d
Ġr ing
Ġven stre
hold es
ĠÃĺ n
sk olen
Ġfrem gÃ¥r
ff er
Ġbrug en
ĠTh ai
ĠnÃ¦rm est
Ġi fÃ¸lge
el en
Ġbrug te
Ġfors ikring
at h
Ġmed ier
s vis
Ġp ension
ra m
Ġind byg
Ġud l
ĠJ ensen
Ġl od
eg Ã¸r
Ġcent rum
Ġn ab
Ġb us
Ġtil behÃ¸r
ĠÃ¸konom iske
Ġk ed
Ġanmeld elser
Ġa mb
Ø±Ø± Ø±Ø±
ĠD R
Ġantal let
Ġkli kke
ret te
sk Ã¦r
Ġbe kl
Ġab solut
4 5
ĠIn gen
ĠV Ã¦lg
Ġr olle
del en
Ġk alen
ling s
Ġteg n
jer n
Ġan satte
Ġte am
Ġbl Ã¥
ri enter
ste mer
n at
Ġkl are
sp rog
Ġer stat
Ġop for
7 0
ĠSt at
Ġsl ag
ĠÃ¸j ne
h ave
an e
Ġa g
Ġpa kke
ĠF Ã¥
S am
r ende
Ġhav en
Ġgen op
N u
Ġsm il
Ġhistor ier
Ġstra ks
Ġkon cer
Ġover for
ĠrÃ¥d givning
ĠN or
âĢ¦ ]
K T
Ġfor ber
Ġpar ti
sb y
Ġst en
Ġkend skab
a ar
Ġg lade
Ġkl in
rÃ¦ kke
ĠÃ¸nsk ede
Ġp ol
Ġte ma
Ġbil en
Ġsjov t
che f
Ġl ader
ĠL ov
ok ost
Ġhv ide
el ske
ĠC ar
ĠV en
a er
L E
Ġre cept
k omst
ĠCh rist
el Ã¦g
ĠÃ¸ k
t ur
ĠFor m
Ġdag ens
Ġp unkt
ĠP rÃ¦
strÃ¦ kk
Ġsvar er
. )
Ġfantas tiske
il de
Ġsand syn
ĠHvor for
ĠB ag
Ã¥ det
ĠprimÃ¦r t
elt et
vend else
Ġ Ã¸l
D S
Ġprogra m
Ġreg lerne
vÃ¦r ker
Ġmedarbej der
Ġd Ã¸r
u k
Ġr Ã¸r
ĠreprÃ¦ sent
Ġv isse
ĠÃ¸konom i
is h
Ġbu tik
ĠE nd
Ġ ;
Ġdat ter
Ġmateri aler
Ġal tern
d omme
ĠR et
ors dag
Ġeksister ende
Ġdel er
ig ht
Ġop er
Ġer o
ĠArbej d
skil de
Ġa re
Ġl iste
Ġudelu kkende
af il
Ã¥r ig
Ġin t
ati ske
els et
ĠK lik
k endte
Ġl i
Ġanbef aler
Ġst of
Ġhver ken
Ġst ruktur
Ġdelt ager
Ġt ot
ĠK n
Ġbyg get
Ġo nd
p ark
Ġfor k
Ġnog ens
Ġk ryd
Ġgrund lag
v it
Ġsk ov
a kken
t om
Ġpluds elig
yt tes
ĠB olig
g jort
Ġfysi sk
ol f
Ġpoli tiske
Ġeksempel vis
ĠfÃ¸d sels
g Ã¸re
Ġbr Ã¸d
yt t
Ġfor mer
Ġmel de
giv else
ĠvÃ¦ sent
ĠhÃ¸j este
Ġforh and
Ġdig ital
Ã¦ ger
Ġop dag
ĠskÃ¸n ne
Ġs Ã¸de
ĠsÃ¸ ndag
Ġsmu le
Ġte mper
ac itet
rat or
Ġlig eledes
Ġforsk ning
u ra
U S
art ner
v ant
Ġvi dt
Ġr inge
- ,
ĠT ysk
ĠDes uden
S p
Ġbl omster
s Ã¸ger
ĠB Ã¸rne
: //
Ġuden for
Ġrisik o
Ġbet ragt
Ġsimpelt hen
sti t
and id
Ġfal der
H vad
ĠO G
mm elser
al te
sb et
vi dere
Ã¸l ler
in ter
Ġk old
sp olitik
R A
Ġra pport
Ġvis es
Ġejend ommen
Ġfor and
j end
Ġperson lig
un e
Ġlang s
ro s
Ġover ens
Ġm eg
ĠsÃ¥ som
k ar
ynd ighed
ĠV est
Ġp otenti
Ġdok u
t est
Ã¸b ler
Ġerfar inger
Ġinform ationer
s Ã¸ge
ot te
Ġv igtige
ĠD ig
b Ã¦r
ĠM idt
k or
Ġartik ler
an ger
Ġmark edet
ĠFace book
9 9
Ġgu ide
id ler
u de
Ġin vi
Ġsamt ykke
Ġdigit ale
ĠK om
Ġp Ã¦n
ak e
Ġg ift
Ġem ner
Ġd obbelt
Ġblog gen
ĠD in
2 2
Ġeng elsk
Ġm Ã¸n
ĠSund heds
ĠH us
Ġl Ã¸rdag
Ġs ad
ed en
ĠtrÃ¦ k
kl ar
fÃ¸r else
Ġforkl ar
Ġtilmel dt
Ġmod eller
Ġp apir
an ders
v est
ĠUn iversitet
Ġung dom
D E
R e
Ġd els
A r
Ġprin ci
Ġbred t
Ġkig ge
Ã¸r r
Ġan vende
ĠF Ã¦lles
ĠK ar
mm elig
Ã¦ ste
Ġfrem tiden
Ġperson ale
org anis
b Ã¸ger
ĠfÃ¦lles skab
Ġkar ri
o o
Ġ[ âĢ¦]
a z
ĠF ind
mel de
onne ment
Ġ yng
Ġj orden
Ġgen gÃ¦ld
Ġbes Ã¸ge
ĠM Ã¥l
ĠS Ã¸nder
h al
Ġbook ing
k rig
o ut
ĠfÃ¸r er
Ġalmind elig
is s
Ġgrund lÃ¦ggende
b red
m i
k an
g ra
v l
Ġover vej
ĠvÃ¦r ktÃ¸j
tid s
Ġe uropÃ¦
Ġ4 5
Ġhjer te
ĠtrÃ¦ der
dig heder
Ã ¤
Ġnogens inde
br ud
Ġlever and
Ġkonse kv
Ġ Ã¸get
ik er
Ġkommunik ation
Ġhun de
ĠB es
Ġb atter
Ġig ang
ti mer
i kk
lÃ¦g ning
Ã¦ ge
vi den
Ġbeh ag
rÃ¦ kker
Ġover v
grupp er
ĠbegrÃ¦n set
ĠÃ¦nd ret
ĠÃĺ st
Ġu afhÃ¦ng
Ġb yder
Ġvar mt
Ġindhold et
adres se
ĠSk ole
ri ft
tid spunktet
Ġc i
ĠFol ket
til bud
Ġperfe kte
A S
E G
Ġsp are
ĠT o
Ġdi alog
Ġ3 3
M in
sk el
Ġkomment ar
ĠM o
Ġtil kn
li vet
U N
h a
Ġs hop
nes s
Ġ =
Ġkur sus
j a
ĠSam tidig
Ġopret te
Ġdag lige
Ã ĥ
Ġh ovedet
Ġled else
ĠfÃ¸d t
Ġst rÃ¸m
Ġsk ar
am in
Ġtil skud
ĠsÃ¦t tes
ĠdÃ¥r lig
st of
forstÃ¥ et
al b
Ġne mmere
Ġn eder
ĠÃ¸konom isk
ĠfÃ¸ le
Ġt ryk
Ġu tr
Ġlet tere
s ret
ĠHan sen
ĠS Ã¸
Ġs ang
ks er
Ã¸l le
Ġek skl
m on
Ġfor pligt
A B
ak tiv
r und
Ġfor ne
ort en
Ġtr yg
ĠvÃ¦ s
ir ksom
el d
Ġu gen
ĠI T
Ġelekt ron
il et
Ġfor ret
Ġo k
Ġeks p
ĠSoci al
ĠÃ¸ ver
ĠSu per
Ġtil meld
orn holm
Ġbr Ã¦nd
as mus
Ġkra ftig
J a
Ġd re
Ġbr an
Ġpr Ã¦g
ch er
ek end
ĀĀ ĀĀ
Ġinternation ale
Ġelever ne
ff et
Ġfag lige
Ġudvalg te
ĠNi elsen
for mer
Ġsk atter
Ġanbef ale
Ġor ig
Ġsikker heds
ĠR ing
Ã¦r ket
ĠT ryk
Ġomf attet
Ġfri t
Ã¸r et
ĠD it
Ġdag lig
Ġs ub
Ġtyd eligt
Ġt us
ĠlÃ¸b er
ĠÃ¸jebli kket
tid igt
Ġb rev
Ġu middel
Ġma ks
Ġviden skab
Ġlever e
b ord
Ġk Ã¦l
g l
ter ede
St k
Ġbolig er
min ister
ĠM ich
sm u
ord in
Ġinde holde
Ġk Ã¸d
Ġti ps
Ġk ir
Ġbestyr elsen
ent ligt
fÃ¸r te
Ġsk ade
Ġweb shop
Ġh Ã¥b
Ġr im
.. ]
Ġfrug t
Ġr y
ĠS jÃ¦lland
ĠM and
Ġj agt
trodu ktion
Ġb ol
k li
Ġbef olk
Ġs la
Ġ Ã¸d
Ġmulighed en
Ġ[ ..]
ĠhÃ¸r t
Ġaf tal
urder ing
sk u
ĠlÃ¦kker t
Ġbry st
i mm
Ġs ne
Ġh erefter
ĠS K
ĠA pp
Ġi t
F Ã¥
s Ã¸
EL SE
svar ende
h Ã¥nd
ĠH os
ĠA ir
A t
Ġb age
ĠT id
Ġoff ici
Ġren gÃ¸r
Ġg uld
Ġdetal jer
Ġbilled et
Ġforet aget
Ġs endes
Ġra bat
pen ge
ĠInd tast
ĠJ Ã¸rg
pr Ã¸
Ġp ig
Ġgennem fÃ¸rt
I K
ĠgrÃ¸n ne
Ġf isse
Ġv enter
Ġen heder
Ġs ager
ag ere
Ġfors v
dat a
Ġkont or
Ġ Ð
Ġkon stru
Ġser vic
Ġh tt
ĠnÃ¸j ag
2 4
s ler
Ġom gang
Ġinteress ant
Ġud landet
tal let
id ste
ĠprÃ¦ st
ĠF ord
fer ie
k asse
ĠansÃ¸g ning
ĠbÃ¦r edyg
ke ma
Ġoli e
Ġvil dt
Ġansvar lig
w are
Ġakt uelle
c yk
v ik
Ġkont o
Ġ3 6
? ?
ĠF rem
I V
Ġv ansk
d yr
Ã¸rgsm Ã¥let
Ġ200 6
kk erne
Ġun ik
Ġvi der
Ġp asse
H an
Ġst ress
ul le
Ġchokol ade
vok at
n avn
Ġfor en
lighed en
mp tom
Ġstil ling
Ġbe bo
Ġkli ma
Ġd Ã¸de
Ġc o
Ġfor e
gr Ã¦n
Ġfor be
Ġat tra
Ġk j
al le
ĠV elkommen
Ġsi te
ĠS T
Ġind fly
ĠN Ã¸r
dat o
ring en
og ne
ab et
rag ende
y b
Ġp ul
land ske
Ġfysi ske
-- --
Ġad skil
Ġop bevar
ol u
at Ã¸r
Ġopskri fter
lÃ¸s ning
sl and
a ard
ĠHen rik
ag ne
amer a
ĠTysk land
Ġop h
Ġle g
Ġv inder
ĠTh om
Ġfly tte
Ġbil lige
Ġt ri
Ġti m
ĠM iljÃ¸
le x
Ġkn ap
n iveau
ist ri
Ġneden for
is me
R O
Ġ )
hand el
a el
Ġb und
ĠlÃ¸b e
ste mmelse
Ġstig ende
Ġorig in
Ġm Ã¦l
o od
ass et
ĠL ig
H os
Ġmu se
sÃ¦tt elser
s ning
Ġkateg ori
Ġ9 0
Ġlig ge
Ġb om
Ġfrem over
ĠOg sÃ¥
m Ã¦nd
k a
ĠFrederik s
Ġarbejdsm iljÃ¸
ĠL ars
ĠrÃ¥ dighed
ĠR asmus
Ġsu kker
Ġfor ening
S P
der et
b as
Ġspil lere
aft ale
Ġele v
Ġtemper atur
Ġk und
ko hol
stit ut
ĠsÃ¦l ge
si kker
d igt
Ġdag s
Ġamerik anske
Ġt a
grupp en
ĠÃ¸ st
ant ra
f at
ĠH and
ti c
Ġover ord
i tion
ĠÃ¸ ge
Ġm Ã¦rker
Ġb on
E M
ĠmÃ¸d es
Ġprakti sk
Ġhen blik
Ġk ende
ic k
der sen
a ut
Ġsagt ens
es tiv
ĠUd dann
Ġpub lik
Ġanaly se
Ġb ank
Ġfleks ib
Ġf ed
p lejer
V Ã¦r
fil m
r op
own lo
ĠopkrÃ¦ ver
S B
av or
Ġd Ã¸ren
ĠÃ¥r ets
Ġkonkret e
Ġret tigheder
mÃ¦r ket
ĠtrÃ¦ t
ĠS c
Ġforn Ã¸j
an en
ĠG e
Ġg ri
ĠC o
Ġe x
Ġaf sk
hje mme
Ġg ymnas
l ub
sel skab
f undet
sk ur
sk ode
Ġkal der
Ġd Ã©
i ce
ĠL ad
ĠbekrÃ¦ ft
Ġfred ag
pe ci
ĠGra tis
Ġpen gene
Ġtil slut
un t
g ave
ĠvÃ¦s entlig
ĠNe w
Ġannon cen
h andling
Ġfor es
Ġtillad else
Ġin fo
Ġmed del
Ġrele vant
Ġsk rÃ¦
ati k
Ã¥b en
Ġkompeten cer
vÃ¦r ket
Ġsk at
ĠR ed
ĠB eg
ĠO n
v ind
Ġbil er
feren ce
Ġb aby
dan net
Ġvoks en
Ġra mme
om e
Ġk Ã¸l
midler tid
Ġl Ã¸se
ĠB or
Ġrestaur anter
Ġanmeld else
ĠK ultur
Ġlever ings
Ġen hed
iver se
Ġnatur en
S Ã¸g
Ġin nov
Ġfors var
sb jerg
Ġforker t
Ġi vÃ¦rks
ĠEner g
Ġjo ur
yl dig
Ġaf gÃ¸relse
Ġ5 00
in es
ĠPro jekt
ĠvÃ¦r else
lad et
Ġover sigt
N y
Ġud stilling
it te
n ene
Ġhistor ien
land t
eg ne
sk i
Ġper ioden
Ġoverh ovedet
Ġ Ã¥
Ġs atte
Ġbe mÃ¦rk
ĠtrÃ¦n er
sm Ã¸de
kt Ã¸jer
ĠtÃ¦n kt
Ġvir ke
Ġm este
Ġmin imum
Ġh Ã¦nder
sl en
Ġven te
ĠS l
Ġn ej
on g
ĠtÃ¦n der
re bet
Ġs cen
Ġstud ie
Ġan al
Ġbeslut ning
Ġste mme
on en
Ġsam arbejd
er i
ĠJ ens
Ġbeg iven
ed ag
Ġski fte
ĠhÃ¥r d
ĠF yn
fer at
j eg
ĠJ ob
Ġgr unde
Ġd est
am ent
Ġben ytter
st edet
ĠSk al
Ġan sigt
ĠS ver
Ġu t
Ġsk atte
Ġsp or
ĠtilgÃ¦ng elig
S elv
Ġmind ste
var ter
Ġudvik ler
ab ri
Ġs ven
Ġkv art
, âĢĿ
ĠL ang
Ġv an
Ġ ing
M an
Ġhold ning
Ġt Ã¦
v ikling
Ġm aler
Ġfuld stÃ¦ndig
ĠS ort
Ġti der
Ġ: -)
Ġst Ã¦rke
reg n
Ġbet ingelser
ĠP ost
Ġafsp ej
Ġnatur ligt
Ġst ykker
8 0
Ġra di
Ġud k
sp eci
Ġud fÃ¸rt
Ġkap acitet
ĠforstÃ¥ else
Ġlever er
ĠK ort
Ġevent uelle
ĠD el
gÃ¸r elsen
rem e
ĠnÃ¦vn t
ĠbesÃ¸g ende
Ġsyn tes
re ve
rip t
f olk
Ġv andt
ra b
j ord
Ġfor stÃ¥r
Ġt u
Ġdesig net
ĠJ ul
ĠTe kn
Ġvid ste
m ag
Ġform and
Ġoverens stemmelse
n Ã¦vn
Ġg ent
Ã¸ mme
id del
Ġn ov
S c
Ġk em
ĠT IL
ï ¿
al k
ed else
un st
Ġvar et
Ġh as
ĠJ u
av et
ĠreprÃ¦ sen
Ġd vs
stil le
Ġd Ã¸g
ĠErhver vs
ĠAn ders
Ġprodukt et
ĠvÃ¦rdi er
E S
Ġ19 7
egÃ¸r else
Ġklassi ske
s jÃ¦lland
ĠF Ã¸l
an el
ti der
P ris
ĠM on
ĠF ar
ï¿ ½
2 1
yd es
Ġo rienter
hold et
sl aget
ĠopmÃ¦rksom hed
Ġan ti
Ġforb ruger
Ġind ustri
p ladsen
Ġpoliti et
Ã¦t te
Ġful de
Ġrejse agent
ek endt
Ġr Ã¸de
ĠP eder
h aver
Ġbuti kker
ĠÃ¥rs ager
Ġbev idst
vend t
ilke borg
kon t
komm e
L Ã¦s
ĠAn dersen
ĠâĢ Ķ
ĠB emÃ¦rk
al der
Ġinternet tet
Ġpla ceret
s erne
Ġin iti
Ġi r
ft est
Ġvirkelig heden
mind re
ar der
in stitu
ĠS ol
ll up
l Ã¦s
ater et
Ġgener isk
Ġf e
ĠÃ¥b ner
s ag
Ġl ider
Ġspeci fik
Ġvej ret
en es
H ej
om k
p ladser
la us
Ġkom fort
Ġf art
Ġbestil ling
Ġv al
b ed
Ġtil strÃ¦kk
g el
ĠR ej
h und
as c
Ġop pe
Ġstat us
a in
Ġch at
ĠSt k
ra le
ĠfrÃ¦ k
st ande
O m
Ġty sk
ĠU den
I ON
Ġs il
Ġmang lende
Ġprofession elle
ĠH je
sÃ¦t ninger
ĠðŁ Ļ
ater ne
Ġf Ã¸re
Ġ: )
ĠL eg
y ske
Ġhverdag en
undersÃ¸g else
Ġf yld
se k
gang en
Ġperson ligt
ĠV alg
Ġford ele
s omme
p il
Ġdren ge
Ġm ent
Ġty ske
sul ent
Ġeng elske
Ġst ran
Ġev al
Ġs ur
ĠP lan
Ġgl ob
ĠD K
er n
A M
em a
p lig
Ġvej led
Ġlev ende
ĠC V
lag te
Ġci alis
ĠB en
p unkt
Ġfolk esk
Ã¦nd ing
Ġgrupp er
Ġop stÃ¥r
Ġhj ul
Ġs ind
ve ks
t ning
ed rag
Ġejend omme
ĠlÃ¥ ne
t h
m Ã¦ssige
Ġsommer en
ĠT ak
tim ent
Ġ Ã¥nd
al inger
Ġfun gere
Ġf jerne
ĠH otel
Ġtil lid
prÃ¦ sent
s u
Ġdansk ere
ĠS orter
Ġn ede
ĠsjÃ¦l dent
Ġide er
ĠD KK
ĠkrÃ¦ ft
ĠJes us
lÃ¦ ge
2 3
op p
Un der
Â ´
Ġwe ekend
Ġpoli tisk
ti dens
att ende
Ġu g
Ġlu kket
pro jekt
ĠL okal
Ġh uden
l aget
ag te
Ġtekn ologi
Ġopret tet
ĠPo ul
Ġsmu kt
c ed
ĠB ed
v ide
Ġe mb
itet en
Ġtekn iske
i ber
Ġskri dt
Ã¦n de
Ġu p
Ġforet age
Ġbesk revet
Ġbelig gende
Ġark ite
Ġkamp en
h aven
Ġnav net
Ġmand ag
ĠRo skilde
bar hed
le g
Ġtjen este
hand ler
ĠsÃ¥ fremt
ygt ning
Ġordent ligt
Ġbegyn de
Ġf la
Ġdag ligt
hold ning
ĠF lere
op per
Ġp ga
Ġsk ru
Ġkv ali
Ġk irke
Ġrekl am
men e
ĠSund hed
Ġregist reret
ĠA p
ĠKommun es
Ġfrem ragende
Ġfre mme
Ġhen te
us sion
ĠfÃ¸l elser
Ġtil stand
ĠT ag
ĠK rist
s org
ĠM el
Ġstil ler
Ġan sat
y p
f amil
Ġtid ligt
Ġfot ograf
Ġforl Ã¦ng
Ġbeskri ver
nÃ¦vn te
Ġstra teg
Ġnat ten
ol ver
Ġc amping
am m
ĠD i
ĠfÃ¥ s
Ġ3 2
ĠD og
ĠfÃ¸dsels dag
Ġinst all
Ġtop pen
ĠtrÃ¦ kker
ĠP h
l ov
Ġkarri ere
produ kter
Ġnatur lige
Ġfal dt
Ġtur en
Ġorganis ation
ĠÃ¥b ent
Ġv ende
Ġu mu
s it
Ġsp iser
ĠE m
Ġap otek
Ġarbejdsp lads
ĠðŁĻ Ĥ
Ġ200 5
Ġkomment arer
Ġinteresser et
v alt
Ġsk ader
uler ing
ru get
Ġs orte
Ġafh Ã¦nger
b or
Ġtr ans
Ġsket e
Ġond t
Ġutr olig
f r
Ġind re
Ġen der
Ġem ne
Ġt riv
E J
Ġsk ib
sp ar
Ġi P
Ġforb undet
aly se
opg aver
ans var
Ġsk r
Ġkig ger
Ġf avor
Ġs aa
Ġaktiv t
Ġal kohol
a ffe
ĠL iv
Â §
for eningen
mask ine
Ġg Ã¦st
ĠSam men
eser vice
Ġbooking tidspunktet
Ã¦ ne
Ġud givet
Ġlin ks
Ġefter mid
Ġanbef ales
iser ede
de m
Ãĺ R
Ġaf s
iat ri
Ġsam le
et ter
is en
syn et
Ġland ets
ĠSver ige
ĠK irke
Ġad fÃ¦rd
lem enter
ol l
sl Ã¸s
spro ces
n ed
sm od
Ġopf at
AN D
Ġse vÃ¦r
Ġbil ligere
med lem
ĠK ap
lig gende
Ġfr okost
Ġindfly delse
Ġdet s
Ġi midlertid
d der
sk en
y pe
ook ies
T ER
Ġeg net
Ġdag es
sm Ã¦ssigt
Ġtr in
Ġk redit
Ġj Ã¦vn
Ġbegynd t
Ġ >
ti vt
Ġr elig
it ra
sÃ¸g ning
Ġhvor efter
Ġm ode
fik ation
Ġf Ã¦ng
Ġkon e
ĠH old
Ġkvalitet s
ĠSt ore
for brug
sl oven
Ġlever es
k raft
jen este
sk on
Ġb ibli
ĠdrÃ¸ mme
Ġm oms
er nes
f isk
Ġv inde
i ets
r ang
ĠkÃ¸r et
fri t
Ġhot eller
gÃ¥r d
di re
Ġud lÃ¸b
T e
Ġopskri ft
ark edet
ĠH av
Ġst atistik
Ġpo int
teg nelse
Ġbesk rivelse
Ġbyg ninger
eg Ã¥r
ĠJ ylland
Ġab onnement
ĠH usk
sp er
dr ene
en sk
Ġud end
ĠFor slag
hje m
tag es
Ġmu lig
Ġkald es
am me
D an
A D
kst ed
Ġm ik
fÃ¸l g
hver t
Ġsy mptom
Ã¦ le
ĠtilgÃ¦ng elige
Ġgiv es
Ġvil de
Ġs alt
Ġumiddel bart
Ġop stÃ¥
Ġdy re
ĠafhÃ¦ng ig
rÃ¥ de
Ġud giv
ĠT or
Ġlykk edes
ĠKv inder
Ġs ing
Ġo ftest
Ġ200 4
k ster
in st
ĠmÃ¦ng de
Ġ20 00
Ġst Ã¸j
ĠC enter
Ã¦g t
il i
Ġevent uelt
ĠS E
Ġr us
Ġs w
fun ktion
f yldt
ĠGr und
Ġf ang
Ġgaranti er
Ġover sÃ¦ttelser
s or
Ġarbejds giver
Ġf igur
Ġkl age
Ã¸l v
Ġser ie
Ġt om
Ã¦g ter
ĠN yt
l og
ateri ale
rej se
Ġfor ebyg
Ġm Ã¸det
s c
m or
Ġto ilet
ĠSk ov
Ġprofession el
ab le
ĠundersÃ¸g elser
Ġforvent es
Ġ3 4
Ġso f
an cen
ad et
Ġsp Ã¸rge
for men
ĠR anders
Ġaf d
ĠsÃ¥dan ne
Ġt orsdag
ĠM art
m ann
ĠVej le
s ger
rÃ¦ ning
ĠM us
ĠkÃ¸b te
Ġland brug
sk ort
Ġrom an
uddann elsen
Ġkonf lik
Ġretur ner
0 1
ar i
Ġretning slin
as er
ĠA F
Ġb ange
mÃ¦r ker
kald te
Ġprakti ske
Ġting ene
eg er
ĠH vem
Ġlaver e
jen ing
ul ti
og et
t Ã¸j
Ġbekendt gÃ¸relse
Ġkl ik
ĠP la
Ġor den
ĠkÃ¸r te
ĠdÃ¥r ligt
Ġhel digvis
Ġti r
se x
Ġdat ab
Ġtil svarende
Ġefter sp
Ġkonst ant
Ġevent yr
ĠJ ac
virksom hed
ati ver
Ġer kl
Ġud arbejd
an ne
Ġon sdag
ĠG ennem
vil kÃ¥r
ĠC O
Ġaktiver e
P r
od bold
ĠFor fatter
Ġh Ã¥nden
ĠS Ã¸ren
ĠS tig
r Ã¸rende
k es
ow s
u ering
sm ed
ĠÃ¸je blik
Ġbyg ning
Ġefter Ã¥ret
ĠE sbjerg
d ele
an ke
Ġk andid
Ġ Ã¦b
Ġaf melde
ĠnÃ¦ v
Ġaf lever
Ġst Ã¥l
d ik
R U
Ġfor nu
ind sat
ĠprÃ¦ m
Ġuddann elser
ser v
Ġan givet
lad else
ĠK j
Ġun ivers
Ġoplev et
Ã¦v ne
Ġlav ede
Ġinkl uder
d u
Ġh Ã¦nger
Ġb unden
Ġmodtag else
ig heds
Ġk art
est ed
ĠJoh n
Ġi l
Ġn er
e ken
p art
ĠS vend
u et
ĠS iden
Ġsl Ã¥et
yn am
Ġst abil
ol de
Ġomk ostninger
Ġv ask
Ġfors Ã¸ge
Ġfol ke
f irma
Ġmid del
Ġinv olver
iv t
kl Ã¦d
Ġder ved
Ġunder sÃ¸ge
vej r
z z
ĠIn den
Ġfort alte
re am
Ġfrivil lige
Ġre v
ot h
u al
byg ning
smu ligheder
Ġc it
ĠM u
Ġ ?
lÃ¦g ges
or ks
Ã¸rg es
Ġinter view
Ġhotel let
Ġprakti k
Ġd iverse
Ġperson oplysninger
Ġun ikke
v ogn
Ġsp is
Ġ3 7
Ġ !
ĠP rÃ¸
Ġmet oder
Ġs Ã¸rger
st ad
Ġhurtig ere
ĠsÃ¸ vn
s id
Ġde fin
Ġser i
Ġtan ke
te kn
Ġre k
ĠPorn o
Ġprogra mmet
Ġgul v
e x
Ġd amer
et id
ĠÃ¸j nene
ap i
av a
ĠsÃ¦r deles
sk ede
v idt
Ġudstyr et
F Ã¸r
2 6
Ġd ownlo
bo x
Ġ7 5
us ive
Ġder imod
Ġvider eg
Ġrespe kt
ĠH Ã¥nd
Ð ¾
mm ende
Ġdyb t
Ġl itteratur
st al
f Ã¸d
b el
w ord
land s
Ġn or
Ġud bet
ĠsevÃ¦r digheder
Ġp e
B il
Ġm yndig
ĠgrÃ¦n se
Ġop taget
Ã¸n ne
Ġtil tag
s ens
Ġsamarbejd sp
ar ter
t ale
ĠV irksom
Ġover skud
ĠtÃ¦n kte
ĠA L
ĠP a
ĠR en
Ġf und
Ġret ten
ra k
r or
for slag
Ġkor te
Ġden gang
201 5
2 8
ban e
se ende
Ã¸ kken
Ġdire ktÃ¸r
den afil
sfor tegnelse
lem t
Ġkunst ner
Ġv ent
cer ede
Ġresult atet
ser vice
ors ens
ekendt gÃ¸relse
p apir
Ġkalen deren
op pe
ĠThom as
Ġgennemsnit lige
spil ler
Ġbed es
g ange
Ġorg an
Ġkon cent
Ġst offer
Ġekst rem
en h
Ġtir sdag
Ġg rÃ¥
Ġplan ter
Ġkv ind
Ġbidr age
Ġplacer ing
ĠkÃ¸b es
Ġh id
Ġomf attende
Ġs av
ĠL ar
p ens
ĠeuropÃ¦ iske
Ġgeneralfor samling
is tiske
ĠN r
ĠD is
Ġind stilling
Ġv aske
Ġman den
Ġmed vir
h l
Ġselv stÃ¦nd
Ġud fÃ¸res
ow er
viden skab
Ġelekt ri
Ġadgang skode
ĠT i
ĠIn formation
stru ktur
red i
ĠN avn
m Ã¦ssigt
a ste
Ġudend Ã¸rs
Ġfrem stillet
ĠB ruger
Ġele menter
Ġde b
Ã¦s ent
Ġgra der
ik ere
Ġfor Ã¥rs
Ġr und
r om
Ġpres se
0 6
Ġgar n
Ġtekn isk
Ġmarkeds fÃ¸ring
Ġk ne
Ġven der
ot at
Ġpri ori
oplev else
Ġm ass
Ġklub ben
Ġan ledning
Ġkontra kt
ĠS v
Ġtra vl
Ġbl Ã¸de
0 9
Ġa ss
g od
Ġby ens
Ġhygg eligt
o x
, "
for sikring
Ġmo tion
ur er
V is
ĠNi els
ĠlÃ¦ der
Ġf ylder
Ġmed mindre
Ġb ri
ĠnÃ¸g en
ĠgrÃ¦n ser
Ġsj ove
b Ã¥nd
l u
vÃ¦ sen
Ġrestaur ant
Ġspur gte
Ġudford ring
ĠR Ã¥d
ĠG am
m o
ĠsÃ¥ kaldte
estil ling
Ġmaks im
Ġkommun ens
ll ust
it h
Ġhel bred
red se
s ede
Ġtil trÃ¦
Ġp at
Ġlig ner
um e
B S
ĠbekrÃ¦ ftet
Ġkommun ale
Ġud fÃ¸re
Ġst r
Ġt alt
li p
Ġnorm al
Ġkonkurren ce
Ġ Ã¦ld
Ġn i
ĠbevÃ¦g else
Ġkun den
ĠVi borg
n erne
ĠE g
Ġh Ã¦k
Ġren over
ĠM it
Ġled ere
Ã¦l ger
om eter
Ġk ampe
sm Ã¥l
Ġm er
Ġge mme
Ġsk riv
ĠF amil
Ġ3 00
Ġsy v
ig h
konom i
Ġind stillinger
ĠH ej
ver den
Ġte mp
app en
Ġsam ling
Ġdren g
x x
ly st
Ġper spe
M ange
ĠFÃ¸r st
Ġbehand ler
ry de
ĠB u
z e
Ġu trol
be kendt
Ġd rÃ¦
0 5
i al
ĠM et
V ej
. Â«
ret s
am per
Ġkl og
. -
Ġaf holdt
ĠD em
ĠFol ke
Ġover be
Ġl ive
ĠF red
Ġret ter
k end
Ġslut ningen
Ġlog ge
m oder
Ġsp ar
Ġud lej
for d
Ġg em
ĠL ej
Ġfor vejen
ĠN ej
Ġsp Ã¸rger
Ġfor Ã¥ret
Ġsp Ã¸rgsmÃ¥let
ra kti
ĠM ov
Ġafspej ler
on ym
M S
V ar
fÃ¸r sel
Ġf ler
Ġlov givning
Ġbuti kken
ĠF er
ĠðŁ ĺ
ĠSelv om
cer er
Ġdi agn
Ġre par
t og
Ġlag de
s an
ĠsÃ¦d van
Ġen ige
Ġarrange menter
Ġkap ital
Ġreger ing
ol ie
Ġte en
kst ra
ĠP ark
2 7
ran chen
ĠB ru
Ġbegynd elsen
Ġs itet
Ġhu se
Ġposi tiv
Ġsor timent
Ã¦g ler
Ġ19 6
Ġforet ages
st alt
ic ap
Ġ3 8
Ġend te
Ġkr on
Ġg alt
Ġsel skabet
Ġmet ode
Ġaf stand
ĠH D
Ġk ast
st ede
Ġsig n
sm et
Ġud over
i Ã¸r
sb org
ĠkrÃ¦ fter
Ġhens igt
ĠF Ã¦r
Ġfal de
am b
sminister iet
Ġhjemm et
Ġkre ativ
Ġt j
Ġan gÃ¥r
p t
Ġdem okra
Ġmu sk
5 00
Ġby er
Ġnav ne
our nal
Ġdre jer
oblem er
Ġh om
Ġsol gt
V il
Ġland sby
Ġwe eken
Ġsamt ale
el and
Ã¦l ge
ele f
ĠV al
Ġban en
Ġny der
0 3
ĠnÃ¦r heden
Ġom givelser
ĠmÃ¸d t
ĠK old
Ġakti ve
ti fik
Ã¦ng de
Ġvej e
st art
Ġaf sted
ĠBil ag
i or
Ġk amera
Ġtast atur
ater ede
tik ler
krÃ¦ ft
Ġudb yder
Ġf j
Ġbry llup
Ġsvar e
Ġsen g
ĠfornÃ¸j else
ĠI d
ĠfÃ¸r ende
Ġyder st
Ġfamil ier
er ende
Ġproblem et
Ġs ov
OM M
Ġb ede
Ġt ank
Ġover veje
Ġle getÃ¸j
Ġved kommende
reg ler
trÃ¦ k
Ġsl u
Ġkur ser
Ġgar an
ĠnÃ¸dvendig vis
y er
ĠbeskÃ¦ftig elses
Ġk rist
sam lingen
v alitet
ĠF olk
ĠF oto
sk et
ter ende
ytt elses
ĠU l
Ġso ft
Ġover nat
Ġm Ã¸bler
ĠL ige
Ġs a
ĠstÃ¸rr elser
Ġkvalitet en
Ġafsl app
ĠÃ¥r ligt
f tige
ĠS yge
ĠK ur
Ġen orm
k amp
Ġh Ã¦v
U D
Ġstat s
skab s
E m
Ġhe mm
at form
Ġvar em
lÃ¦g ge
l av
ĠS ilkeborg
ĠnÃ¥ ede
Ġh il
Ġpr Ã¦sent
ĠI I
Ġbil ag
n is
ade m
ĠP riv
ĠFran krig
ĠS al
ur dere
in formation
ĠL ed
tÃ¦g ter
Ġdisk ussion
sk ol
Ġlav t
ĠpÃ¥ lid
kl usion
h ej
st anden
Ġnyhedsb revet
au se
Ġsp id
Ġ yde
Ġsp ej
Ã¦ dt
Ġbeslut tet
Ġvis ion
Ġgennem gÃ¥
l Ã¸n
Ġudb red
Ġp or
Ġsk oler
I F
Ġkvart al
ir t
k omp
igtig t
f ikke
Ġunder vejs
ĠUn g
li m
ĠprÃ¸ v
3 5
ĠM ax
ĠsÃ¦l ges
sk ning
sh Ã¸j
udv ik
mu ligheder
Ġpublik um
yt tede
ĠI N
Ġeffektiv t
ĠnÃ¦rm este
ri m
Ġaf fald
Ġbestyr elses
E K
Ġd k
ak a
Ġudk ig
g ive
asin o
ĠfÃ¦r re
ĠSt ud
Ð °
Ġarrange ment
Ġaft aler
el m
ĠV ester
r in
ĠMich ael
Ġu til
Ġa u
Ġstem ning
Ġhjemmes ider
3 6
Ġkomp let
Ð µ
ww w
un k
Ã¦ kken
ĠdÃ¦ kket
h an
Ġtilmel de
ĠM al
ĠRes ult
Ġinstitu tion
b ruger
Ġpl us
ĠfÃ¸l es
ĠArbej ds
ĠdÃ© t
Ã¦t ning
Ġind sigt
lem ent
Ġprogra mmer
Ġkl ass
Ġpark ering
Ġeksemp ler
am men
on es
li ste
el len
ĠE N
v a
ĠmÃ¸r ke
K Ã¸b
y sten
u tere
jer ner
Ġsupp ler
var m
Ã¸rges kema
Ġfor um
O T
Ġud p
Ġjour nal
F OR
c eller
Ã¦l ler
ĠkÃ¸r t
Ġr ob
ote ket
Ġt Ã¥
Ġra mt
ĠVi de
V elkommen
ĠhÃ¥nd tere
P S
Ġv egne
i as
ell as
Ġaktiver et
ograf i
Ġforv enter
vÃ¦r elset
ĠJ e
Ġsitu ationer
ĠÃ¦nd rer
ĠspÃ¸rgsmÃ¥l st
Ġdyg tige
Ġl isten
Ġf ing
yr k
Ġst ue
ret tel
Ġan mod
off et
orks hop
Ġmat ch
ĠAn ne
Ġhjer tet
Ġs Ã¥r
Ġs lan
Ġplan er
Ġhyg ge
ĠnÃ¦vn te
ĠA ut
ĠpÃ¥ rÃ¸rende
ĠForm Ã¥let
Ġi mÃ¸de
Ġbet alt
Ġbekl ager
Ġper i
Ġsk ad
ĠE jend
o ck
age ment
ĠFolket inget
ĠV el
Ġfremm est
Ġgrund igt
Ġher af
yg ger
ĠIndhold sfortegnelse
Ġhyg gelig
Ġoprind elige
Ġlig eg
Ġhenhold svis
vej ene
Ġh este
Ġk ob
sk riv
ÃĨ R
arbej ds
Ġbehandling en
ok se
non cer
Ġkry ds
Ġgener elle
ĠG uds
Ġlin ket
sm Ã¦ssig
Ġbehand les
ĠrengÃ¸r ing
Ġanvend t
ĠH al
Ġs Ã¸rge
ĠSp Ã¸rgsmÃ¥l
mm erne
Ġend videre
F al
D ansk
Ġgennem fÃ¸re
Ġkal det
Ġtilf Ã¸je
li ver
je ktiv
gÃ¸r es
Ġcirk a
Ġfl ygtning
Ġh ospital
s lev
Ġtil gang
Ġg ud
ĠJac ob
Ġfor edrag
ag erne
ĠM ark
ĠB ornholm
Ġstra tegi
Ġrol igt
ul ler
Ġdansk erne
ĠlÃ¦g ges
ĠindgÃ¥ et
f yld
Ġc y
Ġst Ã¸v
Ġsl og
2 9
ov re
Ġbesk yttelse
Ġfor Ã¥r
Ġr Ã¸g
Ġudsk ift
b Ã¸rn
ut te
ĠB j
Ġ5 5
Ġimp lementer
ĠR us
od y
Ġressour cer
ĠvÃ¦r ktÃ¸jer
Ġsk in
Ġsl Ã¥r
ĠK at
n o
ĠJ an
Ġan t
Ġtillad t
ĠArbejd sm
Ġbilled erne
Ġ15 0
es se
al erne
ĠNord jylland
prÃ¸ ve
ĠmÃ¥ned en
Ġvedlige holdelse
aft en
Ġter ras
ĠDat o
Ġreg ne
Ġud lever
il iteter
ur o
ĠJoh an
Ġev ne
Ġud dannet
ĠÃ¦nd res
Ġegen skaber
feren cer
ĠJ ava
Ġsyg domme
Ã¦l der
ĠD M
Ġmorgen mad
Ġtro ede
Ġdeltag ere
r el
le k
la den
Ġundervis ningen
a w
Ġdeltag else
KK E
P ro
Ã¦ kst
Ġaften en
Ġr ut
f art
Ġ3 9
Ġlev itra
gr unden
Ġforn y
ĠpÃ¦n t
Ġdags orden
Ġben yttes
ĠF ag
at s
Ġdokument ation
ĠB Ã¥de
r est
ĠMart in
op enh
Sc ript
del inger
Ġr unde
Ġcent rale
Ġhvor vidt
ing elserne
Ġalmind eligt
Ġland s
Ġint ens
it t
h o
Ġuddann elsen
ĠM aj
Ġste mmer
af Ã©
ĠS w
l und
Ġkund eservice
201 6
Ġtilh Ã¸rende
Ġs Ã¦
ĠÃ¦g t
for sy
af delingen
b n
Ġser ien
ĠP lads
am et
Ġsy mb
ĠN o
Ġford elt
* *
Ġar t
sk yld
Ġsik ret
si dent
ran ger
Ġjer n
d Ã¸rs
Ġhtt p
br Ã¸d
Ġs olen
Ġbil ligt
l Ã¸st
ĠM eget
Ġop trÃ¦
Ġm und
ar te
um re
Ġungdom s
Ġkonsekv enser
Ġsam arbejdet
ĠA b
sp unkter
Ġst yre
l ene
ĠÃ¸d elÃ¦g
Ġoverord nede
Ã¸r sel
ob by
Ġsku esp
c on
Ġ 00
Ġs endte
ful dt
Ġfr ygt
Ġ ynd
Ã¦ftig elses
Ġoverf lade
ĠM ag
ar a
Ġvar ier
ĠU anset
um p
Ġk irk
of ilm
Ġbl ok
Ġfol ket
kal dt
Ġhu sker
ord ningen
Ġaf b
ru k
f re
elef oner
yl den
Ġnatur lig
Ġsam fundet
ĠS peci
ĠnÃ¸g ne
sig tet
Ġanaly ser
pr ession
Ġrej sende
Ġmin der
ĠB ank
B emÃ¦rk
Ġel eg
Ġud tal
ĠÃ¥r hund
Ġfil men
ĠF re
ĠâĢ ¢
Ġt Ã¦nd
ks us
estiv al
Ġsystem et
ver e
Ġnation ale
ti er
Ġn Ã¥et
k ra
Ġp lejer
Ġv urdere
Ġumu ligt
on y
Ġsn ak
Ġmid dag
Ġposi tive
Ġb ringe
Ġforkl arer
lÃ¦g ger
A V
sk o
Ġk u
Ġstran den
ĠKon g
Ġud sat
ad s
Ġs ens
U R
Ġadminist ration
se j
Ġkur s
ri b
Ġmet al
stil ler
ĠM indre
y per
Ġo ut
Ġl id
Ġud st
Ġoffici elle
Ġindsam ler
Ġe mail
Ġma den
Ġlej ligheder
ad minist
ĠmÃ¦ng der
ot ter
gen hed
ĠKold ing
Ġtast en
ĠLar sen
ĠNor ge
Ġvid under
ĠÃ¥r lige
Ġbal ance
Ġh Ã¦nge
Ġbef inder
Ġl Ã¸g
Ġi talien
el iv
yg ter
ĠH els
t ryk
Ġmark ant
ej st
Ġk og
Ġlang somt
Ġlet te
ur s
Ġspeci elle
Ġhold et
st offer
stÃ¦ndig heder
Ġbes var
Ġtriv sel
ven te
Ġbog st
O S
ĠtilfÃ¦l det
ĠDer es
ĠF C
Ġtyd elig
grund lag
ĠK ir
Ġan giv
Ġa vis
Ġkolle ga
Ġv ink
Ġ4 8
Ġkomm enter
Ġmidt en
Ġlav es
Ġkan t
Ġr art
Ġbon us
sk raft
Ġ ..
Ġpsyk isk
ĠplanlÃ¦g ning
Ġb ind
Ġutrol igt
Ġte kster
ĠT er
Ġinspir eret
Ġl ove
Ġpro te
ĠUnder sÃ¸g
Ġb Ã¦re
ĠprÃ¦sen tere
p on
Ġf an
tag ere
ĠW eb
ĠB ud
Ġinstitu tioner
Ġopg aven
Ġsk oven
Ġg avn
Ġvind uer
plan en
Ġord in
skri fter
ĠgrÃ¦ s
Ġkateg orier
ĠM a
Ġand els
ĠÃ¦gt eskab
ru st
e c
lad t
Ġp h
Ġ200 3
ur g
ff en
Ġbruger en
Ġp yn
Ġkre ative
Ã¸rr else
sÃ¦tt elses
ĠG en
ĠlÃ¦ ger
produ ktion
T ryk
âĢĻ ,
Ġindt ryk
ĠC an
Ġf ind
openh agen
ĠH j
Ġmo tiver
Ġbl omst
Ġpass ende
K omm
Ġbed Ã¸
ĠV I
ĠE ks
Ġfal det
ĠL in
v nen
Ġforvent ninger
timer ing
Ġsoci alt
ĠnÃ¦ st
Ġbehand let
p as
Ġfran sk
Ġyng re
h am
ĠvÃ¦r elses
ĠPeder sen
Ġgod kendelse
ab rik
un ge
led ningen
ig heder
ĠvÃ¦r ker
ĠA c
Ġspr Ã¸j
Ġvirk ning
ĠL ou
ĠÃ¦ld ste
ĠH ot
ĠN Ã¸g
ĠP oliti
Ġ0 1
ĠJava Script
i mer
b und
et il
in ess
Ġkap itel
m os
use um
g reb
Ġad vokat
b ring
pro fil
Ġc er
201 4
Ã¸ en
Ġk age
Ġind forstÃ¥et
ĠS ag
ĠsÃ¸g es
ĠB el
ĠUd vikling
Ġkombin ation
at en
Ġbid rag
yn de
s op
ĠN ation
ĠkÃ¸b et
ĠvÃ¦sent ligt
ĠmÃ¸d te
ĠfÃ¸l else
ĠLe ver
ĠI talien
d Ã¦k
Ġuden landske
Ġudtry kk
Ġyd elser
ning ens
P R
Ġis ol
Ġom stÃ¦ndigheder
Ġklo kken
Ġny hed
Ġv or
Ġforret nings
Ġstil let
Ġtradition elle
Ġred egÃ¸relse
ĠP olitik
ĠR om
Ġbeste mmelser
k semp
Ġpr ov
Ġforh Ã¥nd
p iger
ĠKun st
Ġcent ral
Ġind dr
O ver
ran sport
sl am
Ġmil it
H ED
ĠL ille
ĠK Ã¦re
vis ningen
0 8
Ġproces sen
Ġopfat telse
yg g
s tig
Ġb yr
ĠJes per
Ġpass word
ĠE rik
mÃ¦r ke
ĠkÃ¸kken et
Ġma tem
ti klen
Ġsn akke
Ġb and
f ug
ĠC arl
Ġm e
Ġsm Ã¸r
Ġ4 3
ĠIn st
system et
ĠT lf
Ġsommer hus
T E
Ġm ester
Ġflyt tet
7 5
Ġhen vendelse
Ġstop pe
Ġdyg tig
Ġny sger
ind ustri
ĠH erefter
ĠM ob
Ġgen brug
Ġhand els
es b
Ã¦n ke
as en
os of
Ġaccep tere
an ien
Ã¸m te
, Â«
Ġbe var
em ent
Ġpar ter
Ġvirksomhed ens
s alg
Ġhver dage
Ġra pp
ĠSp ort
F ra
Ã¦ kkende
Ġposi tivt
T V
rÃ¸ je
Ġkop i
Ġber egnet
Ġm y
Ġled elses
ĠmÃ¥l rettet
9 0
sp or
Ġbeslut tede
Ġ4 6
sk ende
z on
Ġ4 2
om en
ĠEng land
O P
Ġud d
ĠÃ¥r ene
ĠtrÃ¦ nings
Ġfri ske
Ġdoku menter
ar mer
at ten
ĠMov ellas
ĠS ikker
G I
ĠE R
li c
Ġtus ind
ĠB us
ĠS Ã¦r
Ġkn Ã¦
ĠB ro
ĠS and
dr en
Ġmang el
or en
Ġun iversitet
c y
Ġoplys es
Ġi llust
ĠSt rand
Ġkommun erne
ĠT rÃ¦
plan er
ĠmÃ¸r k
Ġbo ede
Ġm yndighed
ĠW e
201 8
ure au
Ġmennes ket
al p
pr ogra
et ing
Ġs teg
ĠkÃ¸r sel
t ab
Ġst rand
ar ds
ĠSort Ã©r
Ġh Ã¦r
Ġop lÃ¦g
ĠH orsens
Ġkont ant
Ġrel ation
Ġher med
Ġp kt
Ġinspir ere
Ġtil rettel
mm eret
Ġsamt lige
Ġven til
Ġsag s
sp ris
Ġneden stÃ¥ende
ĠN em
sk ift
Ġsmart ph
Ã¸r t
Ġaf holdes
ĠS n
ĠskÃ¸n t
ĠL y
v ang
Ġinde b
lemm erne
vis es
ĠM Ã¸d
Ġs tik
ol a
Ġunder holdning
ĠmÃ¥ le
Ġposi tion
giv ningen
K an
Ã¦n derne
Ġmin ister
Ġetabler et
Ġspil lede
ĠlÃ¦ng de
ĠÃĺ ster
ĠHv il
0 4
Ġmyndig heder
u ck
Ġsymptom er
spr odu
Ġhistor iske
Ġd im
f Ã¦re
ĠStig ende
ĠFÃ¸r ste
Ġly set
Ġsport s
beh and
b ens
ĠindlÃ¦g get
el a
re en
Ġopf ylde
Ġred skaber
Ġind retning
ud gifter
ĠÃ¸j en
Ġind blik
Ġmis brug
Ġo tte
aft alen
Ġp unkter
Ġang reb
fÃ¸lg ning
ĠskÃ¸n hed
drag else
Ġs ent
ĠhÃ¥nd vÃ¦rk
p le
ak ning
Ġlivs stil
Ġdan ne
art nere
ĠM orten
Ġvurder er
Ġref leks
Ġerstat ning
ĠC yk
Ġg as
sl ovens
Ã¦ den
agra m
Ġhand el
Ġmod ne
c ks
ĠAp S
Ġud seende
C h
Ġt Ã¸
ĠmÃ¥l rette
ĠW ind
Ġaltern ativ
t ry
ĠdÃ¥r lige
Ġr os
ĠbesÃ¸g et
Ġ1 000
bog en
l Ã¸
ĠS F
is tisk
Ġmedarbej derne
Ġch ef
Ġf ry
yl ling
0 2
ĠreprÃ¦sent ant
Ġang st
Ġm aven
l ink
Ġoplys ningerne
Ġtastatur gen
ĠC ent
c l
ĠP en
ĠChrist ensen
9 5
Ġd Ã©r
Ġar m
hj ul
Ġtid lig
Ġfran ske
ĠunderstÃ¸ tter
Ã¸r ing
Ġt lf
Ġd o
van za
Ġinst aller
Ġvi vanza
ĠMidt jylland
fic ere
Ġpr ot
hol dende
a ir
li sten
af deling
Ð ¸
Ġmen te
Ġindivid uelle
ĠNy e
ĠHv id
ĠÃ¸ver ste
Ġet hvert
Ġsv Ã¦re
3 4
ĠlÃ¦r t
ĠspÃ¸rgsmÃ¥lst egnet
Ġbidr ager
yn der
ĠM er
ĠMin ister
Ġforeg Ã¥ende
ed yr
Ġfri hed
h one
ĠM ette
b h
ĠO le
Ġhalv delen
Ġvoks er
Ġ4 4
ĠMel lem
Ġbor det
Ã¸rg sel
Ġ19 5
Ġtastaturgen vejene
est Ã¥ende
Ġen tre
H un
ĠB Ã¸r
ĠF Ã¸de
Ġhold es
1 00
ĠFrederiks berg
Ġvirksom heds
ĠH istor
ĠlÃ¦s ning
Ġgang en
Ġhurtig st
and in
Ġstor m
Ġ Ã¸g
Ġt ynd
Ġorganis ationer
Ġhy pp
Ġtekst en
ul ar
ĠG ar
ak ob
ĠÃĺn ske
Ġfavor it
ĠO l
ĠpÃ¥ beg
s elv
e p
E F
ĠS im
Ġ6 5
ĠGrÃ¸n land
tifik at
ĠgrÃ¸n ts
es el
rupp en
ent lige
ĠpÃ¥vir ker
oks en
0 7
Ġmo den
ĠFor mÃ¥l
Ġ19 4
si tion
Ġs an
Em ne
ĠhÃ¥r de
be vÃ¦g
olu tion
Ġhvor af
ĠB yr
Ã¦n dene
Ġus ikker
Ġtilp as
Ġhav et
ĠR Ã¸d
Ġby de
sp lads
Ġbr Ã¦nde
alis tisk
ĠD erefter
Ġlin je
Ġg i
Ġforskel ligt
ĠrÃ¥d giver
ĠHer ning
alis eret
Ġoven for
il li
sikker hed
Ġeftermid dag
ĠvÃ¦l ges
Ġret tet
ĠR ad
Ġs Ã¸lv
Ġselv stÃ¦ndig
ĠB ir
Ġbestil ler
in ci
it s
Ġprodu ceret
Ġsam ler
Ġforskel lig
ĠCV R
Ġklassi sk
s on
Ġar ranger
ĠKl ub
Ã¦n kning
Ġbas is
b ack
v urdering
Ġven inde
Ġst rÃ¥
ori enter
Ġa van
sm Ã¦gler
ĠTh or
Ġre vision
ĠP Ãħ
Ġarbejdsm arkedet
Ġhjemm el
Ġan del
var ende
Ġk ode
s al
pr iser
Ġind ik
ĠKv alitet
Fal dende
h n
Ġg ro
kk este
âĢĻ .
f reds
u le
t elefon
ĠtrÃ¦ ne
je k
ĠS Ã¸r
ĠforÃ¦l drene
yd elser
ĠP syk
ystem et
sel skaber
Ã¦nd else
Ġmed ie
ĠlÃ¦r ere
Ġsyge plejer
Ġryg gen
ĠH ele
ĠVej ledning
v ask
Ġpa kker
Ġb jerg
vand et
ĠStigende Faldende
Ġpri m
Ġindk omst
Ġv els
Ġplan te
ĠD V
ist ent
til skud
Ġinteress ante
Ġfort alt
on st
Ġtun ge
Ġfremtid ige
Ġsk am
Ġtil s
Ġsn akker
ok ument
ĠRasmus sen
Ġbland ing
ĠpÃ¦dagog iske
Ġm al
Ġforhand ler
ĠÃ¸nsk et
Ġt antra
Ġkompeten ce
ĠInter nation
Ġluft havn
Sk revet
kv alitet
ĠsÃ¸g ning
Ġsmer te
Ġefter Ã¥r
ĠÃĺn sker
Ġkri min
Ġl yn
Ġk Ã¦mp
Ġforh andling
Ġet c
Ġfot o
Ġv agt
Ġeks ist
rik a
ĠK omp
tig et
O V
T ak
el in
Ġstri kke
Ġkonse k
bolig er
Ġsam tidigt
mÃ¥ ling
cyk el
Ġtilf Ã¸j
Ġbehand le
p ri
Ġgrupp en
U L
at ch
ig ere
Ġtal te
Ġover sk
Ġv Ã¥ben
g est
stalt ninger
ĠstÃ¸ t
vÃ¦r ktÃ¸j
Ġem net
Ġindb akke
vis ninger
p um
Ġteg ne
Ġly se
Ġsmer ter
ĠundersÃ¸g elsen
ĠM ere
ĠJÃ¸rg en
) :
ĠIn troduktion
G E
ĠprÃ¦g et
Ġrel ativt
Ġtot al
Ġf inger
is eret
Ġm ave
st aden
u be
Ġe p
Ġ $
Ġfor vente
ĠAf deling
giv ende
k ant
Ġres ul
ff es
til lÃ¦g
Ġbe b
ĠF al
Ġm ur
Ġpl as
Ġopf ylder
Ġmo tiv
andin av
Ġanbef alinger
dan mark
le mme
Ġop t
in ation
kur ren
ĠkÃ¸l eskab
Ġl a
r alt
Ġ <
Ø±Ø±Ø±Ø± Ø±Ø±Ø±Ø±
Ġdoku men
Ġma x
Ġor det
ĠtÃ¦t test
Ġsven ske
h i
ĠfÃ¸l te
Ġju ster
Ã¦ det
Ġsp red
ĠprÃ¦c ist
pro jekter
Ġorigin ale
ission en
ru t
ret ten
p lade
Ġspeci fikke
ĠK L
ĠskÃ¦r men
ĠAl ler
Ġh Ã¦ng
I C
Ġsm ager
Ġen ig
ĠB og
k ode
sk oler
Ġopbevar ing
ĠSt ra
Ġarbejdsp ladser
pr en
Ġst ammer
Ġgr unden
Ġbes vÃ¦r
Ġarbejdsm arked
ĠFor ord
in o
Ġhel lere
ĠC laus
i mp
Ġfort r
Ġj ub
ktiv itet
Ġhu sk
ĠPrÃ¸ v
kon trol
Ġ201 9
Ġr Ã¸v
ĠvÃ¦l g
ĠF il
ĠJ uni
Ġfor eningen
ĠÃ¥b nings
Ġ4 00
Ġob lig
Ġrisik oen
Ġl ook
Ġbestem te
ĠB la
3 3
Ġlu kke
Ġkil ometer
Ġbeslut ninger
in eret
Ġdigit alt
a kket
Ġd riv
Ġimp oner
ĠÃ¥rs ag
ion s
ĠÃĨ nd
Ġmask iner
ĠP ort
Ã¦ ser
rÃ¦ ts
skÃ¦r m
ĠS y
e u
Ġtab let
Ġmod ul
ĠskÃ¦r m
Ġb Ã¸n
kk else
Ġbesk ytte
Ġv Ã¥g
Ġhal vt
Ġbeg ejst
ĠL og
ĠK o
Ġoven stÃ¥ende
ĠK aren
ĠV V
ager er
ĠL yng
V Ã¦lg
Ġudvalg t
ret tede
ĠMar ie
Ġborger ne
os s
w eb
Ġkon g
vÃ¦g t
Ġm unden
Ġten dens
Ġtil lader
ed el
ĠUn ge
Ġrel ationer
ĠBesk Ã¦ftigelses
ing Ã¸r
Ġbr un
ĠOp fyldt
Ġt ure
Ġkontrol ler
ĀĀĀĀ ĀĀĀĀ
Ġa v
ĠvÃ¦sent lige
dem okra
Ġsig t
a kk
ĠForfatter Skrevet
Ġv entet
ou se
ĠÃ¸ ger
Ġu tal
j ent
Ġgul vet
ĠN Ã¦st
Ġh est
Ġvi t
Ġp al
ĠKv inde
O D
Ġa kk
Ġweeken den
Ġsam arbejder
Ġst ede
reg ning
Ġp ladser
Ġkonsek vent
ĠFort sat
alb estyrelsen
Ġst y
ĠprÃ¦ sident
ĠÃ¸nsk es
rÃ¸ nd
Ġaft alt
ĠBes Ã¸g
ĠkÃ¦m per
m eter
Ġal ders
A P
ĠA k
Ġb eder
ske ma
ĠM Ã¦nd
amp en
l as
Ñ Ĥ
pla y
a sker
Ġkal de
ĠM e
Ġk aka
Ġsn ar
ĠD ire
Ġseks uelle
Ġbetragt es
ĠV Ã¦kst
ĠL av
Ġsvar et
m te
sk rav
sit es
Ġfrem ad
iller Ã¸d
Ġleverand Ã¸r
spil let
Ġtil delt
Ġher til
on n
Ġperson data
Ġst Ã¸d
dr ende
ĠL a
Ġb ringer
Ġp ause
Ġch ance
an ceret
mod tager
pro ces
ĠS U
Ġskol ens
Ġs Ã¸rg
Ã¦n er
ken der
ĠSer vice
Ġge mmer
D in
m anden
Ġl ak
Ġm ake
Ġkend et
ĠfÃ¦rdig heder
ĠG Ã¥
ond on
an a
Ġlok aler
t ende
stil les
ĠhÃ¥nd tering
ĠForfatterSkrevet Emne
Ġs tim
si ske
ĠI KKE
fer ien
im Ã¦rk
Ġreger ingen
Ġhar d
kti ver
cer es
Ġr od
ĠBag grund
Ġoply st
on i
Ġg aver
Ġkun derne
ĠfÃ¸de varer
ĠNord ic
in et
ĠSp il
us se
Ġbev Ã¦ger
cent ret
Hvor dan
ogra fer
Ġan onym
op yr
Ġbes par
Ġom sorg
ĠSk ive
ĠAn tal
il la
ĠM ic
ter ier
Ġd ir
ose ks
Ġtilh Ã¸rer
Al t
sam men
Ġf oder
ĠhÃ¸j st
O k
Ġl ytte
Ġafslut ning
Ã¦ kket
Ġd ame
Ġsel skaber
Ġsti ger
Ġperson lighed
kort et
Ġl ede
geb yrer
Ġlov en
Ġfly tter
Ġkir ken
av ne
Ġly kkes
OR D
d ommen
Ġge vin
Ġenk el
ast rup
ktiv t
Ġst Ã¥et
pp en
E U
ĠInter net
Ġperi oder
ent es
pr ess
Ġb Ã¦rer
kl asse
rÃ¥ der
Ġtan ken
ul Ã¦re
valt ningen
m iljÃ¸
ã ģ
Ġbarnet s
Ġmod st
ĠF ilm
Ġf elt
Ġr ene
Ã¦st et
Ġg o
bil er
Ġv ort
Ġbr Ã¦nder
Ġkon s
ĠA ft
ruk ne
ĠT elefon
ind lÃ¦g
Ġkon sulent
at orer
Ġoffent ligt
ot s
Ġannon c
i ri
Ġhund rede
ĠforsÃ¸g t
opyr ight
Ġpas sion
Ġf iske
ĠS var
pligt ende
ĠÃ¸k ologisk
ĠÃ¥r gang
Ġdelt og
Ġre al
Ġindeb Ã¦rer
Ġski fter
Ġtjen ester
led et
beh ag
Ġin der
Ġvarem Ã¦rker
or ld
Ġ Ã¸r
Ġny ere
ĠdÃ¸g n
D es
ĠL ED
ĠP ri
Ġperson alet
Ġ Ã¦
Ġorg as
Ġ4 9
i ru
Ġhun den
Ġlog get
Ġeffe ktive
Ġforet rÃ¦kker
ĠnÃ¸g le
N B
Ġvirkelig hed
ĠN ov
ang en
Ġ4 7
Ġfri tid
ir l
Ġb os
ĠL und
Ġmulighed erne
f old
s g
Ġd ynam
Ġned sat
form and
mark ed
ĠS til
Ġbet rag
Ġkig gede
Ġsk el
Ġend elige
O K
ĠfÃ¦r dige
ĠC l
ĠSel skab
ak tioner
Ġud satte
Ġf abri
ĠReg n
k else
ĠV M
Ġkl ager
h ar
Ġsvar ede
ik s
Ġforbed ringer
trÃ¦ ning
Ġbruger ven
stilling en
Ġk erne
ati ent
Ġh ur
Ã¥ den
um er
Ġhygg elige
Ġkont akter
Ġdan mark
Ġan tage
s eg
Ġkri tik
meld ing
l unde
ĠÃħr s
ĠUddann elses
sÃ¦t ningen
byg ger
Ġinvester ing
Ġtje kke
N E
Ġsk ub
Ġnorm ale
Ġr ust
Ġsej r
ĠB ekendtgÃ¸relse
imm el
Ġsv ag
Ġd istri
organis ation
ĠlÃ¸ fte
ĠU D
Ġk er
Ġbeste mme
Ġs unde
iner er
ĠbekrÃ¦ft elses
Ġmed fÃ¸rer
ĠhÃ¸r te
Ġud form
Ġhj Ã¸rne
spro jekt
ĠJ akob
ĠP C
it ness
ĠOr g
Ġsoft ware
kom ne
Ġw orkshop
mm el
fon den
tag elser
ĠtrÃ¦ er
r yg
agt en
Ġg lemt
ĠI fÃ¸lge
Ġansvar et
Ġsitu ationen
Pris erne
ĠÃĨ l
it u
ven tion
Ġan ses
ici a
Ġkomp on
el ter
Ġfri st
Ã¦g ger
ĠOr d
k ap
un get
Ġtelefon en
Ġd Ã¸re
ed skab
ĠEurop Ã¦
ve jer
Ġfr is
Ġam atÃ¸r
ĠJ ournal
som rÃ¥det
vÃ¦ kst
ĠPl us
ok ale
Ġdan ner
bil leder
op er
Ġplan lagt
r ens
Ġetabler ing
Ġform entlig
ĠiP hone
Ġsig es
l Ã¥n
rupp e
sen der
Ġtal ent
Ġmed fÃ¸re
Ġ qu
Ġhum Ã¸r
Ġforv alt
Ġinternation al
Ġom h
k unst
ape ut
ĠS pr
kk ere
Ġforh ind
r skov
an noncer
l Ã¦r
ĠT w
ĠO K
Ġud veks
sk rig
ĠgÃ¥r d
ring s
ĠK ina
ser et
or ien
yt ning
Ġare al
aktiv iteter
Ġmedlem s
A C
Ġidenti tet
ĠPar is
t ing
Ġhel dig
ĠA g
Ġmod stand
Ġud sted
Ġstop per
ĠErhver v
Ġbage fter
id es
uddann elser
ĠM or
par ti
ĠM Ã¸ller
bn b
Ġlu ften
ĠB ri
l oven
Ġfor lade
Ġvinter en
ĠforlÃ¸b et
Ġopf yldt
Ġsy stemer
Ġforen inger
ig heden
ist erne
Ġved taget
Ġtur ner
Ġstart et
Ġhj Ã¸r
si der
Ġskrift lig
ti t
fe kt
ĠT re
E l
ig ent
Ġtil stede
Ġstol t
K on
ĠS an
an dens
ir m
em idler
ĠMar ia
ĠP R
o ster
r g
Ġbetal ings
ej er
Ġprodu cent
Ġh Ã¸
ass es
Ġop fÃ¸rt
Ġforud sÃ¦tning
Ġnation al
Ġch e
" :
ĠS P
ĠAir bnb
ĠvÃ¦r ste
tel lig
uler et
fÃ¸l ger
ĠEx tra
regn skab
Ġst ole
li vs
Ġretningslin jer
ĠL ind
Ã¸n t
Ġm ilj
Ġst offet
ĠR ig
Ġa spe
Ġir ri
Ġher om
ĠI ND
ĠP iger
Ġgu mm
201 7
Ġder til
Ġv undet
Ġsk Ã¥l
under visning
Ġfr ig
Ġhand icap
Ġul ov
Ġbelig genhed
Ġmin im
Ġufor pligtende
ĠAr k
b yder
ĠL is
te kst
ĠM ED
ĠKap itel
f ession
ĠL Ã¸b
ktor en
Ã¦g te
r Ã¸r
ĠHv ilke
ĠmÃ¥ ler
Ġm ek
Ġ8 6
Ġbel ast
ĠÃ¸v elser
Ġfor elÃ¸b
Ġsw inger
Ġsen gen
Ġeks amen
ĠSp anien
EN S
h jÃ¦l
Ġkvind elige
Ġ200 2
p unkter
ad ig
f est
Ġomk ost
li st
Ġdu kker
ĠOff entligt
Ġporn ofilm
speci ficeret
Ġt akt
k j
Ã¦n dende
Ġp ladsen
Ġr yd
Ġbe byg
u mmer
Ġperspe ktiv
3 9
Ġdeltag erne
ĠK Ã¸ge
ĠM y
Ġbesk Ã¦
ĠindkÃ¸b skur
Ġmed fÃ¸r
ĠkrÃ¦ ves
ĠS lag
3 8
Ġslet te
v ning
Ġalvor ligt
Ġundervis nings
Ġkil de
ion en
ry der
Ġstig ning
Ġk ammer
Ġaftal en
Ġlokal plan
Ġvalg et
ĠVer den
Ġfot os
ĠNÃ¦st ved
Ġgravid itet
Ġal deren
s dato
st rÃ¸m
us iv
tid ige
Ġind led
Ġr Ã¦kker
Ġfort satte
D F
f ejl
Ġtr Ã¦nger
ter ings
Ġgennem gang
ti kken
u lere
Ġin trodu
Ġfor elig
Ġind vand
Ġland sd
Ġfor g
Ġat mos
ĠT op
ail and
ĠSk riv
on a
ach el
ĠVi den
Ġover ensk
Ġsvar ende
Ġf ede
ro st
Ġd Ã¦kke
af e
ĠM ac
Ġi dag
Ġr ul
Ġan dres
Ġfag ligt
dag s
Ġg ens
Ġlok alt
Ġfunktion alitet
ĠU specificeret
Ð ½
Ġfors ik
Ġforhold et
ĠJ er
ĠB as
ĠS of
Ġadskil lige
f ast
Ġekstrem t
ĠK r
p ost
Ġde f
am a
il itet
er ings
L S
Ġrim elig
Ġru mmer
ĠL ondon
r Ã¸d
I M
ĠT ru
virksom heder
Ġhid til
Ġfjer net
B e
Ġforbe hold
ab en
Ġm ister
Ġar tiklen
Ġvar erne
M Ã¥
ĠM ikk
Var ighed
Ġkold t
ĠfortÃ¦l ling
sb esk
ste kn
Ġspil de
EN T
um b
ab or
Ġlu ksus
Ġb Ã¸l
es e
ĠvÃ¦r ksted
Ġhandling er
L ED
Â« .
Ġy og
Ġmeddel else
Ġind rettet
ab ol
Ġmod sÃ¦tning
b ringe
Ġlu kkede
ĠI P
rÃ¸ mme
Ġtravl t
os ti
SÃ¥ dan
Ġtekn olog
ĠvÃ¦r re
Ġs old
Ġtjen er
at in
E ST
Ġl ast
id der
Ġ- -
Ġtil sk
som hed
Ġud arbejde
ĠtÃ¸r re
S S
t op
F orm
pr ogram
Ġsk ema
end s
vÃ¦r d
kt et
a teg
om b
Ġbegiven heder
Ġb ab
ban en
ĺ ħ
Ġenk le
ĠK li
iner ende
re prÃ¦sent
ĠmiljÃ¸ et
ĠBr and
ĠB estyrelsen
ĠM iddel
akt Ã¸r
Ġvar igheder
Ġind vend
201 3
ĠbekrÃ¦ftelses link
iv irk
ĠWind ows
for en
b este
Ġsub jektiv
Ġbev Ã¦ge
Ġbade vÃ¦relse
Â ¥
S u
ĠM il
i ej
ys ning
ad es
ryd elses
p ing
ĠgrÃ¸n t
ĠÃ¥ben bart
es en
s a
ĠI sland
ĠpÃ¥vir ke
Ġn Ã¸je
m elt
Ġuds alg
Ġte ater
Ġp ligt
Ġer st
Ġnab o
et ten
Ġpolitik ere
it z
le getÃ¸j
Ġud mÃ¦rk
Ġi mens
ser ende
Ġt Ã¦ller
Ġkol de
Ġsymb ol
valg et
er ingen
Ġkun net
ĠF igur
Ġtab t
w ay
Ġbeste mmer
styr r
sel skabet
ĠD av
Ġudvid et
Ġsyge hus
yg domme
ĠS Ã¸g
Ġren te
3 1
Ġsp Ã¸rgeskema
s ninger
ĠprÃ¦sen terer
n i
ĠSÃ¥ fremt
q ue
Ġf ylde
ur t
ĠMen nes
Ã¦v es
lÃ¦g gelse
Ġr ens
Ġudb ytte
ĠB landt
um s
Ã¸r te
Ar bej
el oven
Ġb akter
tÃ¦g t
Ġde pression
Ġm ulti
av rskov
p ot
Ãħ R
b al
Ã¦ se
id s
Ġforet ager
Ñ Ģ
ĠfÃ¸r t
ration er
yld igt
E C
ov Ã¦r
Ġforand ring
p ut
Ġ5 6
m Ã¦ssig
ĠF ly
' .
vÃ¦r elser
ĠH am
ĠE lev
ĠD I
Ġevent uel
Ġg aden
on den
it ation
ĠSvend borg
ela dende
Ġtj ene
Ġvel egnet
ust ral
Der for
ru er
ateri aler
ĠAn na
ĠF aktisk
!! !
Ġklog ere
sbet ingelser
ĠlÃ¦g en
k Ã¦r
Ġsla ppe
Ġtekn ik
Ġspeci el
Ġforh Ã¥b
Ġdan sker
T he
ĠS yn
Ġfag lig
ĠsÃ¸ ster
f eltet
u ft
Ġbet yde
Ġbestil t
app er
Ġelektron isk
f yn
ĠmÃ¦l k
Ġtilmel der
Ġindbyg get
H ver
Ġbil let
hav sret
Ġaf stem
Ġk yst
Ġvari anter
Ġhel hed
mel dt
Ġbehag elig
Ġteg ner
Ġero tiske
ĠkrÃ¦ ve
oplev elser
sk aff
Ġbestyr else
Ġfug le
ĠmÃ¥l tid
ĠF odbold
Ġu behag
ĠvÃ¦r k
Ġskar p
Ġbyg nings
mm elsen
ĠGener elt
Ġv Ã¥d
ĠKommune plan
Ġland skab
Til meld
Ã ¡
ĠE ksemp
ĠK or
Ġpa kken
bu tik
Ġspur gt
Ġgeb yr
Ġsig nal
el ovens
ĠC on
Ġtilkn yttet
Ġb ytte
Ġdu ft
Ġk ines
Ġsandsyn ligvis
ĠuafhÃ¦ng igt
ĠG ro
Ġâ Ĩ
per atur
ĠPoul sen
ĠDes ign
Ġsammenlig ne
ok aler
o fte
ĠB estil
ĠH elt
Ġtil t
Ġsl utter
Ġ200 1
Ġhen vender
kl in
Ġstil les
dat ab
8 8
Ġsk ud
ej ser
ru l
Ġcyk ler
b ol
par at
OR T
ĠA ss
lÃ¸b et
ĠP al
j et
il Ã¦
Ġlu kker
ar ch
ĠL Ã¦r
Ġliges Ã¥
ov n
Ġ4 1
ĠG uld
s vej
ĠIs Ã¦r
Ã¦d van
Ġfast sat
g ik
spr ogram
es om
ly kke
Ġ9 9
Ġdest o
sb il
Ġbebo ere
Ġa s
ĠsÃ¦son en
Ġopn Ã¥r
Ġover alt
Ġstyr ker
ĠG ymnas
Ġsammens at
Ġc ar
Ġk ys
u ri
Ġfjer nes
med del
Ġfakt orer
Ġm Ã¦rket
sl Ã¥
Ġ25 0
pris en
be vid
Sk al
Ġtilb ydes
ig en
Ġtru kket
ĠSÃ¸r ensen
Ġid rÃ¦t
ele ver
fÃ¸r elsen
ĠnÃ¦ ppe
ĠKn ud
ĠOff entlig
au ff
Ġda te
Ġsp e
ĠB i
Ġimponer ende
ĠlÃ¦ ste
alis tiske
omk ostninger
Ġbar nd
Ġkal dt
h Ã¦nge
ĠtÃ¦t tere
Ġind beret
ĠS Ã¸ger
Ġkonst ater
4 6
ĠH T
ĠdrÃ¸ mmer
ĠL Ã¦g
ĠG Ã¸r
Ġt Ã¥r
ang el
Ġudn ytte
Ġvind u
on de
ĠtrÃ¦ ffe
ĠSt art
ĠHels ingÃ¸r
ĠK im
Ñ ģ
Ġ ed
Ġfug t
bl og
Ġaf vik
Ġk ab
Ġtilf redse
p anel
Ġenorm t
Ġafslut tet
ski fte
p ige
Ġher hjemme
cer tifikat
l Ã¦n
ĠlÃ¦s ere
Ġred skab
m est
Ġfri e
Ġf rÃ¸
ik a
ĠL au
Ġinteg ration
Ġfors y
et rÃ¦
ĠforlÃ¦ng else
ed del
ĠH a
Ġg olf
Ġr ige
d al
Ġret s
Ġre fer
ĠGod t
Ġde kor
Ġvedlige hold
Ġfornu ftig
ti ger
sl ed
Ã¦m pe
Ġarbejd es
Ã¸ erne
ag ner
Ġtr ygt
iv et
i be
ĠâĨ Ĵ
ĠFor sikring
b ruget
Ġudf ylde
ĠE le
Ġbr ede
Ġkor tere
Ġaf delinger
ĠB ry
Ã¦nd inge
Ġmik ro
Ġpris erne
Ġgl at
ĠP at
Ġkraftig t
v o
sm and
ĠÃ¥b nede
Ġl Ã¸st
hol dene
Ġvar men
Ġforkl are
Ġvi k
Ġprivat liv
ĠK al
Ġgennem fÃ¸res
ĠOp ret
Ġf asc
ĠÃĺ v
Ġtilp asse
Ġbud skaber
ĠB ogen
ok er
Ġhvor i
Ġsm ykker
geb yr
Ġsli ppe
Ġb rÃ¦t
Ġbillig ste
styr elsens
ĠstÃ¸ tter
ist rer
ĠbemÃ¦rk ninger
Ġbest rÃ¦
ĠH jÃ¦lp
Ġb rem
Ġgeneralfor samlingen
ac c
res ult
Ġeng ager
iner es
Ġbolig en
ĠS ommer
ĠB al
Ġunik t
n t
Ġte ori
redi enser
Ġvedr Ã¸rer
3 7
fal ds
ĠApp le
Ġvil je
L e
P L
y a
m Ã¸n
ĠfÃ¸d der
Ġbev il
med lemmer
Ġli ter
an ken
Ġkorre kte
S D
Ã¸ mt
Ġl over
Ġc iv
ĠM ine
histor ie
Ġak ut
Ġmodt og
Ġful gte
J o
ess or
c tion
Ġal m
Ġop gÃ¸r
aft aler
ĠEner gi
Ġbest Ã¥ende
ĠC omm
jen ester
Ġt one
ik ation
Ġprim Ã¦re
fÃ¦r ds
for sk
Ġtry kke
s let
b ranchen
Ġvurder es
klÃ¦d ning
Ġfors end
yn ge
Â ®
Ġfr ont
Ġopret ter
Selv om
it ed
Ġsamarbejdsp artnere
Ġarkite kt
is ser
Ġsp ring
orm on
tag en
Ġopn Ã¥et
Ġst jerner
Ġflygtning e
a B
ĠPriv at
ĠhÃ¥r et
Ġkon ver
Ġforne mmelse
og nen
it a
ĠdrÃ¸ m
ĠSen ere
Ġre elt
ĠMad s
cep tet
Ġind h
Ġw h
Ġopf yld
p lader
ar itet
Ġbet on
g ennem
Ġom t
f ac
h v
Ġhur tige
as per
sk ont
Ġbl ik
Ġfly ve
Ġeksper i
ĠS Ã¦t
Ġg al
ĠprÃ¦sent ation
sl Ã¸b
Ġ0 9
Ġfantas i
ros oft
g o
Ġpe ber
h ul
Ġud fÃ¸rer
Ġbeb oer
park en
ĠdrÃ¦ b
or itet
S n
ĠM ens
Ġfrem gang
Ġâ ĸ
ktion s
Ġom handler
Ġvansk elig
Ġapp ar
om et
af gift
k rav
S L
Ġkolle ger
Ġal l
ĠIn stitut
p ul
Ġlav este
ĠDig ital
i i
ĠR is
av isen
3 2
Ġpsyk olog
R eg
Ġeksper ter
Ġforklar ing
am s
Ġkj ole
Ġle jer
b age
Ġbe vare
Ġk atte
Ġekskl usive
Ġneg ativ
Ġan sÃ¸ger
- /
Ġlev etid
Ġst rÃ¦
Â ²
estyr elsens
b ag
! "
yg dom
ĠJ on
ĠO fte
ĠC ol
sl eder
Ġregistrer ede
Ġoply ser
g mail
M it
Ġredu cere
beh ov
Ġhen vend
Ġtilsyn eladende
Ġindsam le
Ġb ivirk
Ġs undt
Ġkryd der
Ġbi ograf
Ġt av
Vej ledning
sp ension
ĠE kstra
Ġkon ge
Ġop v
ĠBor ger
k endes
j yske
ĠbesÃ¸g te
Ġoffentlig gjort
Ġinkluder et
Ġh Ã¦nderne
Ġindk varter
Ġel ement
ĠB rÃ¸nd
ri ks
Ġly ser
ĠC D
ĠD B
Ġmen u
. [
Ġmin i
u x
ĠprÃ¦sen teret
ĠC ookies
Ġtim ers
ĠDer med
Ġop timering
fon d
f red
Ġfl Ã¸j
Ġmed lemmerne
ru kket
ĠS us
ĠUd arbejdet
Ġregnskab s
Ġover trÃ¦
sm iljÃ¸
Ġmorgen en
Ġop varm
estyr elses
Ġkan aler
ĠK OMM
g ul
Ġru mmet
ar det
administ rator
bas eret
indsat s
ĠB re
lys ningerne
ĠD ej
land sk
ĠidÃ© er
ĠstÃ¸rr elsen
Ġly de
Ġdri ver
p akke
Ġp eger
Ġel skede
ĠmÃ¥ let
V ER
jen er
ĠTr op
Ġd on
Ġf eltet
ĠafhÃ¦ng igt
k ri
elÃ¸b et
virksom heden
ax e
ĠY ou
Ġfremm ed
ĠEuropÃ¦ iske
i us
Ġsing le
Ġproduktion en
ĠUnder visning
Ġfy re
Ġbl a
mm ede
ab lere
Ġfl est
ĠnÃ¸jag tighed
en te
Ġforb ind
es ult
Ġk aster
Ġfor esp
Ġhj erne
Ġdim ension
B olig
gÃ¸r ende
ĠIs ra
Ġfrem hÃ¦
Ġhistor isk
Ġst u
Ġop st
ĠvÃ¦relses pris
Ġj ap
cent re
ĠSt yr
ags orden
iner ede
ĠO M
8 5
ci pl
Ġfor stand
Ġhjem sted
Ġfa ce
Ġfakt ura
Ġ8 5
Ġoverrask ende
sk ar
Ġtra k
Ġl ic
Ġmis sion
k assen
Ġprodu center
ĠpÃ¥beg ynd
ĠpÃ¥lid elighed
f Ã¸j
us er
t ens
ft ede
Ġinnov ation
Ġc asino
sk revet
Ġregistrer ing
ĠQ u
N ogle
ĠL Ã¸n
es tere
id rag
Ġpla st
Ġin tellig
Ġbo ard
Ġg ider
ĠlÃ¦s es
Ġr yt
Ġnysger rig
eg ner
Ġmask in
Ġb Ã¸s
s itet
Ġkur set
ĠbÃ¸rne have
ĠfÃ¦ng sel
Ġtryg hed
Ġforening ens
pr om
Ġpl ak
Ġsam vÃ¦r
Ġop lagt
ĠAl l
yd else
Ġhul ler
Ã¦mp else
Ġkomp li
O G
ĠK Ã¦r
ĠV ind
Ġsmu kkeste
Ġbed t
Ġk ru
Ã¦n ker
ak tiver
Ġev ner
Ã¸ konom
ĠgrÃ¸nts ager
Ġlandsd Ã¦kkende
Ġfor elsk
ĠbeskÃ¦ftig else
Ġhotel gebyrer
ĠsÃ¥ kaldt
Ġudtrykk elige
Ġgener ation
Ġfl Ã¸de
Ġk asser
Ġte mmelig
Ġy ou
ak tionen
ĠN ic
U M
eg e
rej ser
Ġkalen der
m yndig
inst all
Ġp an
ens borg
Ġbeskri ve
ĠM at
Ġge mmes
Ġsh ow
Ġbesk yttet
ĠÂ ©
B R
Ġordent lig
Ġerfar ne
ĠG er
Ġvansk eligt
ĠtilstrÃ¦kk elig
ĠbÃ¸ger ne
Ġbatter i
Ġst uen
Ġkl assen
Ġkort et
g aver
Ġrekl ame
ste bro
Ġin troduktion
ĠD AN
Ġforud sÃ¦tninger
Ġgam melt
Ġf Ã¦n
Ġst j
Ġrefleks ion
Ġeval uering
ĠT est
ĠfÃ¸r te
Ġc ont
ĠG rÃ¦
ĠS idste
ber t
Ġudvalg et
Ġat ter
Ġero tisk
ar et
T h
Ġudvikling s
ĠJÃ¸rg ensen
Ġan giver
ĠH Ã¥r
Ġleverand Ã¸rer
Ġunder stre
Ġl esb
mask iner
ĠN at
ĠÃ¦gte fÃ¦l
fÃ¦r dig
Ġs ans
Ġforh indre
Ġ5 2
ĠHand els
ĠN yk
Ġsy nd
ĠB ra
Ġaft ens
Ġs ejl
Ġgem t
Ġner v
Ġder hjemme
Ġinden dÃ¸rs
ĠT em
Y G
fic erede
Ġfil osof
Ġop slag
Ġsu pport
Ġund gÃ¥r
ĠTil bud
ĠÃ¥r ige
Ġkandid at
Ġk ug
Ġbu kser
f ang
ĠD elt
Ġfore komme
ti et
ĠEller s
per ioden
Ġend eligt
Ġinstall ation
ĠI denti
o et
Ġfast holde
ĠDat a
ĠgÃ¦l d
Ġarbejdsp ladsen
ĠF isk
Ġan sÃ¦ttelses
ĠUd over
ĠL Ã¸
Ġadminist ra
ĠE vent
ĠnÃ¦r vÃ¦rende
av net
Ġpl ant
Ġflyt tede
institu tioner
ĠforsÃ¸g te
f it
Ġmilli on
Ġinvi teret
n Ã¦st
Ġindkvarter ings
Ġh ind
E nd
Ġp um
ob e
Ġ Ã¸re
Ġskift et
b ureau
forsy ning
p ede
4 4
Ġ5 7
' ,
ĠLyng by
Ġfor holde
Ġka ste
Ġmin ut
ct or
Ġsol id
Ġf lad
Ġber Ã¸mte
si sk
ĠC omp
Ġakt Ã¸rer
Ġvind m
ul l
ĠAlt sÃ¥
ĠK en
Ã¦son en
ser ing
Ġej ere
ĠDes vÃ¦rre
ĠstÃ¦rk ere
Ġforestil le
Ġglob ale
ĠE ro
Ġp u
Ġsyn lig
ĠbesÃ¸g t
ti kker
ator iske
Ġkommer ci
Ġforvent et
Ġg er
ĠH illerÃ¸d
Ġ0 6
il er
ĠT a
fag lige
Ġt or
Ġj ust
Ġful gt
Ġdyr t
Ġsp ons
Ġvar sel
k rÃ¦n
abet es
k age
Ġfores lÃ¥
Ġinternation alt
Ġgl Ã¦d
ĠY ork
ĠHol m
Ġ7 2
ĠH ER
in dende
Ġp ap
Ġbland et
Ġkn appen
rÃ¦ ft
Ġst ation
h abil
Ġv okse
Ġpig erne
al ske
achel or
ĠD ine
Ġrekl amer
Ġforpligt et
Ġtit ler
Ġk assen
Ġne mme
l Ã¸g
ĠbÃ¸rn s
Â« ,
op hold
lag en
Ġpro ced
Ġs end
Ġb Ã¥d
Ġbog handel
Ġly kke
net s
Ġcent ralt
Ġin ten
ĠÃ¥b net
ĠMed lem
ffe kt
N ord
b ad
Ġs lÃ¦g
k ultur
Ġegnet hed
f yr
Ġst ren
Ġtilmeld ing
oris eret
ĠC re
Ġkart of
Ġval ut
ol der
Ġher re
Ġst rÃ¸
b lad
R I
ser ver
Ġse ktor
all age
Ġâĸ ł
Ġdisk ret
Ġtest et
di ske
Ġover vejer
ĠS ti
Ġud fl
Ġdan s
T ripAdvisor
ad al
sk omm
Ã¦ sten
Ġoplev elsen
Ġfjer de
Ġmist et
us en
Ġgener el
h el
Ġfores l
Ġopfor drer
Ġban e
Ġbefolk ning
Ġforsv inder
Ġlejlighed en
Ġvirk ede
um in
Ġbehag eligt
Ġre aktion
ĠG al
Ġarbejd ede
ĠÃ¥rhund rede
ĠplanlÃ¦g ge
ug ter
Ġforsk ere
ĠÃ¸ver st
stat us
k el
Ġindt ast
Ã¥l mod
s ager
b a
201 2
Ġnyt Ã¥r
med icin
Ġkoncer t
Ġradi o
un a
v Ã¦k
ĠU nd
Ãĺ n
ĠsÃ¸g te
ĠSt and
Ġmatem atik
ul ation
ĠhÃ¥nd vÃ¦rker
i dende
ot t
e vne
ĠA T
Ġhold ninger
d ing
ĠN orm
G od
Ġpsyk iatri
Ġcer ti
ygg eligt
Ġi slam
ĠS ten
Ġd rej
ĠÃ¸ en
ser ie
Ġover d
minister iet
i pp
Ġ6 6
u alitet
ĠB are
ol land
yg te
ĠP ol
Ġf are
Ġven inder
Ġh Ã¦nd
ic a
ĠA M
ateri alet
Ġstil lede
Ã¸b t
kk ens
Ġher fra
app ar
Ġnord iske
ĠtÃ¦n k
es sen
Ġp t
Ġressour ce
r este
ĠEnerg imÃ¦rk
Ġovervej elser
Ġhjemm eb
uler er
Ġv endte
ist and
ĠMus ik
ĠtilgÃ¦ng eligt
ĠLu ft
ĠO b
Ġind gang
K om
Ġal men
ĠPa ul
b us
c m
Ġoprind eligt
Ġ1 20
Ġg ard
Ġover gang
Ġar v
Ġvari ere
Ġdag tilbud
Ð¾ Ð
Ġfr al
ĠBer lin
Ġfokus ere
ĠpÃ¥ ske
ĠreprÃ¦sen terer
Ġud kast
ĠC ity
Ġarbejd skraft
Ġtillad elser
z en
Ġsk Ã¦re
Ġfe ed
A K
Ġbesk riv
Ġr id
ĠB Ã¸ger
ĠDat ing
Ġoptim alt
Ġb ager
orn Ã¥r
ag ede
Ġsm arte
Ġvold somt
Ġpotenti ale
Ġhjer nen
Ġtv ang
al sk
Ġstil linger
ĠA D
Ġu en
at a
Ġs ange
Ġudv ide
ĠÃĨl dre
Ġakti er
Ġkil der
sb es
a im
Ġalvor lige
ĠmÃ¸n ster
sn iveau
Ġreg ner
forstÃ¥ ede
Ġkon klusion
ĠsammenhÃ¦ng ende
ĠF avrskov
d isk
Ġbl ade
ru mmet
gÃ¥r den
Ġresultater ne
Ġus Ã¦dvan
ra pp
Ġprivat livs
Ġdan bolig
y e
ĠÃ¥r ig
y en
am eter
ĠS a
eg ang
ĠnÃ¦v nes
Ġet ablere
D isse
Ġbry der
Ġdir igent
vis ende
ĠH u
f Ã¦lles
n s
kÃ¸b ing
ĠRus land
Ġdri ve
Ã¦nd ringer
ati sti
Ġk ylling
Ġvirksomhed erne
Ġ9 5
ty per
Ġo dense
ĠOn line
Ġekst erne
est eder
en hed
ĠlÃ¦r ings
Ġtot alt
or tering
ĠE d
ĠLand brug
ĠBeg ge
Ã¸r ring
ĠskrÃ¦ dder
use et
Ġhas tighed
ĠprÃ¸ vede
Ġpr op
Ġfac iliteter
ĠN ik
Ġkonsekv ens
D C
Ġbo ardet
Ġsm s
Ġpopul Ã¦r
Ġsamt aler
Ġkli p
ĠvÃ¦g gen
Ġm Ã¸b
Ġmon teret
k ede
Ġ0 8
ĠK irk
sy stemer
pro cent
---- ----
ĠÃĺ konomi
Ġog s
K ont
Ġterras se
Ġsk affe
Ġkont in
ĠmÃ¦ng den
Ġal b
ang t
Ġan kom
ĠF jern
ĠKl ar
M od
Ġko ge
B rug
ĠHol bÃ¦k
Ġkultur elle
k oder
Ġforhold svis
ĠBl og
Ġm g
b ank
be krÃ¦ft
Ġoper ation
Ġinter ne
Ã¸d ning
Ġsammen hÃ¦nge
Ġberet ning
Ġuh el
ĠNation al
Ġdem onst
om i
Ġprodukter ne
institu tion
Ġprodu cerer
ĠH elle
Ġfor fat
forlÃ¸b et
Ġhav ne
h r
4 8
ĠBesk rivelse
Ġaf fil
ĠtilstrÃ¦kk eligt
Ġm iste
Ġoply se
Ġd ram
Ġfla ske
ĠN Y
Ġven lige
ĠAm ager
ĠG ode
Ġk ok
Ġvoks et
Ġp us
Ġbefolk ningen
Ġben ene
Ġin tim
Ġing redienser
Ġunder forstÃ¥et
Ġ0 2
pr oblemer
Ġfolkesk olen
kon stru
ĠT antra
Ġrej sen
skri ften
Ġkrist ne
Ġindkvarterings steder
Ġsl ot
Ġskrift ligt
armer ende
Ġled elsen
Ġforeg Ã¥
sm idler
âĢ¦ .
arbej dere
... ]
ĠM useum
Ġoptim ale
ar tikler
Ġp iz
Ġpsyk iske
Ġfler tal
Ġbygger i
in stitut
Ġfra v
Ġel ske
ri c
Ġprinci pper
ag tig
Ġjob bet
Ġberet tiget
omm ens
ĠgrÃ¦n sen
an i
Ġstud iet
ks omme
Ġkv inden
ĠnÃ¦ vne
Ġcomputer en
Dan mark
4 9
elses certifikat
p ension
Ġar rang
ĠHel digvis
Ġfat tig
ĠS alg
U T
st y
at o
Ġfre e
ĠP et
fic ering
ĠFreder icia
ĠanlÃ¦g s
ĠC openhagen
ĠðŁĺ ī
am es
ĠH jer
Ġmask ine
ĠM ang
ĠudmÃ¦rk elsescertifikat
Ġbe vis
ĠJ anuar
Ġsimp el
in stru
Ġfinansi elle
Ġforvent ede
Ġproces ser
ĠI D
Ġniveau er
tik el
Ġrelig ion
Ã¦l t
Ġfral Ã¦gger
Ġf ange
Ġtu rist
ĠTil lÃ¦g
Ġbr ud
Ġti tel
ĠY der
Ġaf holder
ĠA B
v ogne
Ġkunst nere
â ĺħ
an o
Ġmeg en
Ġoplys ning
egÃ¥r d
Ġdyr ke
eller up
ĠRe al
red sen
Ġj an
industri en
ra ksis
Ġhtt ps
Ġstat en
Ġny lig
Ġkontrol lere
u mmet
lÃ¦s ning
Ġiniti ativ
VÃ¦r elser
ĠH endes
F T
Ġaccep t
Ġa ir
br agt
H OL
sp ligt
i ra
Ġmark eting
ĠD rag
ĠMic rosoft
Ġge ar
Ġbet egn
Ġopg ra
in i
Ġt yk
Ã¦r et
Ġkri se
u ge
ĠH ave
Ġaf g
Ġtilrettel Ã¦g
Ġan sigtet
Ġopskri ften
Ġpatient en
ĠIn de
k ammer
Ġnogen lunde
Ġb old
som rÃ¥der
Ġtilf Ã¸jer
rer er
Ġrelig i
ti me
Ġvi b
ĠVis it
Ġklub ber
Ġc enter
adal afil
Ã¥g ning
r eder
Ġ7 7
an alyse
Ġre cep
ri ster
p lej
Ġsm age
Ġn ot
H ytte
Ġbl ad
Ġi kon
h vor
ĠD S
Ġu over
po sition
Ġpar forhold
Ġsikker heden
ĠEm il
ĠM orgen
mark edet
ÃĨ G
ĠbekrÃ¦ fte
Ġsil denafil
5 5
Ġvarier er
ĠÃ¸d el
sprodu kter
Ġm ia
ĠT R
n g
Ġhen visning
Ġlige frem
F ind
Â ½
Ġti p
Ġder udover
ĠW h
Ġselskab ets
.... ....
Ġopbyg ning
Ġforskel len
u ger
Ġfrem tidens
ĠF un
Ã¦r ende
far ve
op Ã¦l
krÃ¦n kelse
ĠEnd elig
Ġr olig
m idt
Ġaf gift
ori um
Ġc on
Ġl Ã¸d
Ġbruger navn
Ġunder forstÃ¥ede
Ġde jen
Ã¦ ve
Ġforebyg gelse
habil i
am ens
ber ed
ĠR app
l it
ĠT al
Ġannonc Ã¸rer
Ġtilp asset
Ġbesk ytter
ĠS ig
ĠN Ã¦r
sp Ã¸rgsmÃ¥l
Ġin fe
la st
li ster
ĠÃ¥r hus
c ker
ver sion
tig heds
ud i
Ġop sÃ¦tning
st jeneste
ĠBrÃ¸nd by
Ġfar vel
Ġeng agement
Ġb jer
ĠfÃ¸l ges
Ġtilslut ning
Ġforsikring s
ĠhjÃ¦lp emidler
ĠK ri
ent en
ĠFor ening
ĠCh arl
Ġskj ul
Ġyd else
Ġb Ã¥nd
Ġsalg barhed
ĠL eder
is men
rÃ¦n er
Ġaf k
esk o
ĠsmÃ¥ t
Ġpo in
vi ste
ind hold
O A
Ġsli pper
be k
ĠUng dom
Ġh obby
Ġeks port
Ġfors ink
Ġhom oseks
ĠH Ã¸r
sminister en
Ġforker te
Ġhvor fra
Ġbr agt
Ġelektron iske
ir ken
Ġmod satte
hÃ¸j de
sfor hold
Ġp in
Ġf ak
ow job
N ej
reb ro
Ġmin er
Ġh on
ling e
Ġi mm
Ġfor vir
ĠS idst
Ġste get
ĠEnd videre
ĠÃ¸k ologiske
ret ter
Ġkom prom
ĠTe am
Ġi ld
ĠOver sÃ¦ttelse
Ġg n
Ġaf sÃ¦t
Ġkombin eret
ĠF N
ad a
Ġgli p
ĠD om
j orde
f ikken
Ġned b
Ġsl id
per iode
op h
Ġweb sitet
Ġo vnen
c am
b atter
Ġopdag et
ĠivÃ¦rks Ã¦tter
Ġry ger
Ġbo x
Ġfor a
? "
y dende
Ã¦n kt
Ġtilfreds stil
Ġy dre
Ġp ast
gu ide
Ġp rem
Ġsp arer
ĠLokal plan
ĠInternation al
Ġforsk nings
Ġprofession elt
t v
Ġgrund et
ĠD agsorden
ri ve
S iden
ar men
j urs
ĠspÃ¦nd ing
Ġmedlem skab
Ġk abel
Ġdesig ner
Ġt adalafil
Ġder ude
Ġs af
rÃ¥d giver
Ġ6 4
Ġinteg reret
Ġkonflik t
ĠE L
Ġa si
Ġer e
g elsen
o sen
Ġun Ã¸d
Ġg reb
bekendt gÃ¸relse
Ġsek und
Ġgra v
Ġtusind vis
Ġag g
dan sk
eg ning
ĠundersÃ¸g t
ĠS il
re ber
Ġind s
teg n
Ġs over
dres se
ent ning
alis me
ĠbrÃ¦t spil
ast ro
ĠT ur
ĠA ugust
ma den
or dens
Ġpo ol
h Ã¥r
ĠtrÃ¦ kkes
gÃ¸r ing
Ġad var
person er
p a
ĠT ro
Ġprinci p
ĠFord i
s ik
Ġsek ret
Ġmus ikken
Ġeleg ant
k un
Ġvar denafil
I R
b i
den ser
ook ie
b ladet
m Ã¸det
Ġmen uen
8 6
sk ade
ej der
et Ã¸j
rapport en
o us
ĠdÃ¦k ning
h h
Ġover sku
ĠlÃ¦ng st
Ġh ust
Ġannon ce
Ġbetragt ning
ĠfÃ¸l elses
Ġ6 00
Ġbes Ã¦t
ĠT abel
S und
Ġbo et
Ġkommun al
Ġfing re
Ġ5 4
komm et
Ġsm ide
er m
AT ION
e kn
Ġtilkn ytning
sk al
Ġan fÃ¸rt
ur ening
besk riv
ĠR Ã¥det
Ġbar ne
Ġkv ad
ĠJohan nes
ĠA R
ĠopstÃ¥ et
p iller
Ġrej ste
h otel
giv es
ĠdÃ¸g net
Ġmake up
Ġhil sen
ĠR est
Ġoven nÃ¦vnte
Ġv elv
Ġl oft
Ġud kommer
z in
Ġdi lemm
Ã¦t tet
Ġp c
Ġinspir erende
ple jen
ĠbegrÃ¦n sninger
Ġtru s
iser es
Ġi m
Ġhav nen
Ġtru ffet
Ġbivirk ninger
se vne
Ġd revet
ser ien
Ġal li
D ER
ator isk
s ind
oliti kken
ĠKOMM UN
ĠFor Ã¦ldre
ĠF eb
im len
Ġg ade
? âĢĿ
Ġs gu
Ġul y
Ġtab e
os is
reg nes
Ġalvor lig
Ġper man
sam fund
Ġudf yld
Ġplacer es
Ġinteresser ede
Ġdan nelse
ĠVen stre
Ġmat cher
ĠDav id
ĠvÃ¦ ske
ĠjÃ¦vn ligt
ĠJ ap
j u
Ġfil er
kl Ã¦der
Ġjub ilÃ¦
Ġudvid ede
Ġklub bens
Ġom sÃ¦tning
sig else
Ì Ĭ
Ġsol sk
ĠOver sigt
f tiger
Ġfinansi ering
Ġkreativ itet
Ġmennesk elige
H old
c reme
Ġforskel le
kon tra
Ġst uder
Ġst res
Ã¸r ste
Ġc afÃ©
ĠbevÃ¦g elser
Ġbegiven hed
nes k
y al
h vis
Ġang ive
Ġbag grunden
Ġfund ament
ĠtÃ¸j et
ĠivÃ¦rks Ã¦t
Ġprodu cere
ĠMad sen
Ġtema er
ĠmÃ¦l ke
n yt
Ġorgas me
ord ninger
Ġsven sk
ĠUd givet
L ER
b rit
Ġfly ver
L and
ĠH K
gar n
bor det
Ġpres set
Ġl un
ra y
Ġaf grÃ¦n
âĢ ¢
sp ul
Ġinv estere
Re ferat
hj el
sk op
Ġamerik ansk
Ġmin de
Ġhen viser
Ġk orn
K l
Ġs tiv
pr Ã¸ver
ĠPris en
Ġfast sÃ¦ttes
Ġju lem
Ġvest lige
Ġhen vises
Ġhoved sag
Ġul tim
Ġm dr
ĠB org
Ġudlej ning
elv ist
ĠstÃ¸r st
Ġtim es
Ġny d
6 5
Ġprote in
B esk
ĠG R
Ġal mene
tal te
ĠsÃ¦dvan lige
Ã¸j en
P erson
ĠBla ck
Ġforet rukne
skriv ning
urop a
Ġoptim ere
t or
Ġn ul
gi ften
Ġar ter
g ens
Ġtrafik mÃ¥ling
ri ske
A nd
b le
Ġh it
b ru
u kker
Ġatmos fÃ¦re
Ġ0 5
Ġh entet
M ar
Ġaspe kter
Ġiniti ativer
Ġleverings tid
ĠopnÃ¥ s
4 1
Ġde c
ĠNord sjÃ¦lland
ĠbeskÃ¦ ftiger
Ġskuesp iller
Ġrespe ktive
sm ag
Ġtil lige
aim assage
Ġstyr ing
Ġregion ale
s ch
Ġvi fte
ibli otek
D el
Ġfort rydelses
Ġ8 8
Ġko ste
ĠD yr
Ġek ster
li x
Ġ8 9
Ġoplev ede
hol t
ĠTru mp
ĠHoved staden
Ãĺn sker
li e
Ġneder st
Ġport rÃ¦t
stil bud
% .
Ġ199 9
Ġneg ative
Ġstadig vÃ¦k
ĠT rÃ¸je
Ġa alborg
are al
ĠF ast
Ġtilfreds hed
Ġf uck
ograf isk
sp rÃ¸
h as
ĠH avn
Ġal sid
ĠSk ol
Ġreser ver
stÃ¦nd igt
sper iode
Ġ0 7
aller up
Ġsammenlig net
ĠvÃ¦g ge
ĠA lex
sp erson
Ġmek an
Ġkan ten
Ġform Ã¥let
hav et
Ġrenover ing
Ġforretning smÃ¦ssige
Ġf ans
Ġp lade
Ġor drer
Ġk ager
gar anti
ĠskrÃ¦dder sy
Ġn Ã¦tter
Ġgave kort
Ġom vendt
uds ig
Ġudgang en
ar hus
splan en
ĠstÃ¥ ende
est ol
Ġkon cept
Ġsam arbejds
ĠSlag else
Ġbil letter
l od
Ġforan staltninger
Ġv ant
ĠhÃ¦ ve
Ġfang et
Ġ7 4
Ġkommenter e
p ub
ĠD IN
over sigt
Ġrespe kter
Ġbesk rives
ĠV ol
yd ning
ic o
slut ning
lighed erne
Ġretur ret
Ġnet vÃ¦rks
ne y
Ġst ab
par ter
Ġter rÃ¦n
Ġsam les
enter ne
Ġindsat ser
Ġur et
b erne
ĠFÃ¦r Ã¸erne
verden en
skil t
ĠSim on
Ġhemm elige
s tige
Sk ulle
stra tegi
kt Ã¸ren
Ġo kt
i tioner
Ġuden rig
Ġkrop s
ĠvÃ¦r t
Ġte oret
sb eg
Ġentre pren
Ġplan en
Ġejend oms
alis ere
sb as
ĠL et
Ġopdater ing
feren cen
ĠE lever
ĠlÃ¦ge midler
ĠsÃ¸ en
Ġsp iste
ĠArbejdsm arked
Ġekstra ordin
AR T
ĠSÃ¥ ledes
tu re
b Ã¸l
ĠS o
ĠGu ide
Ġvidereg Ã¥ende
Ġen t
Ãħ r
Ġpopul Ã¦rt
ander borg
Ġan kl
Ġc om
Ġpl atform
IG T
eg en
ry s
ĠBus iness
Ġu end
Ġ5 8
we iz
Ġta kket
nes er
ĠfÃ¸d sel
ĠF antas
Ġ @
Ġindivid uelt
Ġm undt
oli tiske
ter en
Ġuds ol
Ġgrund ig
t tet
Ġen estÃ¥ende
Ġko ordin
ĠKon trol
Ġlig n
k at
Ġlig gende
H je
ĠP e
ĠFamil ie
art et
Ġhu komm
ĠX tra
MÃ¥ ske
iser er
Ã¸d der
C E
Ġtit len
Ġ Ã¦stet
ĠL idt
ĠD eb
Ġv ogn
Ġscen en
ĠA aB
Ġmang fold
klub ben
ĠS Ãħ
fri hed
or a
Ġsen ior
j ul
r ine
Ġdebat ten
Ġklar er
ĠÃ¦r lig
Ġmask inen
bes Ã¸g
Ġfjer ner
G ener
Ġperson en
Ġfor mel
alen der
som rÃ¥de
al isering
.. ...
Ġborg mester
ĠBl Ã¥
be vis
D R
Ġbrev kasse
Ġbyg ningen
Ġt ap
Ġmel der
ã ĥ
ĠÃħ b
ud byder
Ġudgiv elses
Ġj e
Ġter ror
Ġgr in
Ġfin an
Ġoverord net
Ġbol den
Ġrel aterede
T o
ĠW i
d o
byg get
or me
Ġbran chen
k Ã¸rsel
ĠmÃ¥neder s
S M
Ġoptim al
Ġp ande
Ã¦l de
Ġkri tisk
v inder
Ġf yn
id ig
Ġb opÃ¦l
ent ing
Ġkn yttet
Ã¦l ges
ĠÃ¦nd rede
Ġare aler
Ġgr ill
Ġch armerende
ograf iske
Ġre vi
Ġvide ok
Ġkomp leks
ar den
r ob
Ġfrivil ligt
Ġlev ede
aktiv itet
Ġlog o
Ġspil les
Ġsav ner
Ġder fra
Ġst re
Ġsp ist
Ġpr ins
f ru
st Ã¸j
Ġvel fÃ¦rd
ĠO P
Ġop b
in erne
tag elsen
Ġf itness
Ġfort olk
ĠN oget
ĠL i
Ġf ader
Ġskab el
h yd
Ġefter lÃ¸n
spro jekter
ĠInst agram
Ã¸d t
Ġop tagelse
Ġeksper t
Ġforbed ring
un ke
tid spension
Ġsimp le
u c
ĠA ktiv
val uering
ĠBud get
Ġspecifik t
Ġanmod ning
N S
Ġtilf Ã¸jet
L ov
Ġbet Ã¸d
c la
Ġindt Ã¦gter
stÃ¥ et
Ġbel Ã¦g
ĠunderstÃ¸ tte
Ġring ede
Ġbetyd elig
Ġkat alog
Ġn ike
alk redit
B ER
L ad
mÃ¦r kning
Ġkop ier
ag else
ĠdÃ¸ den
ĠS M
ĠUd skrift
ĠVide o
sproces sen
ĠSam let
ĠTh ailand
ĠK e
Ġar gu
Ġstrateg isk
t elsen
sm Ã¸det
ID E
Ġpar ad
Ġkrig en
ĠA P
Ġoverrask et
Hvor for
ci en
ĠLou ise
Ġd ed
Ġh immel
Ġru mm
ager en
tik a
ic s
Ġ0 3
Ġ Ã¦re
Ġsv Ã¸mme
ĠNÃ¸r rebro
Ġgu le
sm Ã¥
Ġfrem stilling
Ġstol te
Â ¦
Ġbyg ges
ĠS MS
ĠK ilde
Ġstri kket
Ġparti er
Ġhum or
Ã¦ng et
ĠvÃ¦rdi en
S ide
Ġl ancer
ĠB an
ag ter
Ġsalg s
Ã¦l ling
ĠN eden
ĠPr ov
ĠplanlÃ¦g ger
eb ygge
Ġinvester inger
Ġg lemme
Ġproduktion s
let al
are aler
sh ospital
Ġvel komne
Ġk asse
ĠSte en
Ġh Ã¦ld
beg rÃ¦n
ĠT om
Ġ5 9
Ġbry de
Ġfirma et
ed ig
am el
Ġsv ing
fra struktur
ĠR os
ĠbÃ¦redyg tig
kst edet
Ġelever nes
Ġreser v
Ġti de
am entet
Ġindsat sen
Ġsk y
st ens
ĠA mt
Ġfar ven
ĠpÃ¦dagog isk
Ġf rust
Ġu m
ag ue
o oth
Ġru te
Ġregion en
Ġaf givet
T U
Ġboard administrator
4 7
Ġs us
ĠTe ater
ry ds
Ġsc ene
ro id
Ġhar mon
ri sk
li ve
Ġhvor ledes
Ġface book
ĠselvstÃ¦nd ige
Ġfar ligt
Ġindivid uel
Ġweb stedet
Ġvand lÃ¸b
Ġg ad
am iner
ĠbÃ¸rn enes
Ġopfor d
B et
ĠId rÃ¦t
g Ã¦ng
Ġst rÃ¦k
Ġhjul pet
ĠgennemgÃ¥ et
Ġpoliti kker
Ġpopul aritet
C opyright
Ġdes ser
t este
Ġanbef aling
Ġsundheds vÃ¦sen
ĠRe ferat
Ġmob ile
ĠfÃ¸l g
Ġja zz
plig tig
omm eren
Ġ5 1
Ġmuse um
Ġbogst av
ĠM og
Ã¦vn t
Ġhel lig
Ġemb allage
Ġ7 8
ĠSer vic
ĠP rakti
Ġrisik erer
Ġfrem stÃ¥r
ĠselvstÃ¦nd igt
h u
ap s
skri ve
kv ens
Ġsol gte
Ã¸b ing
Ġfore kommer
Ġfors yn
hÃ¥nd tering
meld else
pp erne
Ġfor ebygge
kti vet
lys ning
ĠrÃ¥ varer
I kke
Ġbli v
amp agne
Ġund tagelse
ĠM oder
Ġd elvist
Ġunder viser
pl ant
ran de
Ġutal lige
ĠU N
ĠVar em
d riv
Ġover lev
Ġudl Ã¦ndinge
ĠprÃ¦sen teres
ĠAn aly
mand s
Ġbred de
Bil ag
ĠsÃ¸g t
Ġfl ag
201 1
vand s
C H
le y
us ind
bu kser
b all
f j
Ġhjemme fra
ĠI r
ĠÃ¥rs agen
m ord
Ġfeed back
Ġbehov et
ĠH R
an c
Ġop lÃ¸sning
ĠD U
stÃ¸ tte
v ester
Ġbereg ning
ar range
ĠO ut
ĠtrÃ¥d te
el Ã¸s
p ine
Ġs andt
Ġfrem s
pr Ã¸v
bar n
ing erne
ĠfÃ¸de vare
by en
ser en
Ġt yder
ĠD am
ab elt
Ġsen ge
ĠÂ ½
Ġopdater e
Ġh o
ĠKl in
Ġdrift s
al deren
ĠC amping
dre j
Ġdag penge
For slag
Ġfokus erer
ĠFin an
ĠProdu kt
Ġcomp utere
ell ness
Ġinstaller et
Ġnerv Ã¸s
Ġsk yde
Ġhel d
6 4
Ġudvid else
yg ning
Ġminutter s
Ġkap it
mod tagere
Ġskab te
Ġhel dige
Ġblog s
d jurs
n ers
ĠB liv
Ġbetyd eligt
Ġdy be
Ġmusk ler
ĠA ustral
E B
Ġar g
komm un
ra vet
ĠgÃ¦st erne
Ġ6 7
ĠL o
Ġorienter ing
Ġh ash
Ġslut tede
Ġud betaling
sk ib
Ġind bet
ĠspÃ¦nd t
Ġforpligt elser
Ġ8 7
ader slev
n Ã¦r
h oved
sm ateriale
Ġ199 8
ur et
rev ne
Ġopd ager
Ġforand ringer
tr Ã¦ng
I fÃ¸lge
Ġfors igtigt
ind stillinger
Ġfra vÃ¦r
ĠHot els
ag tige
Ġcit ron
ir sdag
ĠSl ot
D K
sent ation
Ġgrund lagt
G Ã¦ldende
ĠopmÃ¦r ksomme
Ġskr ot
k ost
pl om
ati vet
ti ker
Ġd amp
Ġmobil telefon
sm Ã¦nd
ys ik
Ġbeg reb
ĠlÃ¸s ningen
bil lede
Ġend t
Ġt akke
ret ningen
Ġsk yl
Ġeffe kter
Ġslet tet
Ġr inger
ask ine
Ġ; -)
ĠPeter sen
Ġski be
Ġned lagt
ĠreprÃ¦sent anter
rer ede
Ġk nu
ĠA si
Ġbereg nes
Ġ uld
orienter et
Ġk Ã¦re
Ġok ay
Ġanal ys
Ġeksister er
ĠÃ¸jebli kk
F l
Ġang ri
Ġindsam ling
Ġor dren
Ġoplev es
ĠbelÃ¸b et
Ġb Ã¸d
st og
ĠEnergimÃ¦rk nings
ĠP Ã¦dagog
h ov
ĠG ent
ik o
: )
Ġpar abol
c ast
S I
i ere
Ġpotenti elle
al ede
yn ger
pr op
iser ingen
Ġbibli otek
Ġkartof ler
! )
Ġskab es
Ġal les
Ġnov eller
an erne
Ġorganis ationen
Ġitalien ske
ĠGam le
Ġd ild
ist ance
Ġre visor
ĠT ri
ĠK lo
ĠbekrÃ¦ fter
Ġsamfund s
Ġop havsret
ĠkÃ¦l der
for Ã¦ldre
Ã¦l k
net h
Ġrig eligt
Ġoverensk omst
b land
Ġfor lader
Ġtil lade
Ġhoved stad
Ġt ol
Ġtr ovÃ¦r
ĠK ristian
ĠO k
ĠE li
rÃ¥ dt
ĠSyge hus
cep ter
foren inger
Ġfly dende
Ġop fÃ¸lgning
Ġl im
ER S
rid isk
Ġt ax
ra d
ĠtrÃ¦ de
Ġop kald
Ind tast
Ġidenti ficere
Ġt Ã¥lmod
ĠHol stebro
Ġt elefoner
Ġf li
Ġdri kker
led ninger
ĠD o
ĠGod kendelse
Ġpa kket
Ġan komst
Ġstyr ket
H usk
Ġm ot
Ġindt aste
ej ere
Ġ5 3
Ġudgiv elsen
Ġinv est
ĠRet ning
ĠforhÃ¥b entlig
stil lede
Ġj ylland
Ġbeg rund
201 0
sÃ¸g ende
FÃ¸r ste
Ġudbred t
Ġudvik lede
el la
ty pe
Ġb ack
Ġvari eret
b on
le ge
ĠFre e
Ġudfor ske
Ġop tage
ring es
ĠlÃ¦r te
Ġv ine
ĠL olland
umin ium
bed ste
Ġadminist rator
hen te
Ġforb ud
Ġk Ã¦
Ġv ug
ĠSÃ¸nder borg
di tioner
ĠS or
Ġaf falds
Ġt ung
Ġbud skab
ial ity
ĠU ds
Ġskul der
ĠDig iality
ĠD on
eg aard
P lan
Ġ Ã¸rer
ĠnÃ¦r mer
ĠindkÃ¸bskur ven
ier ede
Ġhv idt
Ġsv Ã¸
Ġant enne
Ġind fÃ¸rt
ĠTra vel
ĠL NB
ĠRej se
Ġm alet
Ġh aver
Ġhal sen
ĠHver t
d elses
Ġdet ail
yg gen
Ġservic es
ĠforstÃ¥ s
Ġrapport en
it or
Ã¥r d
ĠK arl
ĠTe kst
et t
dann else
Ġhenvend elser
om sten
ĠreprÃ¦sen teret
Ġarkite ktur
Ġfri tids
Ġkl asser
p tember
Ġborger en
tig heden
ri ver
B l
Ġb ody
Ġu ges
Ã¦ ks
ons ul
Ġfl ok
ĠC lub
EL S
Ġafslapp et
fal det
ĠspÃ¦n der
Ã¸ derne
Ã¥n ed
Ġudarbejd es
for me
sk at
Ġfork Ã¦l
Ġtid lige
ĠHv ornÃ¥r
ĠanlÃ¦g get
Ġter m
Ġvar ighed
Ġaf delingen
S m
ri diske
m Ã¸der
h jer
S ort
Ġinvi terer
Ġforelig ger
oblem et
Ġoverf laden
Ġbehandling er
Ġ6 9
S C
Ġopdag ede
Ġmag asin
ĠnÃ¸j es
Ġfirma er
all ene
ĠD ream
Ġstud ier
Ġsamarbejdsp artner
pas ning
Ġciv il
ĠA C
Ġhj alp
Ġvent ede
Ġsam spil
ĠfÃ¦n omen
b urg
av es
gÃ¸r elser
ã Ĥ
Ġkv al
bil letter
Ġv endt
Ġinvolver et
ĠFÃ¸l g
_ _
Ġkonstru ktion
Ġved varende
g ing
ĠBed ste
ud sigt
ĠK Ã¸kken
Ġs org
spr ogra
Ġteg net
el skab
Ġstra f
ĠfrÃ¦ kt
Ã¦r en
ĠB ad
ĠG LS
ĠG ul
Ġsku ff
sk ader
Ġovernat nings
Ġdyb de
Ġforvent ning
ĠAn lÃ¦g
Ġhal ve
Ġkontant hjÃ¦lp
Â ¸
Ġgennemsnit lig
ĠUd bud
Ġbook e
ed al
Ġdelt aget
Ġra mmerne
y stemer
p tur
Ã¥ be
fÃ¦l de
t aler
sk valitet
Ġfisk er
ĠUdskrift sdato
Ġarbejd slÃ¸s
ĠW ord
Ġlin jer
ĠF y
T id
Ġtilbud t
Ġmilli arder
ask iner
Ã¸n s
Ġforb udt
Ġo st
ĠBe handling
, ,
lik ationer
Ġp iller
Ġbeslut ter
Ġfremm ede
ĠB ang
ĠBar cel
Ġbran che
Ġansvar lige
Ġkon dom
Ġbibli oteket
Ġmon tering
Ġ9 6
Ġlic ens
ĠKOMMUN E
Ġseks uelt
b oks
it ar
Ġt el
ĠÃ¸j et
Ġudarbejd else
Ġweb sites
N et
Ġkonkurren cen
n Ã¦ring
Ġv eks
cyk ler
Ġb undet
ĠB red
AR K
ful gt
Ġafslapp ende
ÃĨR K
ĠV in
ĠK ors
al ingen
Ġproblem stillinger
Ġf ad
Ġ0 4
Ġvejled ende
Ġf abrik
ĠO ktober
Ġkomprom is
Ġi ft
ra mme
Ġjord bÃ¦r
Ġefter som
kon sulent
Ġfrivil lig
h vil
Ã ³
ĠAn n
Ġkonkurren cer
Ġr yst
Ġref le
Ġch ancen
spil lere
Ġfem in
Ġeksemp l
sen e
Ġforbed ret
G r
d y
ĠG olf
p Ã¦dagog
al ier
Ġforbe holder
Ġle ger
fÃ¸r ende
SK E
aller i
l ovens
g in
styr ke
kur sus
ul aren
ot ten
Ġmus lim
Ġak adem
Ġformid ling
Ġb oks
ĠM otor
jen esten
Ġrus siske
k Ã¸d
hol dere
ĠSk Ã¦r
sÃ¦tt elsen
ost rup
Ġing enting
ĠEksemp el
Ġher inde
ĠB ent
ĠmÃ¥l t
Ġudv end
Ġsk rÃ¥
Ġfej re
Ġdis pens
ĠIsra el
Ġbr or
ĠLig esom
kt Ã¸rer
Ġhv al
! âĢĿ
g elses
ÃĨ L
Ġaf klar
In den
Ġtr Ã¦ng
Ġfor tid
ĠtrÃ¦ ningen
Ġsign aler
ĠHje mmes
ĠkÃ¸ret Ã¸jer
Ã¦v ner
ĠOl sen
trÃ¦ den
k ager
Ġerkl Ã¦ring
Ġsuppler ende
Ġt rives
ĠÃĺ konom
Ġr Ã¸
Ġgod kendte
Ġlov givningen
Ġgod kendes
Ġ9 8
Ġe uro
Ġpar terne
Ġvurder et
Ġbel ysning
st r
Ġvink el
ĠB ib
ĠsvÃ¦r ere
ĠN Ã¦ste
al jer
Ġg Ã¦ste
Ġuh eld
ĠbedÃ¸ mmelse
Ġhjemmel avet
ĠT Ã¦nk
ĠblÃ¸d t
sb or
Ġban ken
Ġr yge
ron ning
el eder
Ġkn iv
Ġmatch ende
ĠTil meld
Ġf o
Ġs un
ĠoptrÃ¦ der
Ġh hv
ĠUn ited
hver v
ĠL Ã¦rer
ĠE M
ktion erne
Ġut ro
Ġfer ien
L ING
ut en
Ġsk idt
Ġdis cipl
Ġst jerne
Ġud givelser
n ens
c it
ĠStat us
Ġsyd lige
Ġh ormon
et ent
Ġbes id
Ġ199 0
Ġhalv del
Ġg lemmer
Ġt aske
Ġfa se
Ġch auff
Ġsmartph one
f ot
bevid st
ote ker
ĠvÃ¦r elset
ĠFÃ¸l gende
S er
kon cer
ol s
Ġet age
Ġvind ue
Ġsex et
F lere
Ġcookie politik
Ġbri tiske
ĠTil fÃ¸j
Ġfor siden
Ġklo ak
âĺħ âĺħ
Ġanvend te
Ã¥ s
K un
Ġude fra
ON G
it ten
Ġgennem gÃ¥r
ĠGod kendt
ator en
ĠC ont
L ige
Ġo vn
Ġsp ot
Ġerhvervs livet
igheds rÃ¥d
ĠÃ¥ re
Ġm ys
Ġund skyld
Ġm aling
Ġinteres sen
Ġspid sen
ĠJ ord
G ra
Ġtredje parter
Ġejendom smÃ¦gler
in teres
Ġenerg im
ap ital
Ġpar f
ĠD okument
Ġregion er
ĠBer ling
ĠM os
Ġf ir
ĠvÃ¦r dig
Ġkandid ater
brit ann
ĠChristian sborg
Ġne ut
Ġb ug
ĠvÃ¦ sen
aut om
ti mod
ĠSt atistik
Ġdr age
Ġa ktion
Ġel as
Ġyd es
ar iske
kl Ã¦ring
Ġd oll
k asser
Ġfil ter
Ġsk ra
ĠTra fik
ĠforelÃ¸b ig
ĠF okus
dan ne
Ġsammenlig ning
Ġkon ceptet
Ġvirk elige
Ġs tige
Ġaf gang
Ġbarnd om
! .
st Ã¸rrelse
la p
il les
Ġind stillet
Ġop be
Ġan n
ĠUn ivers
dire ktÃ¸r
Ġtilfredsstil lende
Ġbestil te
Ġsik res
Ġspeci ale
Ġkra ftige
Ġuger s
Ġhus dyr
Ġide en
6 6
Ġpr int
ĠFran k
Ġgevin st
Ġsal at
is sen
tr Ã¸jer
smod el
Ġfor slaget
ĠnÃ¦ se
Ġmu skel
Ġfor fÃ¦rd
Ġv Ã¥de
Ġ6 2
Ġopbyg get
led en
Ġb Ã¸
per t
Ġt w
Ġbom uld
Ġstand arder
Ġreg net
ĠÃ¥b nes
sl edelse
ration en
ĠMax imum
ĠfortÃ¦l linger
ĠH ospital
ro en
sbet ingelserne
Ġst rik
ĠK ron
ĠsjÃ¦l d
ĠvÃ¦l d
ist ens
Ġplas tik
Ġsnar ere
gl Ã¦de
Ġven skab
ĠAl ligevel
Ġh Ã¸st
Ã¸r re
Ġmand lige
Ġc reme
ĠHer ren
mb Ã¥nd
st ren
ĠhÃ¥nd bold
ĠHvil ken
Ġop s
lek se
ĠAl m
ĠbegrÃ¦n se
ĠAn bef
in ner
ĠL ine
ĠR igtig
vir kning
Ġsv ine
sul enter
ĠgÃ¥r den
Ġhen vende
Ġjul etrÃ¦
el ed
Ġkald te
O r
d istri
Ġw ith
Ġprof essor
ĠVV S
Ġrej st
eten ce
ap ning
om o
f i
cla imer
ri ds
ĠforstÃ¥ et
Ġinkluder er
fik ationer
Ġfysi oter
Ġkamp agne
eg ler
Ġprivatlivs vilkÃ¥r
Ġmateri alet
Ġshop ping
Ġsu ver
Te kst
ĠN ed
ĠAd minist
Ġsi m
rund lag
ĠS Ã¸rg
EN D
Ġfunktion en
kont akt
vÃ¦r dige
e e
k ok
Ġunder sÃ¸ger
ĠB jer
ĠMand ag
Ġskil t
Ġkil o
besk yttelse
sit u
Ġaner kendelse
Ġform Ã¥r
Ġskar pe
ar me
vÃ¦rdi er
Ġteg ninger
ĠNÃ¸r re
Ġbl owjob
op pen
Ġpiz za
ĠAn vend
ĠSyd danmark
Ġdownlo ad
ĠFor eningen
iru rg
kon to
Ġskuesp il
oli tisk
ĠMob il
ĠS ags
N yt
mm elserne
ort s
ra ma
ab er
eg a
Ġvand ret
Ġopst od
Ġ18 00
Ġju ridiske
Ġfor styr
ĠpÃ¥vir ket
ĠA dresse
ci se
ĠVar me
ĠF rÃ¦kke
Ġtemp o
Ġud sp
and Ã¸r
tag elses
Ġaffil ierede
Ġbeg reber
ann a
Ġty pen
Ġet n
Ġten denser
n or
Ġalb um
ĠmÃ¸n stre
si ve
B ruger
g elser
m ak
Ġej et
Ġvil la
9 8
ĠJournal nummer
ĠBil leder
f elt
ĠB ur
Ġforber ed
sminister iets
Ġbarn s
Ġudfor drende
vid de
Ġkri terier
T ag
Ã¶ r
ot al
ĠvÃ¦gt tab
sl Ã¥et
tion s
Ġfot ografer
ĠA V
Ġlu der
Ġbes vare
Ġdisk utere
ĠE j
ĠafgÃ¸r elsen
Ã¸m ning
Ġudvik les
Ġmen stru
Ġpl at
o ser
Ġden nes
p ad
ĠS end
Ġr ulle
Ġt on
iv es
rÃ¦ s
Ġ8 00
Ġsyg dommen
ĠkÃ¦rlighed en
Ġpr ess
Ġan tager
Ãĺ B
H US
Ġan mel
Ġun ges
ĠH V
Ġref under
ĠSE O
Ġbort set
ĠHan ne
Ġfl it
Ġin fl
T S
b est
Ġsk Ã¦b
Ġfal dende
Ġevent s
ĠbrÃ¦nd stof
Ġforelsk et
Ġjul en
til lid
pr es
af snit
Ġ6 8
ĠS mu
Ġerst atte
ĠM c
k ninger
ka teg
progra mmer
Ġsc or
Ġb ib
sted elen
kurren ce
Ġynd ling
Ġforber ede
Ġforfatter en
Ġfort jener
Ġ; )
Ġmellem rum
Ġkaka o
br and
Ġan sÃ¦ttelse
Ġk varter
ĠJo se
ĠKj Ã¦r
tic s
ĠtrÃ¦ ffes
Ġtilb ag
Ġu und
Ġdi ff
Ġgra m
Ġudbet alt
sl ov
Ġfast sÃ¦tte
Ġh imlen
Ġkne ppe
Ġpresse meddel
Ġreturner es
Ġt este
besk rivelse
Ġblog ger
Ġkrav ene
Ġmed ierne
m at
Ġfleksib el
ĠfÃ¸r es
for um
Ġsv amp
kl Ã¦de
Ġavan cerede
ĠP ension
Ġsti ftet
ven lig
V ille
ĠBarcel ona
Ġkj oler
kt orer
Ġn umre
al lere
Ġfakt um
ist ed
ĠtrÃ¦ ffer
Ġmotiv ation
Ġseks uel
im ent
Ġd av
Ġtab te
Ġopbyg ge
aff ald
Ġf aget
ĠHus et
ĠD F
Ġsold ater
ĠSk anderborg
ĠÃ¥r rÃ¦kke
ĠF ug
gra d
Ġlig estilling
ĠT our
Ġtank erne
Ġvis ning
ĠSÃ¸nder jylland
ĠM Ã¥let
Ġeg ner
Ġkomp etent
Ġkvinder ne
ĠF OA
ĠLeg al
Ġoverrask else
Ġvind uet
Ġen den
Ġtekn ikker
Ġgen stande
Ġwebshop pen
ag ens
hedsb rev
Ġtils endt
cer ing
stand ard
ĠR um
ĠS Ã¸n
z one
ks til
iden skab
ro w
ĠAf rika
Ġnyhedsb reve
ĠSt ort
Ã¸v ler
Ġnord lige
iej ne
Ġbevidst hed
Ġsam leje
Ġgar der
Ġen heden
sen g
ĠW il
styrr elser
Ġin put
Ġattra ktive
Ġbeg rebet
Ġbebo erne
an ere
ĠB ygge
form Ã¥l
Ġkun dens
indsat sen
bet jening
ĠP leje
Ġm ale
Ġu re
Ġbet ingelserne
Ġform anden
I P
Ġly den
Ġkonkur r
ĠMu lighed
Ġm l
ĠGymnas ium
u ide
ĠD j
Ġkonflik ter
ĠS hop
ss on
Ġtred j
ĠS ystem
Ġhvor pÃ¥
Ġstri d
ĠStor britann
sp iration
Ġfakt or
Ġsk Ã¦v
ig ation
Ġforud gÃ¥ende
Ġopd age
. /
Ġforber edt
Ġordin Ã¦re
ĠhÃ¸r ing
opg ave
Ġudstilling en
Ġgra f
i fte
esk olen
Ġafsnit tet
fun ktioner
Ġrapp orter
ĠPolitik en
Ġp Ã¦ne
or p
in ationer
ĠLe ague
Ġp Ã¸l
ser ede
ĠS ogn
ĠdrÃ¸ ft
ĠDis claimer
Ġh oppe
Ã¥r n
Ġde p
Ġamb ul
far vet
ĠbÃ¸r net
Ġopd elt
Ġ199 7
ryd ning
god t
ĠSelskab ets
i eret
ĠIdenti fikation
Ġt elt
Ġud giver
ĠT ransport
ord ing
Ġkvad rat
ĠW orld
Ġsex legetÃ¸j
g aven
Ġdownlo ade
Ġl ytter
Ġvidenskab elige
ĠUden rig
j eret
Ġinnov ative
Ġd ommer
ĠmÃ¥l sÃ¦tning
Ġdri ften
Ġsam vit
ĠMikk el
famil ie
Ġopret holde
les pil
Ġind rÃ¸mme
Ġbeh olde
Ġinvester ings
ri ften
Ġdyb ere
Ġc and
ĠVand vÃ¦rk
net te
Ġkon ference
Ġetabler es
ĠSof ie
ĠR Ã¸r
ĠT ing
Ġprinci ppet
Ġpig en
nes te
ĠEjend om
Ġvarme pum
Ġkv it
Ġ20 20
Ġv eget
Ġovernat ning
Ġudskift ning
ĠB R
ĠB a
ĠFor bruger
Ġfors am
ĠSpr og
mus ik
Ġej eren
Ġgen kende
sfor lÃ¸b
Ġkomp lekse
IG E
Ġd omst
ĠL Ã¦ge
amil la
des ign
po int
forstÃ¥ else
Ġmad lav
x el
lut ning
a lem
ĠSel skabet
Ġfleksib le
Ġtje k
ĠVirksom hed
in ens
S O
Der udover
Ġdeb ut
fri e
over e
Ġtry kker
ĠB on
undersÃ¸g elser
Ġdan se
f akt
Ġteknolog ier
ra a
U anset
Ġbet jening
ĠprÃ¦ ferencer
ade mi
fÃ¸d te
ej e
Ġ7 9
b Ã¥de
Ġx xx
Ġdan net
Ġseri Ã¸st
Ġskrift lige
c is
ĠF a
ĠL ene
Ġled ig
Ġsp ir
gl as
ĠtÃ¸r t
Ġbu re
P o
ĠVÃ¦r di
Ġfisk eri
ĠRing sted
Ġar me
ĠT ran
mod el
ĠIn stitu
Ġopbevar es
fra vÃ¦r
ĠH o
f lade
Ġal arm
Ġu lem
ĠtrÃ¦ et
ven lige
sp ladsen
Ġele ven
ĠuafhÃ¦ng ige
regn skabet
Ġf ond
Ġhvor ved
Ġfor vand
ĠA N
Ġgr an
A ST
br udt
gÃ¥ et
st ud
Ġal uminium
Pr odu
ing ent
Ġperson dat
Ġb akke
Ġjournal ist
Ġlejlighed s
ĠfÃ¸d slen
Ġr Ã¥b
6 7
ĠSk at
Ã¸ ve
ĠtiltrÃ¦ kke
y be
ĠbÃ¸s se
skab ende
ret he
get s
Ġbogst aver
Ġbesk adig
Ġtu rister
strÃ¦ kning
Ġmon teres
ĠC a
Ġv Ã¥
produ kt
Ġf lade
Ġ6 3
Ġserver et
gen er
b estil
ss und
ĠOp gave
Ġalders grupper
f oto
Ġk usse
O n
st ore
Ġdrikke varer
Ġvidunder lige
ĠU r
ĠUddann else
bet h
Ġhverdag s
Ġsof aen
rer ende
Ġres terende
Ġeval uer
Ġadministra tive
F Ã¦lles
Ġdistri bu
Ġfak tiske
Ġhe mmelig
ĠM ath
Ġafsl Ã¸rer
Ġv acc
Ġreg ning
oc kt
ĠE jer
Ġhust ru
Ġk red
unkt ur
Ġregist rere
Ġfyld te
Ġde ci
Ġud mÃ¦rket
ĠafgÃ¸r elser
an aly
ĠpÃ¥ p
ĠB ek
Ġvoks ende
h Ã¸r
Ġperman ent
ĠRe f
ĠE F
Ġarbejds tid
s ed
Ġvej er
Ġban ker
ds els
edag penge
Ġved tÃ¦gter
ver ne
Ġra cer
Ġom hand
Ġtelefon nummer
ĠT im
Ġl ik
Ġdis play
ĠP olen
m agt
Dan marks
bygger i
sp ir
ĠAn alyse
ĠP atient
an ker
m otor
ol ket
Ġkateg orien
A F
se ktoren
ĠTr ans
ur es
Ġaf kast
ass istent
Ġdel te
f rug
Ġmeg a
ĠCre ative
Ġrim eligt
Ġgennem fÃ¸relse
se ks
ĠFeb ruar
Ġinform ere
ĠA ff
Ġsygeplejer ske
Ġker am
Ġtus inde
Ġs ch
sfor valtningen
skon trol
k ring
ĠÃ¸delÃ¦g ge
S orter
X X
LED NING
Ġopvarm ning
trÃ¦ kning
Ġjob annoncer
ĠansÃ¸g ninger
ĠP RO
ĠV ik
Ġdemokra ti
lej ning
ĠByr Ã¥det
ĠÃ¸konom ien
ĠlÃ¦ser en
b rev
Ġsing ler
ĠFor sk
ĠÃħ rets
Ġt ynde
ĠH Ã¥ber
Ġdi abetes
Ġsl ik
ĠR Ã¸nne
S ikker
Ġsandsyn lighed
s reg
Ġas yl
ret nings
salg et
us sen
ĠGro up
Ġvej leder
p akker
ĠE C
Ġtak ne
ĠKrist us
f oder
rÃ¥det s
ĠSk ift
ĠLig eledes
Su per
Ġnor ske
ĠP rem
U ND
Ġsn it
f a
Ġpla cere
riks en
Ġb ra
Ġover holde
H e
ĠInd ustri
Ġorigin al
ire kte
ind sigt
kontra kt
u ch
ĠT yrk
ĠTid ligere
g as
us tit
Ġhold barhed
el iste
Ġra mte
Ġliv ets
ĠAnd roid
ĠF akt
ĠÃĺ r
Ġudtry kke
ĠEle kt
ĠkÃ¸ le
Ġeks amens
or tere
d is
Ġfor rige
E SK
4 2
Ġeftermid dagen
kk ont
Ġbekym ring
ĠkÃ¸ det
spr oblemer
ele menter
ĠI F
Ġgennem fÃ¸rer
ĠKommun en
ĠjubilÃ¦ um
ab e
ĠP ower
ĠDV D
br Ã¦nd
lan ge
ch ester
vÃ¦r dig
Ġlev et
Ġtradition el
ger ende
H P
Ġprofil er
over ing
ĠH aderslev
ation erne
Ġretur nere
Ġb io
eg l
ĠeuropÃ¦ isk
Ġk ejser
Ġmod sat
ĠVej en
Ġstor by
ĠTw itter
sfor ening
Ġen orme
fr okost
Ġper ler
ĠM ind
Ġpr osti
t ro
Ġr Ã¸re
ĠbÃ¦redyg tighed
A U
ĠS ven
ĠkÃ¦l edyr
7 7
S te
plig tige
al dt
men tere
ĠRing kÃ¸bing
Ġporn ost
ĠÃ¥b ning
ĠBerling ske
Ġprosti tu
Ġopdag else
ĠC up
ĠsÃ¸ er
Ġforesl Ã¥r
Ġkommunik ere
Ġs Ã¸nder
let s
uddann ede
ĠhÃ¥b et
ĠK ro
IN D
Ġfor el
Ġeksp ed
Ġbakter ier
tal ere
Ġaf gifter
Ġpolitik erne
stil synet
Ġjour n
ĠHvid ovre
ĠSte p
Ġvels mag
ĠlÃ¦ge middel
, ...
ĠlÃ¸ ft
ss ystem
ĠF em
Ġbet jen
Ġrefle kter
Ġg lem
styr ing
Ġkvali ficeret
ĠÃ¸ er
Ġtal ler
Ġkan al
ow e
res und
Ġful dk
olog ien
ĠHer udover
ĠCar sten
Ġbr ygger
Ġej e
Ġ18 0
Ġdre je
Ġdav Ã¦rende
Ġfy ens
Ġak var
zon etil
ĠfÃ¦lles skabet
ĠG Ã¦ldende
M ich
ĠSK AT
Ġomh yggeligt
Ã¸v else
Ġskil sm
Ġs nu
Ġhv ile
i ale
Ġindk ald
b yr
ĠSF O
Ġkont oret
ri kke
ĠN ogen
ost en
Ġlov ligt
g le
ord net
Ġbesk eder
Ġo ld
Ġseri Ã¸s
ĠB M
Ġoven pÃ¥
ĠF ire
Ġvel fÃ¦rds
ĠP res
K Ã¦re
ĠAl tern
Ġop start
Ġud lejer
Ġded ik
Ġp let
ĠmÃ¥ned ligt
Ġalt ing
ĀĀĀĀĀĀĀĀ ĀĀĀĀĀĀĀĀ
] .
G ennem
Ġp ille
ar v
Ġdire ktiv
Ġkoncer ter
forb indelse
organis ationer
ĠH F
red skaber
esp il
Ġ19 70
Ġju ridisk
tt o
Ġredu ceret
ĠBj Ã¸rn
Ġsi derne
Ġsk um
Ġm org
s ere
Ġp lej
ĠVal by
Ġsam linger
Ġc eller
Ġfr eder
Ġpension s
ĠprÃ¦ cise
Ġ7 00
G ER
Ġ11 0
Ġworkshop s
ĠSundheds styrelsen
Ġan else
omm ere
stil ladelse
E V
Ġsyn lige
ĠProjekt et
m ateriale
c ca
Ġst rÃ¦kker
Ġter min
Ġbeg r
Ġl Ã¦n
ĠSm art
Ġforfat tere
Ġmist ede
Ġform ue
i ps
ban er
Ġf rost
U C
Ġunder holdende
ĠTi dende
p ol
ĠrÃ¦kke fÃ¸lge
Ġfakt a
D anske
pl atform
ĠS ing
Ġra dik
Ġtri cks
Ġogs aa
Ġsv age
Ġkl at
oplev elsen
Ġklin iske
Ġs yr
Ġfor uden
ĠL im
Ġred de
Ġa ug
ra tegi
Ġkommun albestyrelsen
Ġl abor
ari atet
Ġfort ryde
Ġ ult
ah l
Ġsc an
Ġfjern varme
ĠR i
ens igt
ĠSw inger
Ġmedicin sk
Ã¸ den
Ġaut en
ĠnÃ¦r ings
Ġred igere
Ġynd lings
Ġtab el
Ġid rÃ¦ts
Ġste mp
Ġb Ã¸j
ĠB aby
ET S
tig ede
Ġuds end
ĠR y
ĠHvil ket
Ġn om
ri ch
ĠM Ã¸lle
Ġsmartph ones
vent et
Ġryg s
Ġren se
ing ets
sek ret
Ġud fÃ¸relse
ch at
ĠB ig
Ġbest Ã¥
Ġsk udt
Ġforl od
ĠNet to
ĠstÃ¸v ler
SK AB
Ġfleksib ilitet
Ġmang lede
lÃ¦g en
ĠsÃ¥dan t
ĠOrg anis
Ġben yttet
sig ter
Ġscen er
Ġkommune plan
Ġpol y
lÃ¦ ger
fÃ¦l ge
B ekendtgÃ¸relse
Ġattra ktiv
Ã¦ng den
Ġj un
. ).
Ġn otat
Ġnet vÃ¦rket
c elle
ax o
Ġhemm elighed
Ġf iber
ĠT and
Ġsc ore
Ġsk ygge
Ġkli ppe
ati enter
ĠÂ «
Ġud gift
kter ne
Ġal deles
Ġsalg et
Ġsm agen
ul Ã¦r
Ġgra vide
ĠAnd et
lad es
h un
ĠPrÃ¦ sentation
o e
Ġbygger iet
Ġbest od
om er
ĠF jord
Ġfrem h
mm eb
st a
Ġp anel
T ra
w ork
ĠMinister ium
ĠnÃ¦v ner
sk es
Ġop gÃ¸relse
vÃ¦r ktÃ¸jer
Ġtr end
est ue
fter e
Ġsp ringe
ink el
Ġs ogne
ĠComm ons
Ġkig get
ĠÃ¦gtefÃ¦l le
Ġre alitet
ver dens
ĠK ol
Ġpar at
Ġbeslut te
Ġblod et
Ġanalys ere
vÃ¦rdi en
ĠlÃ¦ng den
Ġvan vit
Ġbruger oplevelse
Ġindbyg gere
Komm un
Ġspons or
l ant
ĠU SB
Ġp od
Ġs ul
riv ning
Ġsommer huset
ĠfÃ¦r digt
Ġher for
Ġover greb
Ġse parat
ĠkÃ¸re kort
Ġopv aske
Ġr ykker
Ġforb liver
Ġmodel len
Ġvir tu
Ġup lo
Ġyog a
fÃ¦r dighed
Ġe mp
ĠM est
Ġm ak
ĠFrederiks havn
ĠS van
Ġg ig
Ġb ob
Ġde aktiver
Ġny ligt
ĠS agen
Ġte kstil
Ġmilit Ã¦r
Ð »
Ġh igh
Ġob serv
ĠprÃ¦m ie
trÃ¦ der
Ġfar lige
Ġforbrug ere
ĠFer ie
Ġet ik
Ġuds endt
ĠAndre as
Ġin se
u mm
Ġra batter
Ġstud enter
I A
Ġsla p
d ede
Ġc ig
p at
ĠtrÃ¦n ere
L ig
Ġkredit kort
Ġmed delt
ĠÃ¦r ligt
Ġfing rene
Ġudbyder e
Ġforb inder
vent yr
ĠKir sten
Ġvel ly
ĠSk olen
mail adresse
Ġur in
oci al
ĠNo vember
center et
Ġkonf irm
Ġ7 6
Ġti dens
Ġlog in
Ġklin ik
Ġh ent
Ġkompeten te
kli ma
Ġlejligheds vise
ĠHol land
Ġgu ider
ĠJap an
Ġsit es
Ġudt aler
Ġsp Ã¦r
aur ant
ĠlÃ¦ ber
ĠSk revet
Ġtemperatur en
or y
o kke
ĠFolke parti
ĠA merik
Ġsystem atisk
Ġisol ering
Ġefter Ã¥rs
yn t
ĠUd vik
dr ede
Ġh enter
ĠmÃ¥ned s
ĠRo sen
lej lighed
giv elserne
ĠmÃ¸r kt
ĠVer sion
sm e
ĠAn den
Ġkn og
ĠM P
Pro jekt
Ġdyr ere
N A
ĠdÃ¸ mt
k ob
Ġstra m
Ġlo ftet
iti ve
rut tering
Ġaner kendt
udvik lingen
v Ã¦re
ĠS j
Ġty kke
t elser
ĠP ige
Ġhvid lÃ¸g
lemm ing
app ede
Ġforb r
Ġr enter
Ġdel vis
min ton
Ġka ff
ĠFÃ¸de var
ĠuafhÃ¦ng ig
Ġopfor dre
ĠP ia
ĠHj Ã¸rring
Ġkrop pens
Ġaf vise
Ġrepar ation
a kkede
Ġb Ã¥l
Ġspil lerne
Ġslet ter
Ġtilbage bet
ĠÃ¥r tier
Ġeftersp Ã¸rgsel
splan er
iver set
for slaget
8 9
S R
ib landt
g am
undersÃ¸g elsen
uddann elses
Ġkombin ere
byg ningen
Ġoverv Ã¥
se m
ĠM aster
Ġtv unget
Ġsags behandling
les k
Ã¸ konomi
Ġfuld stÃ¦ndigt
Ġbet ing
Ġtil ber
Ġm om
prÃ¦ st
ĠVar de
d ater
ĠkÃ¸leskab et
Ġdetal jeret
Ġfolkesk ol
rienter ing
Ġg ader
Ġro ck
Ġaf holde
egÃ¥r den
Ġkl it
Ġch ok
Ġlykk elig
ĠStorbritann ien
ĠkÃ¸ret Ã¸j
Ġr ug
Ġkl Ã¦dt
Ã¼ r
ĠmÃ¦rk eligt
d rift
Ġt rist
w a
ĠBy en
Ġkomp ens
ar y
s rapport
Ġkl Ã¸
ĠP L
fun ktionen
Ġsp ek
ĠAn vendelse
Ġkollega er
U ST
Ġch ancer
Ġaftens mad
sp ladser
a iner
Ġyng ste
ke y
ĠâĢ ŀ
Ġhav n
progra mmet
Ġfol der
s li
Ã¸ tte
ar n
Ġpo ster
ĠprÃ¦st ation
o ol
av ede
Ġdel es
and et
ĠIn teg
ĠsÃ¸ skende
ĠdrÃ¦b t
m Ã¸bler
Ġmark eder
ĠCharl otte
am eller
ĠmÃ¸b el
Ġs Ã¦de
ktor atet
ĠKun ne
ĠI de
ra kt
Ġkri tiske
N atur
ĠSelv fÃ¸lgelig
ĠsjÃ¦ld ne
ur ner
Ġc over
r ot
ĠT vÃ¦r
n umre
Ġstop pede
ĠtÃ¦nd t
Ġunderstre ger
ele v
ĠPerson alet
C ookies
ĠlÃ¸ fter
Ġreg uler
ĠInd ien
B L
8 7
ĠG iv
Ġin frastruktur
Ġud kom
sti den
sy ge
lÃ¥ s
ro ss
Ġbekym ringer
Ġbyg her
ĠÃ¥r el
Ġaltern ative
Ġind lagt
Ġrev olution
Ġskj ult
Ġsk Ã¥ret
ĠrÃ¸d t
Ġkonkurren c
P rÃ¦
Ġefter lader
Ġra sk
Ġfors igtig
Ġc am
Ġg ru
aben raa
5 7
as ing
Ġ9 7
ĠfÃ¸l elsen
Ġklin isk
Ġselv mord
Ġm i
ĠhÃ¸j s
v urder
Ġk Ã¦de
ĠSikker heds
Ġdu kke
Ġcy klen
ĠM agn
Ġudlever et
ockt ail
kk el
f la
ĠAn sÃ¸g
p artner
Ġvel kendte
ĠN Ã¥
ĠT el
Ġover fl
Ġimp on
mask inen
s und
ib re
Ġi hjel
st ol
ler s
ĠO ne
ud givelser
Sort Ã©r
fun gerende
Ġforud sÃ¦tter
Ġked eligt
ĠB ade
Ġ8 3
Ġev nen
ĠFor ebyg
ĠhÃ¸j est
fri st
f x
hold te
Ã Ń
c ing
Ġvalut a
ON T
ĠsprÃ¸j te
Ġved er
ĠÃ¸g es
Ġrek ord
ĠV inter
ian ne
reg el
Ġm ors
Ġanvend elsen
Ġbor de
fin ansi
skab e
Ġopb akning
ĠArbej de
ĠH urtig
j our
ĠOff ice
minister en
Ġp isk
ĠtÃ¦t te
ĠD r
ĠHer under
Ġgen an
Ġstra ff
ĠgrÃ¦ sk
Ġmed fÃ¸lger
s ung
Ġgli de
c omp
Ġu bet
Ġre habili
ĠT itel
j o
ĠH orn
ĠÃ¥bnings tider
Ġdynam isk
200 8
Ġmobil en
Ġmaksim ale
Ġr ide
sh istor
zonetil ladelse
Ġhin andens
ĠBil led
Ġmark eret
men terne
ĠSp ar
Ġoffentlig gÃ¸res
Ġkal k
kl assen
kk ene
Ġka j
Ġspilde vand
en g
ĠBir g
anlÃ¦g get
Ġaf slag
ĠLu k
Ġin cl
Ġover sÃ¦ttelse
is brug
ĠK bh
Ġvirk eligt
L G
ĠrÃ¥ der
bl Ã¥
Ġmat che
Ġdisk u
vej leder
ï ¸
Ġrob ust
ĠUd valg
Ġv e
ĠdÃ¸r ene
Ġst Ã¦vne
Ġudg Ã¸re
ik on
ok e
KÃ¸b enhavn
sm Ã¥de
ĠÃ¦b ler
Ġsp erm
dr aget
Ġfor ordning
ac ks
ĠD EN
Ġg yldig
Ġvi rus
Ġly kken
9 7
Ġemb ed
ĠP il
ĠlÃ¦ sel
Ġmel d
Ġm ont
dik en
Ġfrug ter
men nes
Ġamb iti
Ġlig hed
sb u
t elefoner
n el
r aget
Ġlider lig
ven til
ĠG re
sti ger
Ġbure au
videnskab elige
ver i
ĠInd sat
4 3
m l
ĠsÃ¸ nd
p x
Ġnyt tige
Ġeg entlige
Ġforesp Ã¸rgsel
Ġu kendt
Ġspecifik ationer
Ġtand lÃ¦ge
bas erede
Ġafs endt
ĠT irsdag
Ã¸r erne
yk ning
l el
kl agen
ind ing
ĠÃ¥rs regnskab
Ġco ach
Ġunder ligt
nings skema
Ġlig get
ĠAustral ien
Ġf usion
Ġafsl apning
ĠInd til
x t
Ġtab er
k anten
Ġmag net
Ġform at
Ġbekym ret
esk yttelse
Ġmil d
ĠmÃ¸d re
i dens
is ere
ĠhjÃ¸r net
Ġu f
Ġb ase
H us
200 9
Ġ yt
ĠlÃ¥ net
Ġsv ampe
em b
Ġst ave
Ġuds agn
fag lig
Ġb itter
ĠT it
ĠH und
Ġm ul
Ġlid else
Ġind brud
Ġtr Ã¦l
ĠI mp
Ġche ck
Ġtra fikken
Ġfor holder
or teret
Ġsk it
M ad
dÃ¦k ning
Ġmedvir ke
ĠfÃ¸r tidspension
ĠÃ¥re vis
ĠNord isk
ĠC olle
Ġfil t
pp ede
Ġg yld
o tiske
Ġg ry
Ġsand heden
ĠResult atet
s ur
ĠM ulti
Ġer ind
Ġfra drag
ĠAn al
ĠprÃ¦sen terede
Ġkon kl
H Ã¸j
ĠmÃ¥ ling
driv ende
Ã¸ ster
Ã¦nd ring
ĠStand ard
Ġsol idt
ĠF R
c over
Ġhospital et
ĠU ge
Ġkamp agner
projekt et
olu men
b lade
Ġark iv
ag nen
ĠNic ol
sh irt
ĠvÃ¦rdi fulde
Ġudfor dre
Ġgennem s
j agt
ĠMar g
es Ã¦t
Ġko ord
FÃ¸r st
Ġbeste mmelse
Ġnu ancer
St one
ĠB ook
Ġbl ande
ĠFor lag
Ġbl Ã¦ser
Ġtr ygge
ĠdÃ¸ mme
b elÃ¸b
ved ele
ri fter
ĠE b
forb ruget
Ġsli p
Ġi f
ĠBj ar
Ġfigur er
Ġi agt
ĠtilgÃ¦ng elighed
Ġsv ed
ĠbekrÃ¦ft else
SÃ¸g ningen
Ġtil sat
ĠD E
Ġny heds
Ġny delse
ï¸ ı
Ġv ol
ĠHer re
reg ne
Ġport al
ĠAL T
Ġrestaur anten
Ġforst Ã¦rker
Ã¥ se
sk affe
Ġopdater er
AT IS
ĠNy heder
Ġst rej
F rem
l itteratur
Ġind sk
Ġved hÃ¦
k ret
Ġfast sÃ¦tter
Ġ199 6
ask en
V AR
ĠSk ulle
uddann elserne
ĠEn hver
ĠT DC
Ġv end
Ġunder lagt
Ġinde haver
ĠH um
ĠBet Ã¦nkning
Ġvi dens
ĠD ET
Ġl ug
ment et
ĠÃ¸del agt
i me
Ġgaran teret
om fru
Ġelektri ske
m ode
our in
in al
Ġfer i
ik re
ĠRegn skab
Ġkem ik
Ġpass ager
ser er
ĠOp lev
fri sten
iner ing
Ġud stillinger
Ġo d
Ġsandsyn ligt
st uderende
Ġret tes
Ġgener ationer
Ġforhand lere
k Ã¸kken
ry l
Ġmind ske
H D
ak tive
ĠGe org
Ġbespar elser
O F
Ġlid elser
st ykke
ĠvÃ¦r ende
Ġvel fungerende
Ġkol on
ĠJob agent
Ġvug gest
bekrÃ¦ft else
F i
Ġk bh
Ġskj orter
b ry
Ġfor deling
Ġsp Ã¸rg
ĠC it
Ġaf gÃ¸re
ĠV an
Ġkon gen
ĠhÃ¦ fter
Ġa st
ĠK a
Ġc as
Ġmaksim alt
Ġre agerer
ĠbestrÃ¦ ber
S F
? ...
Ġvelsmag ende
Ġirri terende
Ġl amper
Ġforestil ling
Ã¦n ket
bet Ã¦ndelse
red ning
j ysk
Ġkem iske
Ġvel komst
ĠnÃ¦r vÃ¦r
far ver
Ġsp anske
v ald
estyrelses mÃ¸de
Ġsammenlig nes
prÃ¦ m
sigt ede
Ġmist anke
Ġservice oplysninger
ĠM arts
ĠL Ã¸rdag
ĠÃħ ben
firma et
Ġmel dt
Ġsand hed
Ġst und
Ġopdater inger
lÃ¦g ningen
br og
Ġfag lighed
P P
Ġur o
ĠSÃ¸ ndag
ĠG reen
fal der
Ġ198 0
in ans
ĠKommun albestyrelsen
gÃ¥r ds
esk yttelses
ĠansÃ¸g ningen
Ġkost tilskud
Ġapp s
Ġlufthavn en
ĠH ome
rer es
B EJ
ste in
kv ali
Ġelektri sk
Ġ eder
Ġh ang
ĠDan iel
es ser
Ġbred ere
Ġkry p
Ġglob al
Ġudtal else
ĠFor skel
Ġakt uelt
ĠO d
Ġsp ejl
Ġgli m
ĠTor ben
ĠsÃ¦r skilt
Ġafslut tes
Ġreser vere
Ġgumm i
Ġimplementer ing
K ort
Ġf estival
Ġ8 2
ĠlÃ¸ ser
Ġspeci all
ĠCh e
Ġventil ation
ĠV irk
ĠIn tet
Ġl atter
ĠF o
Ġl ine
G Ã¥
Ġind stille
bekendt gÃ¸relsen
ol ler
Ġtid spunkter
p arts
d atter
Ã¦ ver
ĠM Ã¸de
Ġvaret age
for skning
ĠtilfÃ¦l digt
Ġredu ktion
Ġfem te
ah a
ĠL ys
Ġst el
al ings
Ġh egn
ps yk
Ġsku ffet
ĠKrist ensen
us h
Ġd osis
Ġarranger et
Ġbesk yttelses
Ġon de
Ġmed bringe
ĠmÃ¥l tider
Ġindstilling erne
ĠNÃ¸g ne
Ġomf atte
Ġover fÃ¸res
B Ã¸rne
Ġom givet
Ġbekl Ã¦d
ĠVer dens
Ġh ylde
Ġvelv Ã¦re
al a
Ġmen ingen
lÃ¸s ninger
ĠA G
ĠI gen
lads axe
Ġgaran tere
Ġfamil iens
pil ot
ĠMennes ker
R ed
Ġl aks
Ġ6 1
Ġv red
Ġmidler tidig
Ġsag ens
5 9
ĠL yd
Ġsyn ge
grÃ¦n se
Ġkontakt oplysninger
ĠforÃ¦l der
Ġom bord
f od
A c
ĠM ik
ĠR ob
ĠmÃ¦rk es
Ġs ult
Ġtilbud s
j Ã¦r
I E
ĠhÃ¦nd elser
ĠSch weiz
ĠMan chester
ĠM Ã¸r
Ġamb ass
Ġb Ã¦l
Ġco ol
ĠTr in
ĠvÃ¦ kker
ĠUndersÃ¸g elsen
ĠT orsdag
Ġu op
ĠS mÃ¥
p akning
f en
by dende
ti se
Ã¸v elser
famil ien
lan de
p es
Ġman u
ac t
Ġskjul te
ut t
Ð º
ĠK asper
ĠJ ust
Ġmail s
Ġind vi
Ġopret telse
Ġsp lit
Ġfat tige
ĠR Ã¸de
ash ion
Ġneder ste
Ġaner kendte
se jend
ac y
il der
Ġprivatliv spolitik
B B
ĠNyk Ã¸bing
Ġind irekte
ĠT Ã¸nder
Ġc an
ĠAller ede
Ġudsol gt
Ġkat astro
Ġkines iske
Ġom drej
sen ti
Ġitalien sk
ĠSam fund
our ce
Ġnet t
and el
sper ioden
Ġj Ã¸d
ĠKomm issionen
ĠCh ar
Ġsamvit tighed
Ġvold som
ĠRe ad
Ġg irl
Ġeffekt en
ĠElever ne
Ġland bruget
c ore
net vÃ¦rk
re f
at ning
Ġweb steder
f an
Ġsun dere
Ã¸d te
Ġbl ond
far vede
ĠimÃ¸de kommende
Ġsove vÃ¦relse
Ġno ter
Ġbegejst ret
ĠT jek
part en
ĠlÃ¸s es
ri ere
ad gang
Ġm Ã¦g
Ġi v
Ġmen ings
ci p
Ġviden deling
amet re
ru e
ĠudlÃ¸b er
Ġfornuftig t
tr in
bo y
ĠvÃ¦sentlig ste
Ġsv ig
Ġtilbud det
Ġaftal te
Ġ12 5
Ġrisik ere
vÃ¦r digt
ĠfÃ¦lles skaber
Ġregel mÃ¦ssigt
Ġan kommer
Ġafh entning
ĠB YG
ci a
Ã ¨
Ġsik ring
Ġb Ã¥den
Ġdispens ation
f laden
Ġb am
Ġyder ste
Ġbl adet
Ġord ning
Ġskru e
Ġreg ulering
Ġinstru ktÃ¸r
ording borg
kal de
Ġkategori erne
ĠSocial demokra
Ġ7 1
Ġ9 2
Ġhovedsag eligt
R et
Ġdokumen tere
M ens
Ġskib et
ĠTekn ik
Ġakt uel
Ġbudget tet
Ġinteresser er
Ġservic en
Ġb istand
Ġal dre
Ġvoks ede
l else
ri en
ĠRad io
ĠI shÃ¸j
Ġf esten
Ġj akke
ĠEurop as
ĠH all
Ġplan lagte
Ġsammens Ã¦tning
Ġn a
ĠMiddel fart
Ġdesign s
Ġoverv Ã¥gning
Ġkontakt et
Ġvideo en
Ã¦l le
Ġimm un
Ġa rab
Ġun ger
Ġinde holdt
Ġn Ã¸r
ist an
ak terer
ĠB L
Ã¦kker t
Ġt oner
Ġp orte
Ġfrem gÃ¥
Ġkon serv
ĠAut om
Ġspeci aliseret
Ud over
al mind
Ġspar ring
Ġgen re
Ġo v
behand ler
ĠDream box
Ġp je
Ġtidspunkt et
Ġstorm vejr
Ġb inde
Ġs ug
F ord
Ġk Ã¸rende
fug le
Ġarbejds dage
Ġindsam let
in ket
Ġcy kl
Ġbred bÃ¥nd
Ġlands hold
esk ole
Ġfor uren
Ġre ferat
Ġmand s
Ġtur de
Ġpor tion
ĠGud hjem
beret ning
ol in
Ġug ens
ĠÃ¦r ger
h ow
sport al
ang reb
Ġt ons
7 1
f odbold
Ġdefin eret
og er
ĠtÃ¦ ppe
iser ings
far ing
Ġneder lag
histor ier
ĠM ourin
D AN
Ġreligi Ã¸se
red iens
led ere
Ġoverbe vist
ĠB este
Ġlang var
Ġudgifter ne
ĠGR ATIS
ak er
skri ver
Ġep is
Ġb ul
P l
for sÃ¸g
ĠProv sti
ĠK rop
ĠKli ma
Ġg ryde
Ġt um
ĠLou is
Ġdagsorden en
M L
V edt
D A
Ġkonstater e
C O
Ġvedligehold elses
Ġh ug
Ġbl ind
Ġbeg Ã¥et
Ġu begrÃ¦n
Ġk ysten
z er
ĠA pril
ĠB os
Ġbr agte
el f
Ġfor ank
ar iat
ĠB is
lever ing
m aterialer
Ġforvalt ning
ĠmÃ¥l gruppe
Ġbereg ne
ĠKvalitet s
skri dt
ĠP re
Ġteg neser
Ġ[ ...]
Ġorienter et
Ġsuver Ã¦n
Ġbade vÃ¦relset
Ġteg ning
ĠC amp
li mer
Ġseks ualitet
Ã¦k ning
ĠN ok
Ġliv moder
sm anden
v d
Ġdyr ker
ra di
L eder
bes par
Ġsti ft
Ġt Ã¸m
et n
Ġdatab ase
Ġsk rives
bo ard
sk ad
Ġerkl Ã¦r
rÃ¦ er
Ġlov forslag
vit amin
at ing
Ġregn vejr
ĠNy borg
sk omp
ĠL ive
Ġra mmen
Ġover stiger
j ene
Ġagg ress
ĠI V
ar isk
ob il
Ġtra ditioner
ĠÃ¦b le
j orte
lad ning
Ġforb und
Ġlad et
g on
ĠNem ID
ĠZ e
Ġl idenskab
Ã© en
ar in
Ġdren gen
9 6
B ag
Ġpla der
Ġbr on
b ede
Ġaccep teret
Ġfor inden
ris en
Ġh ov
Ġsej ler
hus ene
Ġforsv andt
bil let
ĠB allerup
hal len
9 2
Ġsyn ger
Ġf Ã¦lge
Ġkommunik ations
Ġnab oer
Ġdi plom
k ron
pp es
Ġforsk er
ĠOn sdag
Ġformid le
Ġinde ks
ĠPla y
kur ser
Ġv rede
Ġeg entligt
Ġdem ens
ĠP ub
Ġled s
ĠM ask
Ġlov ens
sn r
Ġpo se
Ġt omme
sk Ã¦der
ig et
Ġbrand s
iv else
Ġusikker hed
l ens
Ġbe fri
Ġangiv ne
arbejd ning
Ġ9 00
Ġeffektiv itet
Ġfa ir
k ilde
il len
Ġkamera et
Ø §
d sm
ĠM arked
Ġkompon enter
Ġover n
Ġro ser
ĠCh r
br ede
ĠFred ag
ĠL ink
Ġoffici elt
Ġd rives
) ;
ĠPr ogram
I ST
Ġgri be
Ġp atter
sp ark
ĠFrederik ssund
Ġadres sen
ĠGr and
bu tikker
Ġne mm
Ġ Ã¥n
lÃ¦r te
Ġsn or
Ġstyr er
ĠD rift
Ġ7 3
B ogen
Ġom givelserne
Ġdefin ition
Ġanvend elses
Ġdren gene
Ġsommer ferien
Ġgen stand
ĠD A
ansvar lig
ĠtÃ¦n de
Ġk up
Ġud sÃ¦ttes
F A
ĠhÃ¦k let
ion er
van er
in spe
Ġan skaff
ĠmÃ¸d tes
lig n
il uft
and a
lig ste
Ġbebyg gelse
f igur
Ġmennesk ers
Ġkonst ateret
Ġ Ġ
ed age
Ġforh Ã¸jet
Ġ% .
ĠP DF
alitet er
Ġarbejds opgaver
Ġsej le
Ġp ej
br agte
w ood
rÃ¸ der
a derne
Ġf oden
ĠDrag Ã¸r
Ġgr ov
i tiv
Ġudp eget
Ġkir ker
ĠkÃ¸r es
E A
ĠSt ar
ĠF yr
ĠR a
Ġtre kant
Ġpar all
ed ia
Ġskul ptur
Ġ19 60
Ġpass ede
y ser
Ġhal s
Ġens artet
v ognen
skift et
os it
ĠM i
Ġbryst et
Ġformid dag
Ġlov et
Ġind i
u es
ul ds
Ġs ogn
Ġven ligt
Ġindsam les
Af stand
en a
Ġlider lige
l s
Ġsk or
Ġh Ã¦l
klub ber
ĠÃĺst ers
Ġst ak
anden e
Ġkontra st
Ġg rus
Ġbag siden
Ġb indende
av is
sm iddel
ĠArbejdsm iljÃ¸
Ġneg le
u te
il s
Ġ13 0
ĠP an
Ġblog indlÃ¦g
smet oder
Ġn on
Ġvin den
ĠD ort
Ġaf v
ĠOm rÃ¥de
Ġforebyg gende
ĠDen mark
ĠSk atte
B Ã¸rn
Ġbel Ã¸n
à ¸
id a
Ġekster n
cel Ã¦n
sfor sikring
ĠII I
organis ationen
Ġre aktioner
ĠK er
k ostninger
Ġmodtager en
Ġattra ktivt
ĠDV B
Ġbest and
Ġb ornholm
for n
bevÃ¦g elsen
Ġeftersp Ã¸rger
Ġan im
rÃ¸ mmer
Ġgu ler
ĠEn k
c an
tekn ologi
Ġop ad
Ġarrangement et
b estyrelsen
Ġavis en
Ġhand lede
Ã¦m per
Ġsli kke
vej ledningen
Ġkron isk
sm ester
Ġb Ã¸de
Ġv Ã¦n
Ġover sat
Ġopfyld else
ig ner
ĠH P
N Ã¥
ir ts
form ance
Ġsprog et
Ġkvadrat meter
200 7
ĠPer n
ĠprÃ¦ ster
ĠResult at
po ol
Ġse min
famil ier
Ġlov bekendtgÃ¸relse
Ġfantas ier
Ġp ens
Ġvindm Ã¸ller
red et
ĠM Ã¸det
ĠU V
Ġbesid delse
sk Ã¥l
u ktion
Ġl er
ĠD ren
Ġsm idt
Ġh yl
lag de
Ġst ream
ĠF uld
Ġoverf lader
od es
ĠSel ve
I O
ĠRet ten
Ġsk andinav
Ġkoncent ration
Ġide elle
Ġfr yg
5 6
Ġopg av
Ġban er
ĠÃ¸v else
Ġlov lig
Ġingen iÃ¸r
ĠforÃ¦l dr
ĠMod el
ig ennem
Ġet ager
und borg
ĠhÃ¥ndvÃ¦rk ere
Sam men
ĠF lemming
art ede
Ġstem ningen
Ġsamt alen
Ġsv iger
Ġbatter iet
sm ail
Ġm ht
ĠT ema
ĠHav de
Ġforsyn et
lin jen
elig heden
Ġ14 0
ĠnÃ¦ sen
ĠGener alfor
il ie
Ġher ved
vÃ¦r elsen
Ġbe und
s re
Ġspej der
Ġn um
Ġred aktion
Ġhel lige
Ġtil kÃ¸b
Ġman uelt
Ġom b
D ONG
Ġst Ã¸b
Ġb rÃ¦
ĠUd valget
ĠMog ens
uet ooth
Ġhalv Ã¥r
Ġs ession
ĠfÃ¸d derne
Ġsyge pleje
ĠNavn givelse
Ġbegynd else
Ġan delen
Ġfor Ã¦ld
an terne
ĠCh at
Ġst am
Ġengager et
tt ende
Ġfla sker
w ard
ĠI l
ĠJ ern
vÃ¦r n
yg gelig
st or
ĠRo yal
Ġp anden
y kket
ok u
Ġaltern ativer
Ġbetyd ningen
p op
ĠK rav
ĠnÃ¦ re
ay out
Ġtynd t
ĠTyrk iet
Ġbatter ier
Ġl anceret
Ġgener al
7 2
Ġudsted t
I I
fyld te
ĠEN ER
Ġa mt
els est
ĠH Ã¸je
Ġfin este
ĠÃ¸g ede
tt aler
Ġh entes
Ġstil lingen
is ol
3 00
ĠAn sÃ¸gning
Ġre p
Ġtil sammen
ĠD agen
Ġarbejds liv
Ġslan ke
Ã¸rs holm
Ġaflever e
Ġh ader
Ġk ro
c c
Ġgard iner
B er
l Ã¦ring
Ġaller bedste
Ġaktiver ing
and s
st Ã¸d
d am
ĠJacob sen
ĠstÃ¸r stedelen
Ġudsigt en
Ġp lad
Ġtilp asses
ĠE va
ot a
lo ck
ĠTekn isk
ĠVV M
ĠP S
vis ors
Ġmennesket s
Ġbeg rav
ĠIn g
Ġ15 00
C D
Ġind fÃ¸re
ĠFolket ingets
ĠSk ib
ra ter
sd age
Ġscen ar
, .
der ede
ĠPsyk iatri
ĠÃ¥rel angt
il lede
skl asse
Ġm ore
Ġvedlige holde
Ġaf sat
Ġover fÃ¸rt
Ġfabri kken
Ud dann
Afstand Se
sl Ã¸se
Ġsv agt
Ġliv skvalitet
g ien
Ġgiv en
? !
ĠFor sy
ĠBÃ¸rn ene
ĠK rÃ¦ft
Ġmen e
ĠC om
ĠFodbold trÃ¸jer
ret ninger
ĠF ac
grund laget
app e
ĠGam mel
Ã¦ be
ĠsÃ¸ge ord
ĠvÃ¦rdi papir
ĠEnd nu
ĠCyk el
ĠMar ianne
ĠNeden for
ĠR ober
ĠHer lev
f lix
at us
Ġpa kkes
In gen
Ġvid ner
sk rÃ¦
st op
ĠKon ge
teg nede
S EL
Ġhomoseks uelle
skl ub
ĠMed icin
Ġh Ã¥be
Ġbr iller
il ien
V EJ
ĠThom sen
Ġmaksim al
Ġd ist
Ġgl Ã¦den
ĠÃ ī
Ġkrimin alitet
Ġes bjerg
Ġvold somme
s berg
Ġeksperi menter
Ġvejled ningen
as ti
Ġsid dende
Ġa arhus
Ġg ay
Ġt yrk
Ġkr Ã¦nk
ĠrÃ¸d der
Ġa pr
ĠtrÃ¦ tte
Ġfrem for
Ġv on
ĠCent ral
Ġindled ende
ĠiP ad
den hed
Ġverden skrig
Ø±Ø±Ø±Ø±Ø±Ø±Ø±Ø± Ø±Ø±Ø±Ø±Ø±Ø±Ø±Ø±
niveau et
ĠRÃ¥d hus
Ġinkl usive
ag ende
ĠgrÃ¦ ske
5 8
sbor ger
7 6
U P
ag tigt
ab org
Ġkomp ati
ĠbevÃ¦g elses
ĠH as
Ġsid det
ĠbÃ¦redyg tige
ass erne
Ġudtry kker
l Ã¦ng
ĠKomm ent
Ġslet tes
h ot
klagen Ã¦vnet
Ã¥ le
Ġ8 4
P ar
Ġ {
ad vokat
Ġregering ens
Ġflyt ning
ĠL em
ĠvÃ¦r ket
ĠvÃ¦g ten
ĠGl ob
Ġglim rende
ĠAn tallet
Ġk y
Ġop hÃ¦ng
Ġdom Ã¦ner
Ġbr une
k op
ĠD vs
Ġskol erne
Ġv aner
Ġst atis
ĠHje m
Ġkryd stog
ig erne
ĠE T
Ġc rem
Ġkast et
H istor
Ġli ber
ĠI b
Ġskar pt
fl Ã¸j
Ġan gÃ¥ende
re ening
Ġpr og
Ġkl Ã¦der
ĠfÃ¦r reste
ax os
k redsen
port alen
ĠF an
Ġseri Ã¸se
Ġr ist
Ġs utte
inci ppet
ar di
Ġw ellness
Ġadskil ler
rupp er
Ġber edskab
Ġmu st
OT AT
Ġfor ek
ĠK ost
Ġgennem fÃ¸rte
assi ve
B es
Ġru mme
it ch
ĠJ orden
Ġbar sel
m und
ĠN yd
Ġoply ste
um Ã©
HOL D
ĠSk andinav
Ġperspe ktiver
Ġstyr es
Ġudn yttelse
id et
B U
Ġmuse et
ĠF ader
ĠunderstÃ¸ t
Ġkomb inerer
Ġev igt
ĠK ig
ig net
Ġf anger
Ġfarver ne
e arch
Ġre m
Ġanbef alet
Ġad op
Ġtredje part
tra fik
O C
ĠskrÃ¦ mmende
Ġf ester
Ġspil d
Ġor k
Ġforbruger ne
ĠM Ã¸n
ra p
ĠHar ry
ĠÃĨnd ring
ĠudlÃ¸b et
ĠB od
Ġstra mme
ĠAnd els
ĠI t
sp Ã¦nd
Ġa viser
Ġdyr ene
ÃĨ S
ĠT rÃ¦ning
Ġeksper tise
Ġinst allere
5 1
Ġinter n
Ġpas form
Ġweb cam
ĠV Ã¦g
Ġmodtag elsen
Ġbus sen
Ġb is
els Ã¦t
Ġvand re
ĠOm rÃ¥det
ĠkrÃ¦ vede
Ġb a
ph one
risti ans
ist yr
Ġkvalitet er
Ġslan k
Ġd am
de j
Ġdesser t
5 3
ĠAl bert
Ġafstem ning
ĠslÃ¥ s
Ġinkl usiv
ĠmÃ¥ les
ĠHen ning
Ġstop pet
mÃ¦r ksom
Ġformid ler
Ġspe kt
Ġs ter
ĠN orden
k olle
s ing
ist re
E ner
Ġtun gt
Ġparad is
Ġved tagelse
Ġlever ede
k g
b io
ĠJon as
ĠSti ft
unt ain
at orium
sl und
Ġforbind elser
al ds
Ġti s
Ġinddr age
Ġben zin
Ġr ede
Ġmidler tidigt
ĠG reve
ĠSpeci al
ĠprÃ¦m ier
s gade
Ġked elig
Ġen ighed
Ġmodst an
Ġfors endelse
ĠM ont
Ġvaret ager
Ġre agere
Ġyd m
Ġtog et
Ġavan ceret
B ri
Ġreturner ing
Ġfor lag
Ġra ce
Ġopgaver ne
sÃ¦t nings
Ġdi vision
Ġbu ks
ĠAn non
AN G
Ġtaller ken
Ġover holder
Ġenergi forbrug
bor ger
Ġsp in
sp ring
Ġbrug sbetingelserne
ĠÃĺ l
Ãĺ J
ĠN Ã¸d
Ġun gerne
Ġsiden s
Ġsm ed
hjÃ¦l per
Ġkon vention
ĠpÃ¦dagog er
Ġsv ind
Tid ligere
ĠÃħ R
Ġg el
Ġaf vig
Ġpost en
Ġgaran terer
sv ing
ĠKommun ikation
yr des
ĠBr Ã¸n
ap os
ĠB ay
Ġover fÃ¸re
kl agede
P rÃ¸
ĠO per
Ġt at
Ġgra fik
ĠR ab
Ġred aktÃ¸r
m es
f el
pla den
6 1
ĠC amilla
Ġh ad
Ġser ier
ĠW illi
ĠrÃ¦kke vidde
Ġris ici
sk onsul
Ġre el
reg net
kl are
Ġt old
ĠbÃ¸rne haven
Ġpatienter ne
B o
Ġind bydende
Ġfr od
und skab
Ġforeg ik
ĠkÃ¸n s
hand lere
lig nende
Ġplak ater
Ġh ere
Ġefter fulgt
Ġdetal je
Ġsyge fravÃ¦r
ĠSk o
Ġopdater ede
Ġgrund laget
Ã¸rr elsen
Ġom talte
Ġutil freds
Ġbag ud
Ġudg aver
ent s
Ġer ob
con dition
Ġar mbÃ¥nd
8 4
Ġskrive bord
Ġenergim Ã¦rke
ĠmÃ¥ den
ĠArbej der
Ġeval u
Ġsyn et
w ich
omrÃ¥ derne
Ġstats lige
ĠA st
vent ar
ĠafhÃ¦ng ige
Ġserver e
Ġkrist end
estiv alen
Ġalt an
Ġkost umer
Ġveder lag
D U
Ġskj orte
ĠGl as
ent re
Ġm Ã¦ndene
ĠdÃ¸d sf
F ort
ĠforÃ¥rs age
k irken
der ing
us ser
s udvalget
Ġakti e
ĠNik ol
Ġjournal ister
H el
estyr else
Ġs ut
Ĥ ¬
f abrik
punkt et
ĠF ot
Ġc afe
Ġse ktion
al de
stem ning
oner ing
Ġbelast ning
port al
Ġfork Ã¦le
Ġforny else
st av
ĠR am
St and
Ġred iger
Ġdom Ã¦n
Ġsk ind
ĠreprÃ¦sentant skab
ĠPer fekt
Ġle gi
Ġbekym re
Ġs ande
Ġv ers
P A
d omm
ĠsÃ¦ be
Ġulov ligt
ĠSÃ¦r ligt
Ġl atin
Ġmedarbej deren
Ġniveau et
ĠC or
ĠVirksom heden
Ġar om
ryd else
Ġhypp ig
ĠkÃ¦l deren
ud der
Ġprakti serende
esk ov
fil er
N otat
ĠT iv
Ġstran de
Ġbran ch
Ġb reve
vis nings
ĠFor um
Ġop tager
5 4
Ġfantas ien
ĠC E
ĠStat ens
Ŀ ¤
r Ã©
Ġkl agen
ĠMod ul
ĠB ord
Ġafslut tende
v Ã¦nget
Ġkont ingent
Ġhand let
Ġu af
c ar
Ġarg ument
del ings
Ġcyk elt
5 2
ĠBo x
ĠK amp
Ġtilb aget
ag tet
ĠD amer
Ġsm ut
Ġfart en
d elser
ĠPro fession
d Ã¸r
Ġstad ion
Ġi k
Ġbog udgivelser
ĠArbej det
ĠhjÃ¦lp somme
M idt
ĠÃĺst rig
ĠnÃ¸d der
r t
ĠB ol
al ie
ĠK re
s tid
ĠH Ã¸rsholm
ĠpÃ¥vir kning
ĠM id
Ġandels bolig
ĠPern ille
eg nes
ĠmÃ¸r ket
out ube
ĠnÃ¸g ler
is tik
ĠM att
Ġforhind rer
Ġhensigt smÃ¦ssigt
Ġsp ringer
Ġmen inger
ĠpÃ¥begynd t
sm in
Ġ lem
ĠP as
Ġlog ger
Og sÃ¥
C C
ĠKont or
Ġunder try
ĠBr un
l ager
Ġland skabet
Ġpleje hjem
Ġb ac
le b
k ab
Ġop sig
Ġre alistisk
ĠByg nings
Ġder nÃ¦st
ĠO dder
Ġgu itar
myndig heden
Ġop stilling
ĠAl mind
S en
ger s
ĠtÃ¸r ret
ĠRe v
Ġvit aminer
Ġv ul
Ġovervej ende
Ġforl Ã¦nge
ĠB est
Ġsupp lement
Ġmaler ier
Ġover stÃ¥et
pl us
Ġfortr olig
ĠYder ligere
styr et
yt ten
Ġd rÃ¥
Ġhus ets
Ġkem i
Ġudford ret
Ġindvand rere
ti st
ĠN ort
ĠgÃ¦l de
ĠTil bage
Ġaf prÃ¸ve
ĠtÃ¥ le
Â °
Ġan lagt
Ġhjer ter
Ġp lig
ĠH Ã¸
rer ing
ĠkrÃ¦ vende
ĠnÃ¦r liggende
Ġultim ative
ansvar lige
ĠDan ish
D I
Ġkun sten
Ġh enne
Ġfol ks
Ġtr ends
sb este
N e
Ġud ad
Ġsommer ferie
ĠD yb
Vedt Ã¦gter
mm a
ĠFin n
ĠIn nov
forb und
Ġkra vet
lÃ¸s es
ĠDer til
Ġres ter
au ce
Ny e
Ġinter nt
Ġne w
Ġmagt en
ĠKl age
Ġomt alt
sam fundet
ĠR yg
Ġm ix
Ġsn akket
Ġtradition elt
Ġskat tem
Ġud arbejder
H vem
spul je
result ater
ĠM oden
g lemm
Ġs ilke
9 3
K OMM
Ġu Ã¸n
ĠG PS
Ġero tik
Ġvid st
Ġn ar
beret tigede
ĠTh isted
ĠOffentlig gÃ¸relse
Ġadres ser
strÃ¦ ning
av asc
Ġover fÃ¸r
ĠByg ger
Ġsp rede
R o
Ġf lys
Ġor dene
In ter
for svar
ĠA abenraa
Ġindb yrdes
Ġinkl usion
Ġer nÃ¦ring
it es
esel skab
ĠS ar
vÃ¦g ge
Ġan bring
vÃ¦r t
ch t
Ġover tog
Ġl ugt
ov ne
kend elses
Ġudg av
Ġmiddel alder
ĠSt r
N Y
Ã¸g od
ĠsÃ¦d celler
Ġre elle
Ã¦ ppe
Ġbruger ens
b Ã¸r
avasc ript
Ġo ftere
ĠTil syn
Ġtab letter
Ġfokus eret
Ġjob s
var teret
Ġoffent ligheden
ĠS pe
ĠN axos
ĠÃĺv rige
d og
Ġsof a
ret tes
kont or
O B
Ġfarver ige
Ġs od
Ġstrateg iske
pub lik
ĠG ren
ĠMourin ho
ĠRe vision
Ġfor f
byg ge
Ġmennesker et
Ġform ular
b rÃ¦t
Ġud sm
ĠF estival
Ġnet to
T R
Ġes senti
in ke
Ġm os
Ġre alkredit
Ġl ister
ĠFor svar
br iller
V er
Ġmel od
m yndighed
p ose
ĠD SB
i j
st rÃ¥
Ġroman tisk
ĠAr t
asin et
Ġfortrydelses ret
Ġp ot
ĠTil sÃ¦t
Ġfar vet
KK ER
Ġb agt
i tionen
ig eret
Ã¦ ler
Ġst atisti
ĠB B
OR G
Ġsj overe
y le
al je
Ġtra v
sproces ser
fac iliteter
t aj
Se x
ĠSus anne
Ġel ite
ĠP U
Ġinstru menter
Ġspis es
dk ast
in fo
Ġop p
Ġtyp iske
rÃ¥ ds
ĠÃĺst jylland
av s
Ġud strÃ¦kning
lev ende
Ġgen ind
Ġmadlav ning
Ġf old
Ġspred t
m Ã¸lle
sam tale
ĠJul ie
n Ã¸g
Ã¦v else
ĠF A
an staltninger
b unden
Ġu brug
ĠFin ans
ĠENER GI
Ġaf rik
Ġom egn
ĠhÃ¦ vet
klin ik
ĠGent ofte
oder ne
tet s
ĠLuft havn
Ġled ende
Ġ199 2
F Ã¸l
ĠAn svar
Ġskul de
om an
ĠHer med
ĠF e
ĠAll Ã©
Ġbetal te
ĠtrÃ¥d lÃ¸se
ĠW ik
ĠbegrÃ¦n sede
G l
R esult
Ġaut oriseret
ĠGener elle
Ġerhvervs liv
Ġfrem stilles
Sam tidig
Ġvideok lip
Ġing rediens
Ġk am
vend igt
K ur
ad o
Ġafsl Ã¸re
Ġp els
Ġdan nes
ĠKÃ¸b er
ĠT Ã¸j
Ġgra ve
este g
ĠhÃ¥nd fuld
ĠHotel let
ĠFin land
K L
ĠflÃ¸de kar
ĠFor ud
ĠFor en
ĠB ibliotek
ĠM ex
ĠforÃ¥rs aget
Ġfor plig
Ġekskl usiv
ĠstÃ¸ der
Ġafslut te
il je
Ġte m
Ġtje kker
cien ce
Ġparf ume
UN KT
ĠstÃ¸ vs
Ġpar l
Ã© t
Ġopf Ã¸re
ĠSuper lig
ĠSe ptember
S EN
ĠF Ã¥r
Ġforber edelse
ĠKon cer
ĠtÃ¦n kes
ĠnÃ¸jag tig
Ġdiff eren
Ġh ej
Ġm orm
Ġimp ort
Ġar men
Ġopret tes
ĠB eb
ĠK unden
ĠG yldig
Ã¸v rigt
rel aterede
ings svar
Ġf elter
Ġinsp e
Ġfunger ede
Ġi kraft
Ġc d
ĠV old
ĠGu cca
Ġp end
hal v
kli ste
h urtig
ĠSt ed
ken land
y det
Ġforsikring en
Ġmark er
Ġment or
Ġhoved person
Ġjap anske
h ygge
ĠM ail
r unde
Ġh yd
200 6
ĠBri an
ĠnÃ¸g letal
Ġapp els
ĠUnivers ity
ĠG Ã¦ster
Ã¸ t
Ġindt Ã¦gt
Ġt ob
Ġfort rol
s sk
ic al
as y
Ġbl id
Ġd ress
Ġaf lÃ¸b
O ff
Ġv eter
Ġsk iver
bet ingelser
ĠSam t
ĠsÃ¦t ning
s Ã¸s
Ã¦ sen
S peci
ĠA mb
Ġbl an
olog er
Ġv ag
form ular
Ġe en
Ġkomb ineres
Ġsp ark
ĠMad rid
st ation
Ġentrepren Ã¸r
el avn
Ġakt indsigt
end et
Ġrel ateret
Ġg yl
vok ater
elv ede
ĠAnaly tics
Ġdild o
Ġf jen
ĠfÃ¸l t
ot okol
Ġbestil les
Ġ/ /
stra teg
res sion
Ġdom Ã¦ne
ĠOp lysningerne
h orn
ĠmÃ¥ned lige
ĠFal ster
Ġr Ã¦
ĠNorm alt
Ġerhvervs drivende
ĠK aj
ĠLis beth
ug h
estil lings
ĠivÃ¦rksÃ¦t tere
sb idrag
ĠB IL
Ġmenstru ation
ĠV W
Ġopfat tes
ĠflÃ¸dekar ameller
l is
bland ingen
Ġ19 50
H ol
Ġinfe ktion
Ġvigtig ere
ĠTe ch
Ġsp ore
Ġpoliti ker
gu iden
ĠT y
lej r
Ġgravid iteten
et it
H en
ĠslÃ¦g t
ĠkÃ¦r lig
Ġsn akkede
Ġuds endelse
Ġfil tre
ĠtrÃ¦n et
Ġindbyg gede
Ġbyr Ã¥det
ĠAl der
forb ind
Ġorgan isering
Ġre ference
Ġsl idt
Ġau ktion
ĠD al
Ġal bu
Ñ ĥ
ĠV ordingborg
? )
Ġor ange
adres sen
Ġf ysik
ĠInteg ration
Ġhvor til
Ġf irk
st ret
u dere
Ġ16 0
Ġligeg yldigt
ford ring
Ġt Ã¦r
ĠF isse
lÃ¸s hed
Ġdomst ol
ĠS ov
u fÃ¦lge
V aren
Ġoli ven
Ġform Ã¥
st ykker
Ġkonkurrenc edyg
ĠnÃ¸jag tige
Ġbetrag ter
yp isk
K lik
ĠhÃ¦k le
B eg
ĠpÃ¥ krÃ¦
t Ã¸r
m Ã¦ndene
Ġtids rum
istrer ing
Ġudv Ã¦lg
Ġbuti ks
ĠSc an
Ġn akken
Ġterras sen
af stand
ĠJe an
H otel
ĠOp lÃ¦g
ĠPr ogra
ĠH il
dat ing
ĠF rivil
Ġproblem erne
ĠO li
P er
Ġh oris
Ġbr Ã¦ndende
ĠInternet tet
ĠG ade
ĠUd l
pul ver
ĠS eb
fly tning
Ġb akker
at on
Ġre vet
Ġbog se
Ġgammel dags
Ã¸n nede
jen ingen
r od
Ġv eg
Ġbes lag
Ġfor urening
Ġstrateg ier
Ġuden landsk
ite kt
ĠMed ia
Ġvanskelig heder
Ġf on
ĠElev en
Ġtemperatur er
Ġsex ede
ĠrengÃ¸r ings
Ġved tÃ¦g
Ġsat ell
Ġr Ã¦kken
ĠH igh
Ġoffentlig gÃ¸relse
r ent
Ġlandbrug s
ud stilling
Ġku ffer
Ġversion er
iri tu
Ã¸ mmelse
Ġkal orier
Ġ199 5
Ġforsy nings
ĠP op
ven ner
vÃ¦r elses
Ġu kr
bil ledet
Ġeksist eret
ĠvÃ¦ kke
ĠimÃ¸de komme
m assage
ter ingen
ape uter
ĠM ay
v agt
Ġtru sler
ap olitik
Ġhy p
Ġforestil linger
ag o
ĠB ladet
ÃĨ N
ĠCan ada
ol ine
Ġfar v
ĠT v
ib id
sk ultur
Ġka h
N i
Ġhon ning
Ġfor holdene
ĠVarem Ã¦rket
Ġfin ans
ĠV ig
Ġinformation s
Ġi stedet
Ġsygeplejer sker
z y
Ġdi ameter
si te
Ġmus limer
Ġoprind elig
ĠD J
Ġvej le
Ġac tion
Ġslag sen
ĠTr yg
Ġskift ede
spar ing
D i
Ġudp eg
Ġinde klima
Ġforbed rer
Ġter api
ĠE gen
Ġunder tÃ¸j
Ġprodu ceres
ĠA li
Ġoff ens
Ġerfar en
Ġ19 00
Ġsm it
Ġkul hyd
Ġpornost jerne
Ġko smet
Ġelektron ik
Ġkart off
Ġk e
ĠL Ã¦se
ud io
af rika
T r
Ġblod tryk
ĠSam sung
Ġin s
ĠSk agen
Ġdest ination
Ġvis uelle
ĠrÃ¸ ven
G B
Ġbek Ã¦mpe
ĠfÃ¸de var
ĠBed re
ĠK Ã¸n
Ġsig te
Ġskabel on
D ej
Ġarrang ere
Ġbro der
ĠB ody
Ġj yske
Ġkon tekst
le jen
P arl
Ġgens idig
Ġudd y
ĠFa aborg
H ans
Ġover leve
al and
es ex
ud lejning
Ġy our
Ġudl Ã¥n
ĠN Ã¦sten
Ġs orter
ĠM ort
ĠS Ã¦son
Ġskilsm isse
el y
Ġh esten
H vil
Ġsy et
Ġdilemm a
at Ã¸rer
yr et
Ġse mester
ok alet
yg tig
Ġbr Ã¸
Ġvelly kket
ĠP ik
Ġres p
ĠGl ostrup
z onen
ĠsÃ¸d t
Ġmodtag es
Ġgyld ne
ler en
Ġkendet egnet
sk erne
ĠR ikke
net tet
ĠByr Ã¥d
Ġufor glemm
valg t
Ġstabil itet
ĠAm atÃ¸r
ĠR ich
Ġetabler ede
fÃ¸l else
ĠJu le
ĠVaremÃ¦rket idende
pri se
Ġover skri
Ġvari ation
ar anti
Ġfr ygter
Ġmob ning
ĠB ras
Ġcyk le
ote ks
Ġserver es
mail s
Ġf Ã¦
ĠM EN
Ġcyk els
Ġopr indelse
Ġkar akterer
Ġaf give
Ġdiagn ose
Ġvar ens
ĠÃ¥r lig
Ġgem te
Ġg our
Ġpr om
Ġ ]
d f
in sen
ĠRej ser
Ġra tion
amer ika
ĠFort Ã¦l
riv sels
Ġbet inget
Ġfunktion elle
Ġhand ic
Ġof re
ĠS imp
Ġisol eret
Ġfasc inerende
Ġkode ord
Ġselv tillid
Ġbr yg
ĠA s
org an
Ġbag age
til synet
Ġfyr et
Ã¸ f
Ġi den
ĠtÃ¦ pper
Ã¸n ner
Ġned ad
Ġdag ene
Ġrut en
ĠlÃ¦r erne
ĠBil lund
Ġder af
j ser
vej ende
Ã¦n kte
Ġtr Ã¸je
Ġan fÃ¸rte
ĠF x
b ur
Ġfavor itter
Ġmin us
Ġkr an
til behÃ¸r
% ,
Ġn aar
Ġ ??
Ġmid ter
Ġlu kkes
ĠG ylden
Ã¦s oner
lÃ¦ se
S axo
osp it
Ġty kt
kti vis
Ġfandt es
ĠPort ug
proces sen
kst eder
Ġredu cerer
aut y
in n
ĠHer til
Ãĺ S
Ġf et
owe en
ne m
Ġty ve
ĠT ab
spr iser
Ġanmel der
Ġgenop trÃ¦ning
d rup
ĠfÃ¸l somme
Ġse par
Ġgr ene
ĠindkÃ¸b s
as iner
Ġstyr et
Ġfilosof i
iru r
Ġg Ã¦r
og sÃ¥
l est
fÃ¸d t
Ġbeskriv elser
m anu
Ġd ry
Ġten nis
Ġpl u
Ġstabil t
k Ã¥l
Ġunder skud
iv ider
it age
ĠbÃ¦redyg tigt
Ġind hente
Ġkontakt en
ĠMin i
Ġflyt tes
g rav
ĠAl lan
ĠSam arbejde
Ġparti et
b it
J ul
Ġh ylder
ĠH ouse
Ġskin ner
ens yn
Ġhoved pine
ĠÃ¥ben hed
Ġtil vÃ¦relse
Ġsprog lige
Ġfjern syn
Ġund vÃ¦re
Ġfleks job
Ġop lag
p akken
for and
Ġfl iser
ĠM ors
es i
Ġfor ladt
forening ens
S idste
ĠT otal
Ġdeci deret
Ġn Ã¦gte
Ġover dre
Ġaller gi
ask et
l ak
ud get
Ġkemik alier
Ġover tage
stekn ologi
Ġopford ring
bro w
Ġp ower
Ġny dt
Ġbord el
ĠlÃ¦sel ysten
k reds
Ġtil med
lig st
Ġdig t
ĠskÃ¦r me
Ġom tale
ĠC ec
ĠC P
Ġsm id
Ġp ers
Ġop tages
s form
et isk
Ġfl ow
Ġinvi tere
Ġkompli ceret
8 2
iv ende
ĠG Ã¥r
ĠM aden
b ut
ĠindlÃ¦g ss
ĠVi ctor
ĠChrist ina
Ã¥ ne
Ġad vent
Ġtra ppe
Ġmotor en
ĠmÃ¥l sÃ¦tninger
Ġudf old
Ġforsv undet
Ġl Ã¥r
ĠtÃ¥lmod ighed
ĠkÃ¦r esten
Ġkur ven
Ġbom ulds
led ende
ĠIn stru
ĠB liver
les en
Ġaf bud
ĠTh y
ly d
ĠlÃ¦ring sportal
elig heder
ĠstÃ¦rk este
del er
? .
Ġkv Ã¦l
ĠW est
Ãħ L
I s
Ġsv in
f aste
ĠAd am
Ġkvinder s
Ġproducent en
Ġventet id
Ġk reds
Ġvirksomhed ers
ownlo ad
irurg isk
Kont akt
ĠL aur
ĠHje mme
EN DE
mod eller
ĠC irk
Ġark Ã¦
Ġr Ã¸rer
Ġind sigelse
Ġdaglig dagen
Ġover taget
Ġle kti
ed ler
Ġdan marks
elle kt
Ġgul ve
Ġbe viser
Ġ ).
Ġman ual
ĠN orde
Ġaf sender
ĠS lut
ass el
lo ud
l ook
Ġf let
Ġ esk
Ġar mene
or ge
Ġudt ale
x it
Ġtal let
Ġind f
ox id
um per
Ġfl oden
Ġgro ft
ĠnÃ¸g len
9 4
ĠK laus
Ġc l
O BS
Ġsy re
Sam sÃ¸s
Ġjust ere
ĠSam me
ĠForening ens
Ġkolle ktion
V irksom
ak ers
Ġregistrer es
Ġma sker
ĠK V
ĠSikker hed
Ġlej r
stÃ¦nd ighed
ĠV or
ĠVerden skrig
Ġindt ager
Ġtilmeld te
ĠVisit SamsÃ¸s
ĠH or
sp Ã¦r
dire ktoratet
ĠIn ge
ĠF onden
ĠRÃ¥det s
ed len
arbej derne
Ġsmag te
ĠDe cember
Ġta sker
jer net
kateg orier
ĠS id
Ġret ss
Ġide el
Ġuds endte
Ġtal enter
Ġind fri
Ġamb ition
Ġob server
f abri
7 3
ti vet
de bat
Ġimpon eret
ĠH i
tem atik
ĠN av
Ġforst Ã¦rk
ĠA ma
M ARK
j f
ĠG ladsaxe
Ġbestyr elsens
Ġtran spor
ĠO rientering
ol o
Ġdig te
Ġstra ffes
Ġny tte
Ġje ans
Ġbr udt
Ġover tager
Ġudbet ales
Ġsnar est
Ġaller g
Ġdansker nes
Ġres pon
Ãĺ G
Ġud fÃ¸r
Ġb all
Ġgymnas iet
Ġskad elige
Ġly sten
ik at
dr age
prÃ¸ vet
Ġanbef alede
Ġsocial demokra
orm oner
Ġudgivelses platform
ateg orier
Ġn az
san visning
Ġfal ske
Ġerstat tet
Ġko den
ĠÃ¸jebli kke
Ġpul ver
s gaard
Ġbran cher
Ġg lan
Ġan holdt
Ġsp ansk
Ġl ampe
Ġtr ag
ĠSt ation
Ġsign atur
Ġc ens
Ã¼ n
riv sel
Ġil t
Ã¦g ts
Ġsolsk in
k alender
reg ion
Ġkn ytter
Ġn Ã¦g
I SK
sl o
K n
iel d
ĠS kema
sv urdering
Ġtil lykke
inde ks
Ġslut te
y se
ĠI da
Ġgrund vand
strÃ¦kk elig
Ġkommerci elle
tr ent
Ġoff er
Ġk agen
Ġind slag
app ort
ro om
b Ã¥d
ĠGener el
Ã¦ kkede
ĠRe prÃ¦sent
Ġfl ugt
Ġd rev
Vis ning
ĠDag ens
spris en
Ġind sÃ¦tte
Ġn ark
meld elser
okol ade
ĠF ejl
Ġmedvir kende
ĠHv ide
ĠlÃ¥n t
or it
Ġa ger
Ġsat ser
Ġord ningen
Ġmedlem sst
ĠV ir
ĠJ yske
Ġkommuner nes
s regler
in ks
p ynt
s reprÃ¦sent
Ġrol len
st ab
ĠBer g
Ġb achelor
ĠC as
Ġvin en
Ġab on
Ġs anger
lu ft
m aler
omk ost
ĠF og
sbeg rÃ¦n
Ġd rama
B ar
Ġgl uten
ĠÃĺ k
ĠOp lysninger
Ġsli m
one y
w h
ĠDa hl
ĠR ets
Ġgod s
Ġaf giver
Ġher rer
opp ede
Ġdiagn osen
end a
Ġp oker
ĠUn ion
ar rang
ĠMar i
Ġkold ing
Ġrol ige
Ġul ykke
B O
6 8
Ġforst od
Ġv ing
Ġskil te
Ġkul de
ĠAut o
Ġomkost ningerne
Ã¥ Ã¥
h vad
ĠAn gel
Ġorg aner
Ġsp a
Ġgr en
Ġudform ning
ĠdÃ¥r ligere
un gen
ĠV urdering
ĠL ise
Ġev angel
prÃ¸ ven
Ġangiv es
Ġafd Ã¸de
ĠhÃ¦ng ende
Ġhum an
Ġbjer ge
c erne
Ġh or
for s
E kstra
Ġfor men
ĠSor Ã¸
ĠbeskÃ¦ftig et
t a
h m
Ġdesig ne
ĠdÃ¦ kkes
and re
Ġsyn spunkter
vide o
Ġaf regning
Ġneg ativt
Ġindt age
Ġa sf
sl Ã¥n
. ),
sn ed
Ġr anders
ĠforÃ¦l dres
Ġan givelse
Ġkl Ã¦de
Ġovervej et
Ġbe mÃ¦rket
fag ligt
ĠAn g
se bÃ¦r
Ġtil sku
ilde vand
op s
Ġsm ags
Ġkast ede
ĠS ne
st ur
p al
Ġtv iv
eg ade
Ġinstru ment
Ġenerg ien
Ġsk ille
id as
Ġforret ningen
Ġt olk
Ġop hÃ¦
Ġpark erings
ĠB T
ĠNet flix
B A
Ġrol ler
reg lement
Ġgen rer
ĠRÃ¸d ovre
Ġdedik eret
ab ra
est uen
Ġbest sel
W h
Ġkri ti
plan ter
Ġforb live
Ġtra ck
ĠdrÃ¸ mmen
Ã© n
o tisk
Ġc ocktail
Ġlig ne
Ġprov ok
m al
ĠansÃ¸g ere
ĠRum Ã¦n
Ġaftal es
Ġkunstner iske
Ġangri ber
Ġomkring liggende
Ġs eg
ĠV iser
ĠA ktivitet
ĠbÃ¸rnet Ã¸j
us i
Ġpje ce
per i
Ġforsink else
Ġhval pe
ester et
Ġin former
Ġc re
o om
Ġb ig
Ġl itter
ĠB Ã¦r
Ġsl idst
Ġforny et
Ġd Ã¥b
ĠPriv ate
en heder
ĠUdvik lingen
Ġbru de
Ġskj ule
f rÃ¸
Ġmedicin ske
Ġkomm and
ĠPr oblemet
Ġpark en
ĠL one
c u
an y
Ġautom ati
Ġmilj Ã¸god
jÃ¦l pe
Ġal verdens
re formen
vil ling
Ġlesb iske
AL E
Hje mmes
ĠFor skning
Gener elt
datab lad
lÃ¦ ser
ĠBYG NING
Ġma a
Ã¸n de
ä ¸
Ġsk yder
Ġfrem stille
Ġi fÃ¸rt
ĠJ ames
ĠhÃ¸j den
Ġdaglig dag
m useet
Ġbil ens
AN T
ĠEn heds
Ġaf gjort
ĠS on
Ġpub li
Ġsidst nÃ¦vnte
ĠOm sorg
rakti k
Ġudtal elser
ĠTil skud
ĠS V
ĠL Ã¸s
Ġsyg edagpenge
tt a
ĠlÃ¥ se
ĠG itte
Ġc amp
ĠN R
an satte
st ri
m aster
Ġfrem skridt
f lik
rÃ¦n de
ĠK UN
sp raksis
Ġ199 3
sk j
ĠD Ã¦k
ĠR Ã¥
ĠSt ock
Ġfor leden
Ġnyt tigt
SP AR
un n
Ġtilslut tet
ĠrÃ¥b te
ĠAr ne
Ġstu dere
g ent
ĠSyn es
f abet
ban ken
Ġc en
inner up
ĠL asse
Ġr ykke
Ġregistrer er
h et
Ġhv ede
Ġud givelse
Ġdom inerende
Ġford ybe
ĠSE X
ĠAsi en
6 2
ĠF ond
Ġlege plads
Ġsm alle
Ġindustri en
Ġsti ve
F red
Ġ }
Ġarbejdsm ilj
ission ens
smet ode
Ġsk aff
Ġbeh older
Ġhus hold
ĠAn k
Ġch ili
Ġlig nede
ĠvÃ¦ v
ĠnÃ¸jag tigt
Ġkv Ã¦g
G o
Ġt os
Ġkli ppet
ĠsammenhÃ¦ng en
Ġbol ler
Ġswinger klub
ĠÃĺsters Ã¸en
ry kket
Ġinform eret
Ġudveks ling
re et
ĠM A
Ġsm ider
Ġselv vÃ¦rd
Ġop fÃ¸rer
rog en
Ġth i
Ġtil v
fÃ¦rd ige
br or
ĠBjar ne
Ġvit amin
ĠFÃ¸de varer
Ġnord isk
chef en
ĠrÃ¥d give
ĠH ob
Ġinter iÃ¸r
app et
Ġpyn t
eten cer
ik t
Ġunivers iteter
Ã¸d ne
Ġul ykker
sbas eret
ĠkÃ¸b s
Al ler
Ġomkost ning
Ġfor tiden
Ġkultur er
for retning
ĠTiv oli
Ã¸ mmer
st est
am i
Ġop tag
Ġkons ult
Ġrim elige
Ġhyg iejne
sy re
Ġtav s
ĠfÃ¦r des
ĠforlÃ¦ng et
Ġder over
Ġlesb isk
Ġmind es
Ġpar ametre
inister iet
Ġmaler i
Ġdriv hus
Ġmed ens
Ġerstat nings
er ske
7 8
Ġp letter
us ivt
Ġt ele
p orn
Ġsk Ã¸d
Ġgl atte
Ġtr Ã¦nge
Ġforen ings
ol ke
ĠSk rift
Ġsn yd
ĠtÃ¦n derne
Ġinstall ationer
Ġmuse er
Ġinddr ages
ad set
D EL
Ġforud sat
Ġalles ammen
ĠC al
s ign
Ġsm ile
i ter
Ġskift es
ĠFor sÃ¸g
ĠStep Stone
Ġkan ter
ĠVÃ¦r ktÃ¸j
Ġbeslut ningen
Ġpotenti elt
Ġeleg ante
Ġforud bestil
ĠInst all
Ġth aimassage
ĠR el
stand arder
Ġnyhed smail
Ġoverv Ã¦ldende
ĠId rÃ¦ts
ven ligt
N U
Ġret fÃ¦rdig
l Ã¦rt
Ġaf vist
Ġfl u
tal es
Ġkn apper
re e
Ġs Ã¦soner
Ġaller mest
Ġfil en
Ġs vi
Under sÃ¸g
Ġf Ã¦l
Ġbest Ã¥et
i est
Ġmodst ander
Ġudd yb
Ġprin ter
ĠpÃ¥ stand
res pon
Ġfag folk
bl omst
Ġs Ã¦nke
Ġomdrej ning
h tt
ĠlÃ¥ g
c irk
Ġsk iller
Ġspr ang
bel ast
ug en
reg lerne
P E
Ġbereg ninger
sk amp
Ġefter uddannelse
Ġkryd ret
ĠGrÃ¦ kenland
Ġlabor ator
ĠPoliti et
Ġind sÃ¦ttes
v old
ĠO pen
Ġinstitu tionen
Ġment alt
id te
Ġr igt
ĠÃ¦g ge
R IV
Ġu kendte
an sen
Ġfast lagt
ĠK ra
Ġi stand
Ġaf vikling
Ġf os
ĠMang ler
Ġc omm
ile p
Sund heds
Ġorganis eret
Ġudv ider
Ġfortolk ning
Ġbl ods
Ġtilstede vÃ¦relse
vir ke
Ġmidler tidige
v oks
M A
Ġtil strÃ¦
Ġ Ã¦l
hvert fald
b om
abler ing
em ale
ĠundgÃ¥ s
Ġind rette
Ġu Ã¦nd
Ġovernatnings steder
ud dannet
Ġerhver vet
ĠC X
ab onnement
Ġreg nes
sfor eningen
Ġop sat
Ġhel heds
Ġredu ceres
r oner
f jord
id dende
Ġskema et
Ġsundhed sp
ĠbÃ¸n ner
Ġhen vise
Ġto uch
un ch
kont oret
asset rin
andid at
Ġinstru ktion
F antas
at ret
m Ã¦g
ĠAn ton
Ġfremh Ã¦ves
Ġlager status
Ġtekn ologiske
Ġv olumen
Ġforn Ã¸dne
B ed
sb rug
ĠÃ¸ ve
ĠoptrÃ¦ de
ĠopnÃ¥ ede
Ġmod uler
ĠsjÃ¦l den
Ġfre mmer
vend te
Ġfej lag
sbesk rivelse
ut h
Ġargu menter
ug ler
abil itet
Ġsm Ã¥b
Ġnu tidens
Ġoplev elses
Ġst olen
Y R
Ġ3 50
Ġgli mt
Ġ9 3
8 3
veks ling
ĠL Ã¸g
po si
ant s
rapp orter
Ġ8 1
Ġd Ã¸bt
j Ã¸rn
ĠH Ã¸ring
N Ã¦ste
p olitikken
ĠJul i
Ġfra trÃ¦
ĠSk j
b ning
ĠSp Ã¸rg
Ġforsend elses
ĠCh amp
Ġsik rede
Sk riv
spro fil
kl ede
B liv
Ġh ost
udvalg ets
Ġbetal inger
Ġked elige
ĠP ul
ateg ori
Ġom stilling
Ġinstru ktioner
Ġgod kender
lys ende
Ġuly kk
Ġc openhagen
Ġforestil ler
Ġmyndighed erne
Ġgennem gÃ¥ende
Ġskru et
Ġt ang
al ly
il let
Ġkl ap
reg ist
Ġnor mer
ĠI K
s alt
ĠM T
Ġgevin ster
sam arbejde
ĠPat ent
Ġfej rer
Ġforklar inger
ĠM ore
Ġan tik
lin je
Ġrel ater
st olen
ĠMer c
ĠV Ã¦gt
Ġbus iness
Ġkob ber
ur gte
ĠB io
Ġbeg Ã¦r
Ġbrug s
b elÃ¦g
Ġt ar
ĠS Ã¦lger
ti sme
svar er
d ate
amp oo
K valitet
ĠG ang
sret ten
Ġbesvar et
Ġfremad rettet
ĠViden skab
7 4
Ġbegrund else
Ġpor celÃ¦n
Ġjagt en
s j
Ġbind ing
ony me
ĠomrÃ¥det s
Ġmad ras
Ġg la
6 9
g rib
Sikker heds
on ten
for st
Ġfa a
Ġper le
k ryds
lej ligheder
Ġerst atter
Ġteoret isk
hjÃ¦l ps
Ġg aller
Ġshop pen
v Ã¥ben
m ers
f y
Ġtilbage ven
Ġtilmeld es
ĠTh aimassage
sk unst
ytt ende
ĠKnud sen
ĠM Ã¸l
Ġk abler
ĠMod ne
Ġbegejst ring
Ġyde evne
Ġtry kt
dat oen
amen te
slÃ¥ ede
g ro
Ġd ron
ĠK rig
sp rÃ¦
Ġsig tet
sl okaler
ĠhjÃ¦lp en
kl o
Des uden
mark eder
f ur
Ġp eg
Ġkont orer
E x
Ġserver en
I d
Ġel sket
ĠhÃ¥nd terer
Ġh d
reg ulering
S ommer
Ġpod cast
per ter
Ġmateri el
be holder
Ġstj Ã¥let
ĠReg eringen
ĠPar ad
abet h
ĠTa astrup
Ã¸j t
ĠV ED
Ġmark ante
uds elig
op e
ĠEm ne
re ger
âĢ¦ âĢ¦
Ġnation alt
et h
b rem
Ġudl Ã¦nding
ĠhÃ¦ fte
Ġkvali fikationer
Ġfr om
el Ã¦rer
ĠT H
ĠA u
Ġbrem se
ĠG ran
Ġbeting else
ri ck
ĠB ran
Ġjule gave
ĠbegrÃ¦n sning
Ġforsend elsen
Ġengager ede
ĠM HP
Ġj orde
app y
hver vs
M Ã¥l
ĠN AT
Ġby del
Ġudl Ã¸
ali forn
d on
Ġir rit
Ġbehag elige
ynd ige
produ center
Ġb od
giv ne
ospit aler
Ġnavn lig
Ġug entlige
Ġref usion
ĠH ad
ĠBorg mester
ĠT en
Ġfal sk
ĠB und
Ġvej lede
rÃ¥d te
Ġsatell it
el skabet
Ġfuld tid
ĠHÃ¥nd bold
Ġudt alt
ĠbÃ¸r nes
el skaber
Ġskab et
ĠLang eland
Ġr ang
ĠstÃ¸t tet
Ã¸v ede
sh irts
Ġsti er
Ġan stren
Ġkolle ktive
Ġbar sels
met ode
ĠTekn iske
Ġh orn
Ġbetaling skort
Ġsp iritu
ĠC ookie
ĠAft ale
ĠR on
Ġafsk ed
End elig
Ġ Î
Ġform Ã¥et
Ġtur isme
Ġger ning
ĠA vis
ĠRober t
Ġmotor cykel
Ġfor elÃ¦g
for valtningen
ide er
Ġasi atiske
ĠUnd gÃ¥
H av
Ġopr Ã¸r
Ġregnskabs Ã¥r
s Ã¦kke
ĠtvÃ¦r timod
s behandling
ER E
Ġkre ativt
Ġpres sen
sk ue
H AV
ĠafgÃ¸r es
ĠskÃ¦b ne
Ġab onn
Ġo l
dr agt
Ġtydelig vis
Ġpar cel
Ġsp ont
ĠTr ine
Ġkrydder ier
Ġved lÃ¦gges
Ġtap et
ĠplanlÃ¦g ningen
Ġbespar else
K S
ol den
Ġac ces
Des vÃ¦rre
Ġex tra
Ġprojekt leder
in ske
ĠPh il
ĠfremhÃ¦ ver
P eter
appar at
ĠF ir
Ġbetrag te
ĠKal undborg
by de
ĠSch midt
kap ital
ĠEjendom smÃ¦gler
ig u
Ġrecep tionen
E KT
Ġpri oritet
for deling
hold elses
ĠH jort
nu mmeret
ĠSoci ale
Ġannoncer ing
9 1
h Ã¦nger
ĠEfter skole
Ġkvit tering
ol et
Ġsy mp
Ġbestil lingen
Ġd rag
ĠvÃ¦kst en
Ġamb itioner
ver ing
f ir
pr oblem
Ġben yttede
B ook
ag elig
vÃ¦ kkende
Ġspil lem
Ġbekendt skab
ĠI rak
ĠSpeci elt
Ġcit ater
Ġoper ationen
ĠJes u
in fe
Ġgl asset
Ġint ellekt
Ġvar mer
s ud
Ġpul je
Ġsti kker
ĠÃĨ g
s agen
elses dato
es am
plejer ske
Ġud danne
Ġparforhold et
Ġd l
Ġfremm Ã¸dte
Ġmil f
Ġvejled ninger
Ġtro en
bl Ã¦s
k u
l on
Ġop fÃ¸relse
ĠEl sker
Ġskal a
Ġpar ret
RA KT
ĠL okale
sb og
d in
ĠsÃ¸ge maskine
Ġudn yttes
ĠF ax
Ġte orier
ĠN a
ĠT ina
ape u
Ġfar s
ĠlÃ¦ng ste
rÃ¥d givning
Ġbrugerven lig
ĠSen ior
ures Ã¸
ĠR ibe
Ġher i
l at
id i
ĠEfter fÃ¸lgende
Ġglem te
ĠT ob
fil ter
ĠsÃ¥r bare
Ġskift ende
Ġop stillet
Ġl am
Ġjuni or
Ġlast bil
asin oer
elv Ã¦r
n avne
far lige
Ġret ninger
Ġmellem store
ĠInd kÃ¸b
Ġdr op
Ġtil kende
k m
Ġ199 4
g ren
av and
brug ere
ĠS L
Ġj Ã¦vne
Ġtoilet tet
assi c
ĠFred ensborg
ĠusÃ¦dvan ligt
h ug
Ġv asker
Ġned satte
ĠBil en
Ġsmil ede
Ġk Ã¥ret
ĠB lo
Ġfris Ã¸r
kl am
Ġindik erer
el und
ĠO L
Ġkli m
n Ã¸d
ĠUngdom s
for fatter
o z
Ġsind ss
b orde
ĠPl ant
ĠD GI
ĠBar net
Ġfort ryder
ĠundersÃ¸g es
eks amen
EL T
et e
vend ig
Ġunder st
8 1
Ġdan n
ss ikring
Ġful den
ĠovertrÃ¦ delse
ĠJ eres
Ġs tere
Ġopdater es
ER ING
Ġvil lig
Ġvurder ingen
Ġmarked ets
Ġbyg gede
tim eter
Ġmeddel elser
form ationer
eg nede
ĠD yre
Ġban ner
fter ne
ĠLiv et
ĠU dt
ĠS af
e ar
ath on
ĠFun ktion
Ġbesked en
lig ning
Ġuds endes
ĠVest jylland
ĠB old
Ġvid ne
le e
H F
ik one
rÃ¦n der
for sker
m d
or det
h unde
Ġt Ã¥b
Ġklass iker
Ġfornu ft
ĠK ing
Ġnysgerrig hed
ĠUd sted
v ans
ĠmÃ¦rk ede
Ġbeste mmelserne
Ġd rab
Ġarbejds dag
F il
Ġan meldt
Ñ ı
al det
ĠKont ant
Ġhard disk
ĠM yndighed
ĠJ ack
ul tet
Ind hold
Ġra c
oliti et
ra f
es ti
ĠÃ¦rger ligt
M eget
Ġsove vÃ¦relset
gr unde
ĠK em
Ġretningslin jerne
Ġhalv leg
Ġbom bar
Ġudgangspunkt et
7 9
ĠC asino
Ġkontin uer
Ġaf holdelse
Ð ²
Ġb oksen
ĠMed lemmer
âĢ Ķ
Ġudfyld es
Ġklin ikken
Ġhjer tes
Ġbuti kkerne
st jenester
Ġdr ager
h ovedet
Ġt allene
sm er
Ġforsvar ligt
ĠO S
panel et
Ġkoncent rere
Ġaf fÃ¦re
ĠA re
Ġtrus ser
Ġgra mm
ad t
Ġind gangen
ĠMex ico
un ivers
lÃ¸ ser
ĠL Ã¦ring
ĠSt Ã¸j
ĠPr ins
Ġmangfold ighed
ĠMagn us
Ġvindu es
ĠO rig
Ġmilj Ã¸b
Ġstat sborger
Ġm aster
Ġled ighed
Ġopd rÃ¦t
Ġopf atter
Ã¥r ne
Ġp ind
Ġb ut
Ġ5 000
b ind
ri min
G en
ĠG rav
ĠV ille
orm alt
ĠvÃ¥g ner
el lem
ket ter
mod ellen
Ġent yd
Ġment ale
Ġop kÃ¸b
o j
Ġpluds eligt
agn iet
6 3
Ġprojekt ets
Ġryd de
Ġsamfund ets
ĠP i
ĠK h
ĠTr or
Ġkat ol
ĠBry ster
F oto
besk yttelses
Ġappar atet
ĠP artner
Ġkol oni
sm Ã¸der
Ġt esten
Ġov re
ĠJylland s
Ġbeg ravet
Ġkost ede
ĠH r
Ġfej len
Ġland zonetilladelse
Ġab stra
led else
ĠC y
ĠFor mand
Ġk amer
sf ul
Ġover skriften
Ġkon sulenter
Ġman ip
ĠU g
ĠD TU
Ġover set
Ġjule frokost
Ġa vl
ant enne
Ġerstat tes
ĠHistor ien
al len
sp orter
skol ens
Ġoph Ã¸r
Ġmon tere
Ġpast a
ĠpÃ¥krÃ¦ vet
Ġpr agt
Ġhukomm else
v iv
Ġleje mÃ¥l
Ġfl yg
Ġs utter
ĠMod tager
mer ter
Ġgrad vist
ĠC PR
ĠNikol aj
ĠÃĺster bro
Ġsk ur
bud det
Ġgod kende
ĠOp bevar
ĠLang t
ĠC am
Ġ3 60
as on
sp syk
shospital et
Ġle get
m Ã¸d
Ġind greb
Ġbyr Ã¥d
ĠAf d
Ġis oler
Ġbet ydet
ak u
som kostninger
Ġ9 4
Ġkred slÃ¸b
Ġvis it
ĠFjern varme
g ri
den es
Ġpum pe
ĠkÃ¦mp ede
Ġoblig atorisk
ĠbestrÃ¦ b
Ġindi mellem
ĠkÃ¸r sels
Ġforh Ã¸j
ryk ning
Ġnyt tig
an ser
ĠtÃ¸m rer
Ã¦t ningen
Ġstruktur eret
ĠRej seg
skab erne
U den
Ãħ D
m eget
Ġfac ade
Ġinvolver ede
Ġopbe vare
Ġforne mme
Ġhen vist
sk Ã¦ring
f ran
M ine
Ġl omme
kl asses
Ġudn ytter
Ġdu kkede
sk asse
Ġr Ã¸get
ej se
Ġflit tigt
li ma
tim entet
yp ten
W eb
ĠD isk
Ġj ung
ĠS ant
web sites
Ġfjer nelse
B Ã¥de
Ġsti kke
Ġud land
ĠInter view
Ġfolkesk ole
oter api
ĠLÃ¸ kke
Ġgennems igtig
ĠbemÃ¦rk es
ĠS Ã¸b
Ġst reg
Ġvel holdt
Y N
Ġreg i
n atur
ri e
Ã¸ret Ã¸jer
fÃ¸r ste
Ġnatur ens
ĠS ur
Ġskru er
ĠFord el
il kÃ¥r
Ġmen es
Ġvidunder lig
ĠAL LE
ĠV aren
.... ..
Ġoblig atoriske
Ġd j
del else
Ġmilit Ã¦re
Ġfor r
Ġsm ykke
Ġl illa
ĠSy rien
vend ige
up s
ĠVil la
Mich elin
Ġbruger oplevelsen
ud set
Ġbl y
Ġtilbage betaling
ĠSyd djurs
** **
Ġber Ã¸rte
ĠBas is
Ġre form
ĠkÃ¦r ester
ris iko
ĠHand icap
ĠEnergimÃ¦rknings rapport
ĠFantas tisk
ĠI slam
Ġoversku elig
ĠENERGI EN
ik i
Ġrus sisk
Ġg ylden
Ġsk ove
ĠStud ie
Ġspecial ister
v ens
Ġudb ydes
F C
sk Ã¦de
be klÃ¦dning
n Ã¦vnet
ad fÃ¦rd
Ġfamil ies
ĠMen ighedsrÃ¥d
ĠfremhÃ¦ ve
ĠMinister iet
or der
gul v
Ġd ru
Ġs jÃ¦lland
Ġsk Ã¦ve
gra der
p ass
Ġst rip
Ġan mode
Ġford yb
Ġch arme
ĠSag snr
Ġer kende
Ġbetyd nings
orienter ede
ĠC ap
Ġsmil ende
Ġoli er
ryg ende
ĠubegrÃ¦n set
ĠSt ruer
Ġst Ã¦vner
Ġp ut
ĠB BR
Ġud ledning
vest lige
Ġunder skrevet
Ġover fÃ¸rsel
Ġmusik ere
o si
ĠSÃ¦r lige
til itet
ĠReg ler
: -)
I B
Ġere ktion
ĠK u
O W
ir d
Ġer ne
sb ranchen
Ġtyd elige
ĠT Ã¸r
Ġkompetence udvikling
Ġunder lag
Ġoffent lighed
ĠF est
konstru ktion
ĠS ony
Ã¦st inens
Ġbes varer
Ġbud t
ĠÃĺ resund
Ġmusik alske
Ġher sker
histor ien
p erne
Ġkl assetrin
Ġdu m
vÃ¦r ksted
Ġste j
Ġbetegn else
Ġhensyn tagen
Ġn att
ĠsÃ¦t ninger
riv at
Ġover sv
mail en
Ġudfl ugter
Ġaf prÃ¸v
f estival
ĠByg ningens
an sÃ¸g
j se
Ġm ess
ĠvÃ¦r ne
d d
Ġkomfort abel
Ġtema et
sam taler
Ġbog ens
skil te
k Ã¸
Ġefter tr
prÃ¦m ie
ĠI SO
Ġbl idt
Ġrabat kode
ĠindkÃ¸bskur v
h or
Ġsul ten
Ġt omm
ĠR eser
ord s
ĠEksempel vis
tag ning
E ks
ĠbrÃ¦nd t
klar ing
men teret
behand let
Ġkonkl uder
ĠH ent
Ġplat forme
Ġfabri ks
us ik
Ġkonkur s
k i
k erne
Ġskub be
Ġskj old
Ġafvik les
g ard
Ġb Ã¦kken
of a
Ġkomfort able
ĠR ud
u a
ĠR ek
Ġgodt gÃ¸relse
Ħ ¢
Ġh all
Ġdoll ars
Ġbag ved
Ġafsl Ã¸r
Ġfortr ins
Ġophold s
sprogra mmer
ĠE AT
oter apeut
k irt
Ġgra fisk
Ġbornholm ske
ĠN U
ju ster
Ġindsat somrÃ¥der
Ġcerti ficeret
Ġspecial iserede
Ġforhandling er
Ġu skyld
vir ker
te am
Ġan visninger
ĠG rÃ¥
Ġan sÃ¦tte
Ġinvest orer
h vid
s tik
Ã¸v n
ĠCh ristians
Ġgent agne
j akke
ĠMed arbejder
Ġkru kker
Ġuund vÃ¦r
Ġglob alt
uter ede
Â ©
Ġp re
dan ske
ĠFar ve
for anstaltninger
Ġmorm or
omm erne
Ġfast satte
Y D
Ġeks pl
s rÃ¥det
vid itet
ĠSp ildevand
Ġind skud
ĠBru un
Ġmennesk es
Ġudg jorde
Ġkv ik
Ġleder skab
ĠBel gien
v inde
ko den
Ġtv il
ĠskrÃ¦ddersy et
B D
ind komst
k ampe
Ġregn skabet
ĠMal m
plan lÃ¦gning
Ġm Ã¦t
Ġind Ã¦dt
produ ktet
B EK
Ġg Ã¸
untain b
Ġin tu
ej end
ations ret
Ġtilb ringe
Ġob jekt
Ġl ist
Ġanaly sen
ĠAl tid
Ġr uller
b ytte
Ġover holdes
Ġtr op
Ġbru tt
Ġband et
Ġb le
ĠP art
fÃ¦r en
ĠA kt
Ġbetal ingen
ĠS Ãĺ
S Ã¸
Ġkontroller et
ĠNet op
ĠPro f
v ivl
Ġkryd ser
Ġan tages
Uddann elses
al at
if i
Ġout fit
Ġdyr lÃ¦ge
Ġsk ild
slÃ¸s ninger
ip edia
Ġproced urer
val uer
END ELSE
ĠÃĨ rÃ¸
Ġstream ing
Ġattra ktioner
Ġop sam
Ġuden om
ĠDej ligt
Ġfrem trÃ¦
form et
Ġlang som
Ġhash klub
form id
Ġl ayout
ĠS i
Ġkug le
el isten
red es
fal dende
Ġarranger er
Ġd Ã¦m
ĠfÃ¦r d
styrr else
ĠmÃ¦nd s
hje mmet
comp uter
Ġhen over
esk ol
Ġdyb den
p olitiske
Ġstad igt
h egn
lig ht
Ġkomplet te
Ġdokumen teret
Ġdy kker
Ġ3 000
Ġhold bar
Ġat let
Ġmang len
Ġbevil ling
Ġr ib
Ġsommer huse
d ike
Ġunder skrift
Ġangiv eligt
Ġporn ografi
ĠRapp orten
ut her
b lo
ast ron
ELS ER
Ġudform et
ĠL O
Ġfly billetter
Ġstat ens
hÃ¦ng ere
sk an
ĠT je
Ġrob ot
ĠCont in
ĠSp Ã¸rgsmÃ¥let
ĠM ig
ĠpÃ¥ lagt
Ġsex liv
ĠkÃ¸ er
Ġfor ring
rat orer
ĠJ abra
ĠAl li
Ġnav igation
Ġbet jene
ĠmiljÃ¸ er
Ġkry stal
P ress
b Ã¦ks
Ġr Ã¸ver
Ġhind bÃ¦r
Ġgymnas tik
ĠS C
ĠAf snit
Ġv enne
Ġturner ing
Ġf yldig
Ġreser vedele
ĠF j
gÃ¸r elsens
mm ene
Ġred eg
ĠindgÃ¥ else
ĠDire kte
ĠRest aurant
ĠFakt a
ĠPen is
Ġun i
ĠG em
B en
Ġb it
ind retning
ĠKur sus
Ġrug brÃ¸d
Ġp ist
Ã¸ ft
Ġled es
Ġtredj edel
ĠlÃ¦ngere varende
ĠI kast
m Ã¥let
st ype
ĠSK AL
Ġhus stand
Ġudf ylder
ĠBre xit
Ġtilb Ã¸j
est edet
ĠtrÃ¦t hed
Ġpass agerer
sfor slag
Ġkl ud
h uller
Ġudbred te
Ġtilpas ning
Ġs Ã¸j
kan aler
ĠtrÃ¦ erne
al ens
ĠVi agra
ter s
Ġreger ings
ru der
ores til
Ġserver er
ĠVej ret
Ġteen ager
Ġbevar et
Ġuh ensigt
M E
fic erer
Ġev ig
Ġob jekter
Ã¸ sten
Ġkomp akt
Ġh opper
Ġnab ol
ĠG ruppe
B ornholm
Ġber Ã¸mt
P atient
ĠVirksom heder
Ġudfl ugt
ĠstrÃ¸ mmen
Ġind dragelse
Ġresul terer
Ġbal kon
sf uld
ĠRo ck
S ol
Ġfors vare
Ġfor me
l Ã¦rer
fÃ¸r ings
T P
Ġdeltag ende
Ġforg Ã¦ves
ffe ktiv
ygtning e
Ġk endes
trÃ¦ delse
Ġvi kar
sek Ã¸d
Ġform ularen
Ġligeg lad
B estil
ĠM anden
Ġind betaling
ĠSk y
ĠNyk redit
ĠlÃ¥ ner
ĠVi be
Ġkommenter er
s o
Ġrevi deret
ĠAss ens
ĠL ykke
Ġunder jord
Ġdeb atter
ĠE st
Ġgennemsnit tet
ĠAller Ã¸d
Ġst av
Ġp ant
Ġd vd
Ġu ventet
Ġfly der
Ġbev idste
f inder
Ġtilkn yttede
Ġis ra
ĠF M
ĠMÃ¸d ested
k ore
ĠS at
Ġkontakt person
ĠE valuering
Ġoverfl Ã¸d
cy kl
Ġass istent
ol ed
es lag
imod stÃ¥
yn dere
Ġuniversitet et
ĠE uro
sal deren
Ġsm ad
Ġind ber
Ġapp etit
ĠE ur
og as
ro ver
Ġanaly tiske
Ġsammenlig ner
Ġudn Ã¦vnt
br Ã¦nding
ĠF lex
ĠS oph
Ġat om
Ġl unge
spil d
ĠF rÃ¦k
Ġforpligt else
ĠH ard
Ġminer aler
Ġklo ge
Ġlang tid
fly t
Ġinden i
ĠmÃ¥ linger
ĠK op
Ġford Ã¸j
Ġfotograf ier
us alem
Ġang rebet
Ġhoved staden
Ġtrus sel
sk Ã¸n
T rÃ¦
ĠBruger vejledning
Ã¸v es
Ġm ord
histor iske
ĠG B
Ġkendet egn
ĠKl asse
Ġuover sku
Ġtu be
k ul
Ġungdoms uddannelse
Ġkon ger
ĠbrÃ¸d re
ĠSk Ã¸n
ĠnÃ¦r t
Ġeksist ens
sv in
eget Ã¸j
form at
f usion
tal en
h elm
Ġbidr aget
m it
a us
ĠD Ã¸d
ar etter
Ġcen timeter
Ġorganis atoriske
st et
Ġminister en
ĠT an
g s
sti der
PL AN
ĠO BS
Ġi hvertfald
ĠOp fÃ¸lgning
Ġdemokra tisk
Ġdemokra tiske
ĠS ejl
Ġomf at
in dens
yg ninger
ĠdrÃ¸ mt
b ere
Ġbeskadig et
aff el
Ġbegr undet
Ġr yn
Ġsyn der
ĠAf g
skab el
ĠbesvÃ¦r ligt
Ġudst rÃ¥
8 00
ĠS let
ĠE ver
ĠFisk er
ĠPro fil
ĠC H
Ġcirk el
ĠbemÃ¦rk elses
ĠBer n
ĠDer ved
Ġind klagede
styr ken
for ny
her red
ĠSt ad
Ġom trent
Ġab sor
Ġferie bolig
m y
: .
s ang
Ġindber ette
kat alog
Ġbes idder
Ġny beg
L ÃĨG
Ã¦r m
Ġan skaffe
ĠV ist
ĠD NA
ĠOm kring
Ġr ytter
ĠL en
ĠC afÃ©
Ġtr ang
t jenester
ĠU p
Ġsamt ykker
Ġsp oret
Ġind stilles
Ġfors inket
Ġborger nes
ĠF ru
ĠKong elige
un ker
arrange menter
ryd elser
ru tter
Ġinterview s
Ġophold stilladelse
ĠAd vokat
or erne
Ġerhvervs uddannelse
Ġk ede
ĠEnergimÃ¦rknings nummer
ĠP unkt
Ġgennem t
Ġman if
Ġhund red
w n
ĠmÃ¥l rettede
Ġp ak
Ġpressemeddel else
Ġgiv ne
Ñ ĭ
ĠA U
ĠLem vig
Ġintrodu ceret
ĠIn ger
Ġd eg
Ġu lige
Se e
s cen
ĠPortug al
Ġkur v
ĠEn tre
ĠH ed
ĠrÃ¸d vin
ĠJ ustit
Ġter r
ĠBemÃ¦rk ninger
Ġvigtig st
Ġgar age
Ġry kket
an mark
Ġproced ure
Ġkeram ik
ĠE vt
Ġn Ã¦gter
Ġleder en
tr Ã¦ner
ĠBornholm s
Ġus yn
Ġsej re
k Ã¸r
Pris en
Ġudsk ifte
ĠbeklÃ¦d ning
Ġod ds
t he
Ġwebshop s
m aling
ou ch
b ri
Ġm Ã¸lle
le mmet
ĠT ype
w in
Ġeksped ition
Ġj Ã¸der
Ġfry ser
Ġteam et
rÃ¥ den
for handling
til freds
b idrag
Ġjuster es
Ġlov ede
sf ag
Ġen tr
ĠnÃ¦st formand
Ġordre bekrÃ¦ftelse
Ġsl Ã¸j
ĠAd gang
Ġb ass
pr ins
over skri
Ġtrav le
Ġd iv
ĠF uresÃ¸
kn appen
ĠLej re
ĠInstitu tion
Ġdokument ar
ĠR eb
ĠDe fin
Ġfar lig
ĠlÃ¸n modtager
f jer
Ġu imodstÃ¥
amer ik
Ġmed dele
rÃ¸ mmen
Ã¦k re
Ġpartner websites
Ġlyn hurtig
H ot
hed e
F ar
ĠAn t
Ġret ro
Ġmuslim ske
ĠopkrÃ¦ ves
ĠBlog gen
Ġudveks le
Ġk ogn
in ere
ĠKomm er
Ġop vÃ¦kst
Ġmest re
Ġaut o
Ãħ rets
ĠPro ces
Ġforklar ede
ĠKen neth
Ġefter skole
Ġs yl
Ġmet oden
der es
Ġstri be
ytt elsen
ĠPrem ier
er gi
Ġpsyk ologi
S ocial
ĠF axe
Ġland mÃ¦nd
ĠF ik
ĠStyr elsen
c ont
ĠO ven
Ġmark ere
Ġfor rygende
Ġmoder n
Ġmat r
Ġ36 5
Ġb ringes
strÃ¦ k
Ġsex y
skrÃ¦ vende
in ationen
ak es
ĠS yg
Y L
valt ning
Ġs lemt
ĠF Ã¸d
ĠT og
Ġsk Ã¦rer
Ġmed fÃ¸lgende
ĠArk iv
produ ktionen
ĠvÃ¥g ne
Ġi sen
Ġgr ine
D M
kamp en
Ġfor Ã¸g
Ġhud pleje
C l
rÃ¦ kning
Ġforsv inde
B r
Ġfug l
ĠH J
art en
Ġbilled kunst
h ouse
G EN
Ġryg ning
hol denhed
Ġeksp lo
ing ton
oks et
ĠrÃ¥dgiver e
ĠÃ¦r lige
ĠW ar
ĠInd lÃ¦g
ĠlÃ¸g n
eg as
Ġan ser
fÃ¦rd igt
ĠNet vÃ¦rk
Ġbon de
ĠspÃ¦nd ings
Ġbeslut nings
li a
ĠÃ¸v re
Ġtil gÃ¥
Ġbe mÃ¦rke
Ġtilfreds stille
af gifter
ĠprÃ¦cis ion
Ġd rog
Ġo ste
ĠSov jet
ĠPris erne
S h
Ġbas ale
ras se
Ġarbejdsgiver e
Ġan sÃ¸ge
ĠP UNKT
Ġregn vand
Ġt Ã¦lle
Ã¥ ser
st rand
la y
ĠCec ilie
Ġaf viser
ĠMet al
ĠReg lerne
Ġkv m
Bolig ejere
ĠÃ¥nd ed
Ġvask et
Ġsk aden
giv nings
ĠFor bund
ĠN Ã¸rg
Ġfyld est
Ġm yr
ĠhÃ¦v der
byg gede
f iber
op gÃ¸relse
Ġnab ob
Ġb ik
Ġbort falder
Ġundervis ere
B u
ĠRapp ort
Ġindvend ig
ĠG ruppen
ĠTe en
Ġfl od
Ġvari ant
Ġforhand let
om isk
Ġro se
ĠL edelse
Ġsa una
k yst
Ġkontakt es
ĠsundhedsvÃ¦sen et
Ġkli ent
Ġsp am
Ġbek Ã¦mpelse
Ġprodu ktivitet
sb en
Ġfor lig
ĠhÃ¥r dere
Ġpriori terer
Ġkonsekvens erne
isol ering
ĠH innerup
ĠopkrÃ¦ vet
l ang
Ġl ind
Ġgi fte
uler ede
slin jer
Ġs Ã¦re
f ler
Ġaggress ivt
Ġbeg Ã¥
nings anlÃ¦g
ĠStock holm
Ġan onyme
Ġsammens Ã¦tte
Ġprem ier
ĠAD HD
Ġover holdt
ĠS AM
Ġsej ren
Ġn akke
ĠmÃ¸d el
Ġopvaske maskine
Ġ inge
Ġom gÃ¥ende
ĠP V
Ġele f
olog y
Ġtysk land
Ġover t
ti ca
has tighed
Ġbet egnes
Ġbl ank
ĠvÃ¦g ter
ĠD els
vir k
In formation
ĠGrÃ¸n ne
Ġbjerg ene
Ġforret ninger
Ġc ol
ĠGu ardi
p ap
Ġled ninger
Ġur ter
Ġind stiller
ĠmÃ¥l gruppen
Ġud mÃ¸n
ĠfÃ¦r dsels
ĠForebyg gelse
ĠdÃ¸dsf ald
T ube
stÃ¦nd ige
Ġdiagn osti
Ġfrem tidig
Ã¸rg slen
ĠuÃ¦nd ret
ĠS ej
ĠMar c
smod tagere
Ġdes per
Ġap oteket
Ġbus ser
Ġkommun alb
Ġend og
ĠÃ¸jeblikk eligt
Ġbos at
alt h
Ġp ink
Ġop erer
ĠAG F
Ġkolle ktiv
Ġulem per
Ġud spil
Ġbeh jÃ¦lp
b akken
gr Ã¸n
alis tik
or f
Ġind gik
Ġsymb oler
Ġr ou
st res
Ġvaske maskine
Ġudfor drer
Ġle gen
Ã¦n ken
et iske
Ġskole Ã¥r
ĠÃ¸delÃ¦g ger
bevid ste
ĠR esten
ĠHel lig
pr og
ĠstrÃ¸m per
Ġom d
Ġhvor imod
ĠEl is
ĠTil lykke
al let
Ġsn ed
ĠF rit
For um
Ġkat ten
Ġej es
Ġmanu skri
spro cent
kk o
ĠM ol
eller ne
ã Ģ
ic er
Ġned sÃ¦tte
ĠbrÃ¦nd te
sh je
F ri
ĠS ara
ĠKong ens
: :
â Ħ¢
ild ing
fic eres
ĠtÃ¦n kning
ĠFl ensborg
ĠCyk elt
ĠC at
Ġvarier ende
Ġsu ppe
ĠA S
Ġsyn ligt
ĠS jÃ¦l
Ġom gange
Ġliv lig
Ġarbejdsplads vurdering
ly se
version er
And re
b re
Ġspr Ã¦ng
4 00
del te
RE G
Ġbetegn elsen
ĠL ove
Ġ: -
ĠD y
or iserede
Ġgarder obe
Ġteknolog ien
ĠvÃ¦r ter
ĠðŁĺ Ģ
Ġ198 9
ga den
ĠVed tÃ¦gter
Ġrum Ã¦n
Ġeksempl arer
Ġd rys
o kken
Ġ ï
ĠT usind
Ġpartner skab
syn ets
ĠhÃ¥nd tag
ĠMarg rethe
Ġaf f
f lader
Ġph p
red egÃ¸relse
Ġbam ser
am enter
Ġfordel es
Ġgry den
Ġh op
ĠHal v
Ġ19 20
Ġpriori tere
post en
Ġklar et
Ġka os
ĠtiltrÃ¦ kker
H oved
G rund
ĠhÃ¥nd vÃ¦rks
c ol
ĠL otte
ĠT Ã¥rn
Ġu bes
ĠS un
vind ing
Ġx x
ĠN ORD
Ġl aser
Ġkli enter
Ġindvend ige
st yper
Ġor al
op lÃ¦g
ĠmiljÃ¸god kendelse
Ġteoret iske
godt gÃ¸relse
Ġbek endte
ig ter
skomm un
Ġafslut ningen
sprÃ¸ ve
w aren
havn en
Ġ4 99
sk Ã¦l
ĠA ften
Ġkvind elig
ĠkrÃ¦ vet
Ġbesvar elser
Ġr ive
uler ende
skÃ¦r me
D it
ĠAn ti
H ele
ĠB ul
Ġarbejdsgiver en
teg ning
ĠVis ion
Ġomfang et
Ġann uller
Ġmark en
Ġt Ã¸s
sp ej
sv ilkÃ¥r
ĠforsÃ¸g et
Ind lÃ¦g
f lo
ra c
ĠH it
prÃ¦ get
Ġsej e
Ġkl Ã¦d
ĠBl uetooth
ĠhÃ¸j ttaler
Ġplig ter
ĠLov grundlag
ĠKat rine
M EN
Ġforb ruget
Ġdel ikat
Ã¸n nen
Ġresul tere
Ġob jektiv
Ġlu ks
ug ten
Ġm Ã¸l
ĠBÃ¸rne huset
Ġsol celle
Ġgymnas iale
Ġdi am
Ġforplig ter
m ors
sb achelor
ĠA kti
Ġintellig ens
Ġborger lige
Ġudtrykk eligt
Ġg ed
Ġre ad
ĠtÃ¥r n
t z
Ġind ivider
k abel
Ġrecep tion
var met
kl ass
sfor mer
ĠpÃ¥ bud
ĠF ak
Ġkun ders
on der
stit utter
ĠindgÃ¥ ende
Ġfrav Ã¦lge
ĠF RA
Ġlandsby en
ĠFin ansi
Ġkirk ens
Ġvurder inger
ĠforÃ¥rs ager
mm elighed
Ġspeciall Ã¦ge
Ġsu ge
Ġb isk
Ġp utte
Ġblods ukker
Ġvider es
fÃ¸l je
K apital
ĠgÃ¥ tur
stil stand
Ġass oci
irur gi
AL G
ĠÃ¥b ningen
Ġforestil lingen
N P
Ã¦ ske
Ġsel vejende
Ġmed itation
el let
Ġvaret ages
Ġf aser
m s
Ġfin ish
ĠfortÃ¦l lingen
over fÃ¸rsel
Ġtest s
Ġpyn te
C enter
Ġro sen
ĠfornÃ¸j elsen
Ġfattig dom
Ġrek ruttering
Ġfin alen
ĠkÃ¸b ere
H Ã¥nd
ald o
Ġbev ist
ĠtÃ¸ mmer
ib et
Ġne ur
esp iller
ĠHÃ¸j de
ĠCarl sberg
sk ere
esk ift
i rit
ĠbÃ¦r bare
ĠAP V
L AND
sh ow
ĠB Ã¸g
ĠBil lede
kv enser
g av
Ġt oler
ĠArbejds giver
Ġkri sten
Ġadvar sel
Ġbe mÃ¦rkning
Ġafslut tede
kli p
Under visning
fat ning
om ener
Ġ19 36
ĠN ote
Ġeg o
Ġeksp lic
Ġhjemmel avede
Ġe min
Ġvarem Ã¦rke
v Ã¦v
Ġide elt
ate x
ĠBet aling
ĠD ronning
S port
sn Ã¦s
Ġfor fri
Ġ199 1
Ġover vÃ¦gt
ĠTid s
Til bage
Ġmi rak
ĠgrÃ¦ sp
tal ende
Ġbetyd elige
Ġl ommer
Ġudvid es
Ġstra ffe
ĠbelÃ¦g ning
ste mp
ED E
ĠforeslÃ¥ s
Ġbl ack
u h
Ã¸j te
m asse
Ġopg jort
Ġshop pe
Po int
ĠVil kÃ¥r
k irke
ĠspÃ¸rgsmÃ¥l ene
ÃĨ K
Ġfrav Ã¦lger
ĠT uren
ĠÂ§ Â§
red aktÃ¸r
ĠEx cel
l avet
m Ã¥ned
Ġbar en
!! !!
ĠL yn
vÃ¦r ge
ĠstrÃ¥ ler
k y
po ser
ĠÃī n
Ġfast elavn
ov s
Ġb Ã¥ret
Ġdu ften
gam le
Ġkur ve
ik op
sb Ã¥nd
ĠSam sÃ¸
m ur
ĠVester bro
Ġtal rige
i ff
Ġ9 1
Ġmed tage
ner et
Ġsvar ene
ĠH Ã¦ld
Ġher iblandt
Ġsej lads
Ġvansk elige
ĠN E
hus ets
h ost
s gebyr
ĠBel la
ĠskÃ¦r es
ĠvilkÃ¥r ene
Ġner ve
Ġdi esel
Ġudb ed
rem Ã¥l
L IG
an ium
Ġtj ent
ĠA z
ĠFl ot
ĠBil lig
tem peratur
se jer
Ġmar gin
Ð ¼
Ġel end
ind tÃ¦gter
ĠUd vid
Ġkn aller
spe ktiv
Ġtry l
m ager
Ġst ater
Ġven nerne
ĠJer usalem
Ġbac on
ĠN B
Ġmellem tiden
ĠTil behÃ¸r
Ġgr iner
led erne
Ġmag isk
ĠAr tikler
Ġfor udsig
Ġud Ã¸ver
ĠN ike
Ġkok os
N ELSE
Ġbl ander
Ġkrig s
ma j
Ġder inde
Ġby erne
ron ten
Ġund rer
Ġund lade
ĠdÃ¦ mp
ul a
Ġlo y
Ġdu fte
ĠÃ¸ mme
Ġi kk
jen te
ĠUnder visningen
ĠkvÃ¦l stof
ĠN ap
Ġkort var
Ġl ander
ĠBÃ¸ger ne
Ġret fÃ¦rdighed
ĠtrÃ¥d lÃ¸s
Ġtoilet ter
Ġb re
ner en
Ġd rak
Ġrehabili tering
Ġkrop pe
ĠpÃ¥ stÃ¥
Ġu be
ĠV oksen
og a
Ġund tagen
Ġan melde
Ġak us
ĠPerson ale
Ġag ent
Ġfe ber
ĠsÃ¸rg et
Ġi h
ĠmÃ¦rk elige
Ġs qu
Ġr ar
ĠGrund lÃ¦ggende
dan ner
Ġmennesk elig
ĠK ON
Ġigang vÃ¦rende
j unktur
Ġformel le
sprog et
Ġer gon
brow ser
ĠStra tegi
fÃ¦lles skab
ĠI M
Ġgig an
ĠSt orm
Ġbar ber
f arts
ĠF od
Ġp ikken
Ġaf rej
ĠVel komst
Ġaf tes
Ġsk Ã¦l
Ġenergi bespar
Ġfakt ur
A pp
Ġteen age
Ġbal ancen
Ġbestyrelses medlemmer
Ã¦ftig else
Ġindberet ning
skol erne
Ġteg l
ĠT iden
Ġrom aner
Ġfuld tids
ryd es
in as
m erne
v amp
Ġunder vise
Ġrust frit
f Ã¦ld
Ã¤ r
Ġposi tioner
Ġreg len
Ġkrimin elle
Ġb ist
Ġhv alp
em Ã¦ssige
ll u
Ġsuppler et
f aget
m ose
kk a
esk op
ĠKur t
meld te
Ġbro ch
Ġbal lade
Ġfamil iel
Ġsp Ã¸g
ite ktur
Sikkerheds datablad
ĠG a
Â« :
Ġjap ansk
ĠBolig selskab
Ġg Ã¦ng
under visningen
d h
Ġper formance
Ġr under
Ġs ab
Ġford ob
ing o
Ġkines isk
Ġan sigter
Ġf onde
Ġt akker
ĠV id
ĠAf gÃ¸relse
Ġvidenskab eligt
ĠK lagen
Ġspis esteder
ĠprÃ¦st ationer
ĠM asser
Ġ17 00
Hjemmes iden
Ġenerg ik
sk y
forb undet
ĠÃ¸k ologi
ĠG rÃ¦n
ny heder
arrange ment
Ġved lagte
Ġf ru
Ġig Ã¥r
for pligt
Ġmass iv
ĠHar ald
ĠJ agt
Ġ1 Â½
O ST
Ġp uder
qu es
kl ager
Ġfors Ã¸rg
lad te
mad ras
Ġ ....
Ġfor p
Ġpersondat apolitik
Ġpil ot
Ġh elvede
ĠsÃ¸g ninger
Ġtom ater
te x
ĠkÃ¦mp et
ĠB ab
Ġabsolut te
Ã¥r den
kl Ã¦r
ĠvÃ¦r kstedet
n it
Ġover komm
opg aven
ESK RIV
Ġintellig ent
c itet
Ġr inget
Ġsk Ã¦g
Ġleverand Ã¸ren
ĠjÃ¦vn t
anis me
in Ã¦r
Ġhum oris
Ġch ampagne
Ġkolle gi
ĠU C
middel bart
kend elsen
Ġaflever es
ul ator
agt ede
ĠOrg an
ĠEro tisk
ĠSp are
Ġbad minton
ĠL Ã¦kker
Ġforsk erne
... âĢĿ
" -
ER ET
Ġkr isen
F in
ĠS D
Ġeg nede
Ġfol de
IN E
ĠGr unden
Ġmobil telefoner
V en
Ġkir sebÃ¦r
Ġfrygt elig
ĠKom b
ĠvÃ¦rdipapir er
L Ã¸rdag
ĠLed elses
Ġspecial ist
Ġfuck ing
ĠAr tikel
ĠN ot
Ġapp lik
ĠÃ¸st lige
Ġvision er
kj Ã¦r
ĠEjend ommen
kammer ater
ĠBirg itte
Ġkammer at
ter t
Ġdiskussion er
ĠMan agement
ĠNicol ai
Ġefter komm
Ġj omfru
ti tu
ĠB ond
Ġvurder ede
s holder
Ġ19 30
fik ator
Ġregistrer ings
Ġlandsby er
s Ã¦sonen
Ġmed deles
Ġd rÃ¦n
Ġi b
Ġca se
Ġhav es
ĠprÃ¸ ves
ĠIn fo
Ġekskl usivt
Ġi di
ian a
Ġ4 000
omm es
firma er
ĠHT ML
Ġsan ser
Ġkontrakt en
Ġoli en
Ġtry kket
ĠAR BEJ
k irk
Ġl ab
Ġparkering splads
ĠTil melding
ĠChristian sen
God t
Ġop sÃ¦tte
Ġpapir et
Te kn
z o
ĠEng elsk
Ġg rebet
sor ies
b oksen
st ing
Ġu rim
Ġra mmes
Ġgri ber
sprog ede
Ġbrowser en
Ġkonstru eret
Ġ2 20
ĠvÃ¦g gene
Ġu an
ĠSk ab
ĠBl ue
Ġrejse mÃ¥l
Ġark iver
irma et
Ġtil sÃ¦ttes
ĠSyd dansk
Ġen lige
ĠjÃ¸d iske
ĠFor Ã¥r
b ringer
ken dende
olig ende
h erefter
Ġa mme
ug o
Ġmedvir ker
Ã °
Ġappels in
ders lev
eg ninger
Ġfornu ftige
n ok
N Ã¸g
Ġud fÃ¸rte
Ġops ige
Ġover vÃ¦g
Ġ12 00
st Ã¸r
Ġbe varer
bek Ã¦mpelse
Ġop givet
it en
Ġind fÃ¸rer
al drende
c ookies
ÃĨ T
ĠFri tid
Ġmark erer
Ġvin tage
Ġforsk riften
Ġa jour
ĠsÃ¦dvan lig
fre mme
C yk
ĠDB U
ĠHjemmes iden
Ġin ventar
k Ã¦de
F reder
ĠH om
ĠKomment arer
lever and
H elt
Ġfrem lagt
lu f
ĠSk i
Ġp ege
ĠÃ¸ m
Ġprot okol
Ġind sende
sv alg
IV E
d okument
ĠB elig
ĠB ach
byg ninger
par ret
Ġydm yg
Ġhvil er
sp is
m useum
M and
ent al
ĠHistor ie
m il
Ġudf yldt
ĠHob ro
Ġspr Ã¸de
ĠLu x
b ende
ĠV inder
Ġferie boliger
Ã ī
Ġk ikker
ĠtillÃ¦g ges
Ġkommuneplan tillÃ¦g
Ġfer iel
Ġv ha
og ed
ĠlÃ¦r eren
Ġhjemmes idens
Ġkarakter istiske
Ġv ane
kk ed
Ġtje kket
Ġinvolver er
ĠFor hold
Ġdetaljer ede
Ġnu mmeret
lan ger
Ġnord jylland
Ġin time
Ġmag iske
k varter
Ġsod avand
Ġkommun alt
Ġkl aver
ĠindkÃ¸b er
Ġbek vem
ĠbÃ¸rne bÃ¸rn
c ke
Ġs we
ĠFor Ã¦l
Ġtal es
Ġsol celler
ĠS em
D EN
M on
Ġtank egang
st atistik
for skel
Ġeks otiske
ĠM ission
Ã¦ng der
Ġslu kke
ÃĨ ND
Ar k
L A
Ġvigtig heden
Ġrele vans
Ġat t
ĠAft alen
ĠKomp etence
ĠR F
ĠkÃ¸b mand
ĠMikk elsen
ok lub
Ġp ier
var sel
ĠsÃ¥ gar
Ġh yld
ĠNok ia
C ar
k Ã¦l
ĠC aliforn
d elsen
ti ks
ĠL iber
Ġoffici el
Ġhent ede
F amil
Ġvar ede
ĠL ib
kl asser
h at
Ã¦nd ingen
ĠF jer
ar ia
Ġvil lige
ĠK B
Ġbrug sbetingelser
s and
k ysten
Ġsove vÃ¦relser
Ġsil ikone
ĠfÃ¸rste klasses
met al
Ġeksperi mentere
ved tÃ¦gt
Ãĺ N
Ã¸ ler
Ġop holder
Ġnysger rige
b Ã¸j
S V
Ġma ske
Ġd yn
Ġk Ã¥r
Ġt ester
Ġpla den
Ġsti kkont
op timering
Ġbehandling s
sam linger
ĠProdu ktet
ĠM C
sl Ã¦t
eliv et
ĠTer min
sb olig
Ġinvester er
e ffekt
Ġord net
Ġr uter
ĠL esb
End nu
Ġsolsk ins
Ġsand wich
Ġfang st
c s
Ġaktiver es
ĠO pr
Ġl ommen
rid ge
inci pper
Ġfrem stÃ¥
Ġhus leje
Ġskel ne
Ġth at
hand els
Ġkoncent reret
Ġbl Ã¦st
klÃ¦d te
sp olitikken
em arked
Ġs ele
ĠC la
re k
Ġfl Ã¦
v ille
ĠfÃ¸l tes
Ġsu re
Ġtilslut te
Ġman dens
ĠV e
ss ede
Ġd ykke
ĠlÃ¥ s
ĠMob ile
lin es
ĠFrederik sen
ĠHen riksen
ĠDI Y
D ine
âĢ¦ )
Ġmo untainb
Ġdefin ere
yn Ã¦k
Ġ tig
obb elte
Ġbur ger
ĠstÃ¸d t
s ne
St ud
Ġm ic
f asen
itu ation
sm ark
Ġdram atisk
K vinder
Ġbud skabet
j ournal
ĠSen este
k Ã¸rende
p ed
alet id
shistor ie
Ġpal Ã¦stinens
Ġsl ave
Ġinge fÃ¦r
Ġmis ly
t elig
ĠBe hov
ĠH on
Ġh ale
Ġle asing
ĠP u
Ġord bog
Ġsm al
K r
Ġre kre
Ġcamping pladsen
Ġst al
Ġp ikke
Ġfleksib elt
Ġskuespil lere
Ġskole Ã¥ret
ĠS Ã¸lv
Ġtil vÃ¦relsen
inger i
o tion
ĠmÃ¥l ene
ĠInden rig
sÃ¸g t
out h
ĠKl ager
Ġop m
Sp Ã¸rgsmÃ¥l
frug t
Ġpass et
Ġudf olde
ug le
ĠÃ¥ben bar
Ġsupp lere
P olitik
D V
sÃ¸g te
Ġh r
Ġsn ap
Ġfry se
Ġre ferencer
var i
Ġsk em
Ġv ognen
spro ced
Ġled ning
Ġhav re
kl Ã¦dt
ĠprÃ¸ ven
ĠbegrÃ¦n ser
ĠM eg
Ġbestyrelses mÃ¸de
ĠskÃ¸n neste
Ġindt jening
Ġpatient ens
Ġred nings
Ġejer skab
ĠSan kt
Ġsu ger
Ġudtry kket
ĠRumÃ¦n ien
ĠpÃ¦dagog ik
ĠpÃ¥ tager
J ob
es und
beret tiget
Ġm assive
Ġindk aldt
Ġpl ug
Ġeksper iment
Ġdo ser
m g
Ġind se
ĠhÃ¸ f
b id
Ġan bragt
Ġkopi ere
Ġmed fÃ¸rt
iser ende
ĠhjÃ¸r ner
fin alen
Ġadminist rere
ĠKon klusion
produ cent
ĠD IG
Ġjule gaver
ĠBras ilien
r erne
an cere
kkes Ã¦t
Ġunder vist
Ġnor sk
Ġrenover et
Ġreserver et
Gra tis
Ġanti bio
Ġf Ã¦st
Ġstil arter
Ġoverbe visning
ĠD Ã©t
Ġgli der
G A
Ġfreder iks
ĠAdminist ration
Ġud brud
sk r
ĠkÃ¸ ler
ĠOver ordnet
ĠSmu kke
Ġopf undet
Ġopf ind
] ,
Ġkar am
Ġarbejd st
hav ende
taj n
Ġi Ã¸vrigt
Ġl iker
ĠHer ved
Ġg yldigt
Ġfag forening
Ġkons istens
st jerne
h ts
ĠG EN
Ġnemm este
ĠE ND
Ġop fÃ¸rsel
ly mp
ĠG i
ide oer
Ġud brede
ensk omst
sl Ã¸g
Ġudg ive
Ġprot est
Ġunderjord iske
Ġkr one
ann i
Ġf anen
Ġvi borg
Ġge ografisk
radi o
An sÃ¸g
Ġudn yttet
Ġefter t
j ere
Ġsh orts
Ġdimension er
n ord
ĠD C
ĠFor side
Ġom stÃ¦ndighed
Ġtilsku ere
EM BER
Ġgulv varme
ĠBe ach
Ã¸ mmet
Ġmed taget
Ġbru se
i derne
ĠbÃ¸l ge
Ġudskift es
ĠLe if
denti fikator
R ET
Ġmedarbejder nes
V and
ul v
Ġrumm elige
u rat
Besk rivelse
ĠvÃ¥g nede
ov a
es si
ĠforÃ¦ld ede
ĠDan kort
Ġmotor vej
sk Ã¸nne
Ġmik rob
Ġop gÃ¸res
Ġadskil t
cer ti
ĠSt rÃ¸m
Ġvirk ninger
ĠHjer te
Ġb Ã¥
Ġform ater
Ġuddann ede
Ġtils agn
yl es
ĠDen gang
Ġudsend elser
de p
ĠEr far
sd al
Ġbro en
Ġslag ter
sl Ã¥r
ĠN eder
st Ã¸rste
i Ã¸rer
i elle
R ING
H S
J ensen
Ġturner inger
ĠWilli am
ĠN otat
ĠpÃ¥ lÃ¦gges
Ġmand ler
tag ne
Ġudtry ks
Ġbom be
Ġillust rationer
H A
u mmen
Ġrej set
ĠVest sjÃ¦lland
se e
sbil leder
ĠG ive
ĠG ust
el ling
overskri dende
Ġanal sex
Ġbred den
oft ware
ESKRIV ELSE
M I
rÃ¦ g
Ġvidenskab elig
Ġop timer
ĠNÃ¸g en
Ġbes at
Ġdatab eskyttelses
Ġr ot
ĠG iver
ĠNy hedsbrev
ak ademi
Form Ã¥let
ĠsÃ¸ger esult
Ġsom mers
ĠUndersÃ¸g else
ĠSammen hÃ¦ng
Ġb h
Ġdifferen ti
Ġarbej dere
ti dende
Ġse mi
Ġk ik
Ġhid tidige
sprojekt et
ul ip
ĠYou Tube
Til lÃ¦g
Ġmodtag ere
Ġtru et
od el
ej eri
Ġbar er
ĠhÃ¸r ingssvar
Ġtilrettel agt
Ġc lub
Ġuh yre
skab else
bevÃ¦g else
ur sland
ĠdÃ© n
ĠUdenrig sministeriet
Ġu almind
6 00
on o
Ã¶ n
L ej
Ġak utte
til stand
slÃ¸s ning
ĠStat s
ĠPr iser
Ġsyge huset
ĠProdu kti
jer nen
âĢĿ -
he im
ĠG Ã¦st
Ġblog ge
skonsul ent
Ġsk eden
i fik
Ġud drag
ere formen
Ġafsk aff
adem iet
Ġbi ologiske
Ġny des
Ġid yl
EM A
Ġryd det
Ġvib rator
Ġud lÃ¸sning
ĠS alt
Ġm un
Ġkan on
grÃ¦n sen
ĠO ld
ĠK Ã¦mpe
om ne
ot os
v aske
forhold et
ĠTi me
ĠD k
hed ens
ĠL Ã¥
Ġfej ler
Ġpul s
miljÃ¸ et
ĠlÃ¸n modtagere
Ġvink ler
b lev
Ġleverings tiden
osit um
ĠProdukti dentifikator
red skab
ud gave
ĠAc cepter
ĠkÃ¸benhavn ske
Ġh imm
Ġh Ã¸n
g ymnas
ĠK olle
Ġud Ã¸ve
F Ãĺ
Er hverv
st ue
ĠrÃ¸r t
Ġundskyld ning
Ġstolt hed
B y
k ol
ĠSer ver
ĠA mer
fj orden
Ġudtal te
ĠWh ite
ĠJohan sen
Ġg re
ĠÃ¸r ken
ĠL ight
smer ter
ĠB land
le ar
Ġs Ã¥ret
ĠE V
p atienter
g jorte
Ġmotor vejen
Ġfuldk ommen
n avnet
Ġkun stig
Ġmet ers
egn else
Ġforsik ringer
es ikring
ĠHÃ¸j skole
ĠnÃ¦r hed
Ġpas ning
ĠskÃ¸n nes
ĠbÃ¦r ende
ĠDort he
OL IT
lever andÃ¸r
ful ness
ĠI llust
ĠFri is
ĠVi a
ĠÃ¸ ster
ir o
ĠD AB
Ġkommentar erne
Ù ħ
v Ã¥gning
or v
f ace
Ġb jÃ¦l
Ġond skab
u ste
Ġ å
Ġoversku eligt
Ġpress ede
Ġti men
Ġflot teste
Ġspej le
pro fession
Ġforesl Ã¥et
k Ã¦re
ĠSt reet
Arbej ds
Ġfor uds
Ġmilli ard
ĠIr land
Ġroman tiske
ftig t
pris erne
ĠB irk
ĠBe vÃ¦g
Ġoversk ue
Ġgu ides
Ġtil deles
Ġsam rÃ¥d
Ġt rÃ¥de
ĠM EG
j an
tighed erne
ul in
Ġnatur videnskab
ĠvÃ¦r elserne
L Ã¦g
M ang
Ġp ude
ĠK yst
Ġbet jent
Ġle ktioner
ĠHer fra
ĠSport s
ĠSen est
rÃ¦n ger
ĠarbejdslÃ¸s hed
Ġaf tag
L AD
ĠL EG
Ġtis se
ĠSp is
Ġsmil er
ĠB ibli
Ġkoncer n
s ort
elt oft
Ġment al
Ð ´
ĠSp Ã¸rgeskema
k art
Ġlin ie
ĠhÃ¸j der
meld inger
Ġrid ser
Ġhjem lÃ¸se
Ġpres ser
ind kÃ¸b
ay a
", "
ĠlÃ¦ kr
os h
forb ed
op r
ut s
Ġresp ons
ĠC R
ĠR h
ĠreprÃ¦sentantskab smÃ¸de
y o
Ġf it
Ã¦ng ere
beste mmelse
Ġenkelt es
il t
ĠundersÃ¸g elses
Ġapp likationer
Ġkont oen
Ġekst reme
Ġred egÃ¸r
ĠLand s
ĠD re
udbyder e
brog ade
plant ning
in ar
ĠGrÃ¸n lands
Ġlok alet
Ġgraf iske
ĠL ab
Ġvask es
situ ation
Ġh Ã¦m
Ġass istance
R EN
Ġb inder
Ġkvali ficerede
ĠV ild
Ġafsl Ã¸ret
stÃ¸ t
install ationer
Ġet ape
ĠK Ã¸r
ĠD AG
ri sten
Ġkort lÃ¦gning
g rÃ¦s
ĠIn v
Ġc asinoer
7 00
Ġsemin ar
ĠJ ane
ĠC ru
ski be
Ġover lever
Ġalsid ige
K omp
Ġdat oen
Ġhverdag ens
Ġbevar es
Ġhyg ger
Ġejend ommens
ĠJ en
V el
Ġka ffen
ĠDej lig
Ġud el
aranti fonden
Ġindbyg ger
Ġkaj ak
U nd
br un
Ġforsy ning
Ġor dres
Ġtillid sreprÃ¦sent
in kl
Ġmont age
ĠC asper
ĠD rikke
ĠK R
Ġopg ive
ĠAlex ander
G e
G O
ĠFan Ã¸
ĠVÃ¦r elset
ĠUl la
om as
Ġhy per
Ġt asken
ĠPrÃ¦ st
G Ã¸r
Ġaktivitet erne
ĠL or
ĠtÃ¥ ler
Ġsupp le
Ġkan in
Ġt es
sm aterialet
Ġpart s
ĠV EL
t elses
ĠM ass
/ -
Ġinfe ktioner
ov et
i ers
Ġsalg svurdering
Ġfl Ã¸d
Ġwebsi de
Ġeksist ere
ĠSu pp
Ġafsk edig
Ġhurtig ste
pum pe
Ġd rik
Ġegen skab
otenti ale
ĠtrÃ¦ng te
Ġklin ikker
sbil lede
Ġ Ã¸ret
ri ts
ill on
ĠDer nÃ¦st
ĠSte vn
sh Ã¥nd
ĠBM W
Ġ19 40
ĠÃ¥rs tid
St or
ĠS ign
ĠAn sÃ¸ger
ĠJose f
ĠForsk nings
inspe ktÃ¸r
Ġz one
ĠForm anden
ĠsÃ¦rdeles hed
Ġkunstner isk
ĠC er
ĠstrÃ¦ ber
ĠSt ine
ĠSÃ¸ ften
Ġdest inationer
Ġsyn spunkt
Ġpo ser
Ġinstru ktÃ¸rer
heds undersÃ¸gelse
Ġant yder
st jenesten
Ġet iske
v at
est ole
Ġkompens ation
smed lem
ist enter
Ġfores log
Ġsk ive
Ġsv igt
d it
ĠDag tilbud
ug ning
ĠWord Press
ry ks
at es
Ġfyldest gÃ¸rende
in ker
Ġoverrask elser
il lo
Ġaf spil
ĠJ Ã¦ger
ĠColle ge
ĠNor dens
ĠindgÃ¥ s
til fÃ¦lde
Ġhal len
Ġund tagelser
Ã¦nk es
Ġpr ogn
ĠvÃ¦l dig
Ġbetrag tet
ĠDer imod
Ġbl ink
behandling en
ĠnÃ¦rings stoffer
Ġinde holdende
ĠK rog
Ġdan ser
Ġkonkurr enter
ĠPen ge
st an
ĠU U
ĠdrÃ¦b te
Ġsam spillet
Ġoph Ã¸rer
Ġchauff Ã¸r
speci al
ind stilling
ĠIn teres
Ġbefolk nings
Ġbe mÃ¦rker
T ÃĨG
log oet
Ġvandt Ã¦t
Ġmo tivet
ĠÃ¥nd elige
v ing
Ġt ommer
ĠSuperlig aen
Ġt yr
Ġpublik ation
Ġafb al
KKER HED
omm y
Ġst Ã¦vnet
Ġfr iluft
Ġad ap
ĠEn ten
u f
ĠDAN SK
Ġfysioter apeut
Ġl itra
ĀĀĀĀĀĀĀĀĀĀĀĀĀĀĀĀ ĀĀĀĀĀĀĀĀĀĀĀĀĀĀĀĀ
ĠU kra
Ġenerg is
Ġil ds
S H
r iller
Ġs aft
Ġsyge huse
ĠÃ¸jeblikk elig
Ġstra mt
rom an
Ġsor tere
Ġskandinav iske
ĠL il
ik ale
Ġdel eg
Ġaspe kt
Ġrom anen
ĠÃ¥rhund reder
C o
h Ã¸rende
ĠH U
Ġhom o
tid spunkt
Ġaf standen
Ġover skrift
Ġbu ske
) )
sb estyrelsen
je ct
l ow
Ġk ore
Ġf lex
Ġbedste forÃ¦ldre
Ġalli ance
vent ede
L Ã¦kkert
Ġopbe varer
histor isk
ĠAM U
ĠforÃ¦ldr enes
Ġop fÃ¸res
iti me
Ġk it
ĠL Ã¦ngde
Ġl opp
ĠRen gÃ¸ring
ĠHol ger
Ġinteressen ter
Ġh ede
ĠM unk
ĠPl udselig
Ġordin Ã¦r
Ġkri m
ĠH ede
ĠNatur styrelsen
ĠMath ias
ĠMed ie
Ġfor ur
ĠPerson er
ĠvÃ¥ dt
Ġair condition
Ġrejse bureau
Ġbek ost
RA M
ter ierne
Ġuen ig
Ġju ice
b Ã¦lt
vi a
ĠfremtrÃ¦ dende
r Ã¸jer
Ġkonfirm ation
ĠS ind
Ġkoncer ten
ĠOr det
Ġsav net
h s
for urening
Ġimplementer e
ĠStat sforvaltningen
Ġy pper
ic an
Ġapp en
Ġskr ald
Ġt arm
Ã¦ pper
g jorde
ST E
mu sk
Ġbeh ol
Ġstuder endes
B yg
ĠtilfÃ¸j es
Ġappar at
m ont
ĠPerson lig
Ġeffe ktivis
Ġrabat koder
ĠVÃ¦r elserne
Ġsang en
Ġefter syn
ĠSkandinav ien
âĢ¦ ..
ĠprÃ¦ sten
Ġnav igere
El ler
Ġsk ynd
ĠHav ne
atur er
fel dt
ĠD ynam
Ġudbred else
L og
Ġf anden
Ġfordel ene
sm Ã¸n
Ġefter retning
ot an
Ġrel ativ
ĠhÃ¸r es
Ġg Ã¦tte
Ġvirksomheder nes
Ġpat ent
ĠS lÃ¥
Ġkri mi
ĠÃ¦r mer
sprogra mmet
ĠlÃ¥ st
vÃ¦sen et
Ġc elle
ĠopmÃ¦rksom heden
Ġm yt
in em
Ġh ytte
ed skabs
Ġdu mme
D ag
fl Ã¸jen
ĠMort ensen
n Ã¸r
Ġfor side
her under
Ġforb inde
Ġstren ge
Ġbesk idt
Ġspr Ã¸d
ĠAfg han
ĠS et
Ġ- --------
ĠPÃ¦dagog isk
Ġmen igheds
Ġelektri citet
finansi ering
sk a
Ġeks amin
Ġ19 45
Ġh ospitaler
Ġform ulering
an non
ĠÃ¥rs regnskabet
Reg ion
ĠJakob sen
Ġmen ighedsrÃ¥d
ĠVi etn
Ġle gende
Ġsti r
P ER
Ġreserv ation
Ġsat se
Ġf irm
F F
Ã¥ ds
Ġid Ã¸mt
Ġcamping pladser
O GI
ĠS ogne
b ent
ĠAf hÃ¦ng
Ġligeg yl
ĠH ill
ser ier
Ġf ros
Ġarkitekt on
T a
Ġtredje parts
Ġsc reening
Ġtrans fer
PrÃ¸ v
S ch
Ġbli kket
Ġst ationen
Ġom bygning
Ġon ani
av l
ĠD P
ĠT rÃ¦k
ĠInnov ation
Ġoffentlig gÃ¸r
res er
Ġmeld te
fort Ã¦lling
Ġfyld es
Ġdrikke vand
od ning
ĠTr ods
D elt
Ġfar vest
ĠSex y
Ġare alet
ĠgrÃ¦s set
ram te
ĠIn vest
ĠM ester
Ġrej sel
Ġphp BB
se ktor
Ġkomfort abelt
our g
Ġleg end
Ġder ud
Ã¸konom iske
Ġuforglemm elig
ĠB estyrelsens
ĠM r
Ġlokal omrÃ¥det
ĠI C
Ġkval me
Ġbe vise
Ġfang ede
ĠLokal avisen
ĠVide os
akt Ã¸rer
sels dag
Ġpl ot
om iske
ĠF ed
ĠAt t
ĠAnders ens
J es
Ġekstraordin Ã¦re
ener gi
Ġyd elsen
Ġtot ale
Ġkontrol len
sen ge
ĠO tto
Ġfil tr
ĠidÃ© en
Ġafs agt
li ck
vÃ¦r et
Ġhandic appede
ĠdrÃ¸ fte
% )
Ġg end
ord nede
or ie
Ġudbud det
Ġi ll
Ġover stige
ed ie
Ġj ordens
Ġkonstru ktioner
ĠJe ppe
Ġtavs hed
Ġstres set
ĠG irl
rel ateret
Ġtilbageven dende
ĠbÃ¦l te
Ġsig ende
Ġrej ses
Ġ q
ĠS olen
bal ance
Ġmundt lig
Ġd ronning
ĠEnheds listen
ĠsÃ¦son ens
ĠFy si
ĠGlob al
Ġud trÃ¦k
Ġm ast
ĠP in
ister ende
Ġteen agere
un es
Ġsk ide
Ġlig estillings
asti an
Ġo ne
P ost
af g
Ġen somhed
ĠbrÃ¦nde ovn
ĠFor uden
ĠA ktiver
kÃ¸b enhavn
kald else
RU G
Ġform et
Ġ11 2
Ġde pot
Ã¸b et
arrang Ã¸r
kv inder
Ġtom at
k il
sm aterialer
ĠgrÃ¦ de
RE V
ĠmÃ¸n ter
cep tion
Ġkont anter
ug ar
Ġlej ere
bru sk
te mp
ĠSt edet
Ġ, -
ĠKan al
Ġinse kter
Ù Ī
ĠUniversitet shospital
ĠEl len
ax y
ĠFor s
ĠE mma
Ġres earch
ĠUd gifter
Ġtakne mmelig
ov nen
Ġf ladt
Ġtil sÃ¦t
ĠE mb
Ġud sender
ĠS av
Ġw ill
ĠÃ¥n de
ĠrÃ¥ ber
gul ve
Ġfre kvens
ĠEurop e
Ġbombar deret
ĠWik ipedia
s agt
Ġbad et
ĠNÃ¦r vÃ¦rende
Ġsm itte
ĠRejseg arantifonden
Ġpenge institut
trÃ¦ delses
ĠgrÃ¦nse overskridende
Ġunder sk
Ġpo olen
cept Ã©r
Ġpriori tering
KT ION
ford ringer
Ġsymptom erne
Ġult ra
m Ã¸r
Ġparl ament
Ġkost ume
ĠS IDE
Ġbron ze
a e
M iljÃ¸
grÃ¦n ser
ĠF ood
Ġlang sigtet
Ġra m
Ġskul deren
a q
c as
Ġpo sen
cent ral
iz z
ĠhÃ¥nd klÃ¦der
Ġmail adresse
ĠBl od
Ġafvik let
ĠIn vester
ĠG as
Ġsen getÃ¸j
G uide
ĠP ic
Ġlang sigtede
ĠansÃ¸ger en
ĠJu ul
und ne
Ġinterview et
ĠS ab
stig ning
ĠSt op
Ġirri teret
m inde
Ġs alen
Ġover gangen
Ġs vej
Ġforbe holdt
Ġpan ik
f Ã¦
o skop
Ġklass ikere
d ommens
Ġh Ã¸ns
Ġpoin te
ĠBe ch
Ġfor fÃ¸rende
Ġok sekÃ¸d
ak se
Ġg aa
ĠSm ag
Ġsammenlig n
Ġgo ogle
Ġchokol aden
Ġvidunder ligt
Ġre alisere
Ã¸b er
Ġafh jÃ¦lpe
valg te
ĠBÃ¸r nes
Ġved hÃ¦ng
ĠO lesen
Ġpass iv
Ñģ ÑĤ
ĠL ange
ĠT egl
âĢ¦ âĢĿ
n ose
Ġkon stitu
k under
Ġplan tet
Ġhand sker
h Ã¸je
Ġindt og
park er
ĠBil lige
ĠA nette
Ġaktivitet s
st one
Ġkra m
Ġorganis ations
S at
ĠI ran
Ġp ir
VEJ LEDNING
S yn
Ġdag pleje
ic y
Ġth is
ĠfÃ¦r ge
Ġkval it
Ġforl Ã¦nger
p or
ĠL Ã¦der
sbes Ã¸g
F O
Ġpoliti ets
h elt
ĠansÃ¸g nings
bil d
ĠSv Ã¸mme
Ġb idt
K lub
Ġopfor dres
Ġtablet s
Ġkor s
ĠKon gen
D B
Ġtradition en
b t
Ġkrydstog t
Ġslot tet
id spunkt
l Ã¦ngde
Ġber Ã¸r
l Ã¦st
ĠfÃ¸rste hjÃ¦lp
up unktur
Ġbeste mmelsen
htt p
al ter
Ġudgiv es
Ġspred te
Ġland skaber
et agen
sk assen
ĠDi alog
ire ktÃ¸r
Ã© er
ĠO ds
Ġre former
Ġtr opper
ĠN V
bil ag
Ġst ry
ĠK end
Ġgu iden
A ft
ĠM R
w s
ĠMa tematik
wa ys
hÃ¥nd vÃ¦rk
Sk jern
Ġste p
ĠU gens
ĠFl or
Ã¦ ber
Ġforsik rede
Ġfort jent
Ġl une
Ġhvor med
Ġlej et
Ġbland ede
ĠG old
mod ul
ĠpÃ¸l se
ĠKommuneplan tillÃ¦g
Ġfrem stiller
Ġunderstre ge
ĠskÃ¦v t
b ul
h vide
Ġg alleri
Ġhand len
Ġkontra kter
L ed
ĠE p
up unkt
ĠT u
bet jent
Ġs ilkeborg
ĠvÃ¦l gere
ĠS SL
Ġdesign ere
Ġbade vÃ¦relser
ĠR amme
Ġbruger profil
til ler
Ġl ort
ĠtrÃ¥d lÃ¸st
Ġgent age
ĠhÃ¦ng t
ati en
gr ene
ĠlÃ¦ ben
Ġprofession sbachelor
Ġkan el
Ġsej lede
ov l
ordin ator
ĠJob center
Ġp i
Ġl arm
H and
U B
o sition
Ġgri se
Ġreklam ationsret
mptom er
sperson er
undt vig
Ġgro ve
Ġbeskriv elsen
Ġlyser Ã¸de
Ġluks uri
r ov
Ġsu p
Ġ16 00
Ġr and
ĠSyd afrika
ket ten
Kapital fond
ik eren
pr ov
ĠAmerik a
Ġmusik alsk
Ġlegi tim
bes lag
Ġekstraordin Ã¦r
Ġufor udsig
Ġtil veje
ĠK ul
Ġd ie
Ġdu mt
Ġh orsens
Ġin stitut
ĠD iverse
Ġ7 50
ron isk
Ġvel kendt
Ġproblem stilling
Ġsen i
Ġambass ad
Ġkli pper
Ġoversk ydende
Ġspr eder
sm assage
ĠFer ies
ĠbÃ¸r ste
Ġdyr ket
ĠbÃ¸rne familier
ĠB jerg
oku menter
Ġkommun es
ĠlÃ¸ ftet
Ġlands holdet
ĠSar ah
Ġindvend igt
ĠsvÃ¦r d
A arhus
Ġren gÃ¸re
Ġa mm
Ġorienter e
Ġtun gen
ĠL uder
Ġ17 0
Ġubehag eligt
Ok LÃ¦s
Ġresul terede
Ġtel eskop
Ġ4 50
Ġplak at
Ġtru er
Ġben Ã¦vnt
ĠB atter
Ġlog isk
Ġeksempl ar
m f
kr op
spe ed
Ġp Ãĥ
Ġes s
Ġreklam ation
Ġtredje mand
Ġfol ie
Ġutro skab
Ġa ne
Ġer kendelse
T F
D ig
ĠforeslÃ¥ ede
ĠBy ens
m ning
Ġdrej ede
ĠusÃ¦dvan lig
eret ning
ub a
Ġunderst reg
Ġko kke
ĠFamil ien
ĠÃ¸r erne
Ġaf betaling
Ġforklar et
RU ND
ĠS AS
ĠafhÃ¦ng ighed
ĠlÃ¦kr este
ĠG ave
be hold
ĠUd betaling
Ġsc rip
uropÃ¦ iske
ost a
Ġmulig gÃ¸r
or vet
Ġkapit ler
rÃ¦ de
af delinger
ĠR EG
G u
Ġford omme
t ru
Ġhellig dage
Ġfrems endes
ab o
b Ã¸rne
Ġjob sÃ¸gning
Ġasf alt
Ġtro et
mest re
P C
Ġciv ile
Ġefter ladt
Ġannon ceret
Ġl ike
ur gt
Ġforbind elsen
ĠH ammer
elÃ¸b ende
ĠÃ ¡
Ġforen k
Ġhandling en
ĠT Ã¦t
Ġhard core
Ġtomm elf
Ġfor vÃ¦r
Ñ Į
Ġud sÃ¦tte
Ġulov lige
L okal
ĠlÃ¦re plan
Ġbland es
Ġskul dre
ct ed
su mmer
ĠL ager
Ġandels haver
giver e
ĠKar sten
Ġind virkning
ud bud
ĠKÃ¦r lighed
Ġminim ere
ri ce
Ġdisku teret
R L
ĠfÃ¸l som
est op
ker Ã¸d
Ġkong elige
Ġsol ned
ĠSt ri
Ġret telser
ĠhÃ¥nd teres
Ġstat sminister
ĠbÃ¸l ger
Ġh at
ĠFeries hop
ĠK OL
ĠYou See
ud gift
ĠSt Ã¸tte
Ġsol ide
for holdene
Ġvand rer
Ġhen vendt
Ġaflever et
Ġv s
l Ã¦nder
v Ã¦s
Ġs um
ĠGennem snit
inde x
sÃ¸ en
ĠSe c
Ġl ugter
ran ter
B or
sb elÃ¸bet
Ġescort piger
Ġudlej es
Ġbyg g
Ġsku ffer
el ine
P RO
ĠA xel
Ġophold et
ings vejledning
d vs
Ġjule aften
ĠNÃ¸rg aard
Ġland distri
F ly
' '
H jÃ¦lp
ak ti
form ede
Ġvuggest ue
ark iv
d Ã¦mp
t aske
b and
Ġev ige
Ġbes Ã¦tning
ĠMen igheds
Ġflad skÃ¦rm
Ġhotellet s
at re
ens ens
Ġâ Ŀ¤
ĠVW R
ĠBr Ã¸d
Ġmoder en
ss ygdomme
v ol
f Ã¦ng
forbind elser
EN HAV
ĠEl se
Ġny op
Ġspekt ak
spiller en
Ġvindm Ã¸lle
ĠTro els
ĠvÃ¦ d
st egn
Ġkv anti
Ġmar cip
Ġspar et
Ġforvir ret
isk er
Ġber Ã¸ring
ĠFrederik sborg
Ġn Ã¥l
ĠServic es
ĠR E
ĠV iv
Ġspons orer
bli kket
ĠBen te
ĠvÃ¦rdig rundlag
Ġmotion s
ne j
ĠlÃ¦ gerne
ĠpÃ¥ lÃ¦g
Ġregion ens
NING ER
Ġafd Ã¦kke
Ã¸g n
Ġled te
Ġsamfund smÃ¦ssige
rik el
Ġsm agt
ĠhÃ¥nd led
ĠBl omster
Ġgri mme
vi deret
ed skaber
Ġac cel
Ġerkl Ã¦ret
redi tering
Ġkne ppet
Ġforbr Ã¦nding
olog ier
ĠÃħrs agen
L yt
dr ags
Ġvild este
ry p
Ġefter lade
Ġuddann elserne
on ing
ĠW ash
Ġaf prÃ¸vet
Ġsk Ã¥n
Ġop tagelser
ĠKlin ik
ĠBestil le
St art
Ġfl or
li den
Ġfor fra
Ġsne akers
ĠS ct
ĠT ip
ĠNort h
Ġbomulds garn
M et
ĠR ol
sm Ã¸r
VAR SEL
m Ã¸ller
ĠVed lige
ret tigheder
onne menter
Ġgener ations
ner ing
ĠK ru
Ġmekan isk
Ġauten tisk
Ġkon ferencer
ĠBil ledet
ra teg
ĠD ar
L Y
G ave
Ġh ive
Ġoptim eret
ci al
Ġned sÃ¦ttes
all ens
Ġop lagte
m Ã¦lk
ĠA ren
ĠProdu kter
Ġkon sul
K ultur
ĠoptrÃ¦ den
Ġindsk rÃ¦n
S yd
Ġfli r
ark en
Ġoverbe visende
Ġr un
Ġom verdenen
ĠAma zon
our cer
Ġdef ens
ĠK astrup
Ġd ys
Ġi ht
kon sulenter
eb ry
Ġ198 6
ĠOrganis ation
s ningen
Ġig nor
Ġyt rings
ĠÃħ l
Ġsov et
ĠA j
Ġkamp agnen
Ġkron iske
Ġtol v
Ġiden tisk
Ġkopier es
ÃĺB ENHAV
f esten
Ġneut ral
Ġro skilde
Ġbiograf en
Ġw all
ĠsÃ¸ge feltet
Ġsty kket
ĠD ay
t uren
Ġi sland
ma ce
ĠBib elen
or terer
Ġfinansi el
Ġover holdelse
Ġh k
Ġkonsult ation
se min
ĠR ub
fo x
M u
G U
ob i
Ġ% ,
Ġstab ile
Ġvindu erne
ĠD DS
ĠforstÃ¥ eligt
inci p
s ner
alb um
Ġform uleret
Ġdatab e
ĠkÃ¸r estol
ĠVed taget
Ġind fÃ¸res
ĠhÃ¸j skole
ĠRi is
Varen avn
Ġsk yldig
Ġ2 30
ĠKlub ben
ĠtrÃ¦l s
M ellem
sk n
C ookie
ĠR Ã¦kke
Ġlever ingen
Ġikraft trÃ¦den
ĠTekn ologi
moder ne
Ġbesvar else
UL T
ĠKlo ster
ĠUd fyld
Ġerhvervs uddannelser
Ġp ix
B K
Ġmorgen maden
ĠFil men
Ġr eder
ĠM S
Ġlak rids
en ge
Ġforvent ningerne
Ġfer ier
sm ission
ĠpÃ¥lid elig
w ar
egen skaber
Ġbuks erne
N oget
Ġge ografiske
Ġafsl utter
Ġbol de
ĠG ad
Ġmundt lige
ĠK risti
ke m
Ġkost en
ĠKj eld
st Ã¦vne
Ġfunktion sned
res sive
Ġbl Ã¦k
Ã¦v ede
pe kt
ra mmer
Ġindtast et
ge ar
ĠmÃ¥l grupper
z oner
Ġfra melde
Ġdan nede
Ã¦r erne
Ġsuper marked
ĠÃ¥r ti
r iger
Ġud redning
Ġund re
eg ningen
Ġ17 5
ĠsÃ¸n nen
Ġher lig
Ġbook er
Ġher ning
ĠÃ¦g lÃ¸sning
Ġvar mere
ĠÃ¸ de
Ġdyr et
Ġdetal jerne
Ġr iv
mm elses
ĠDB A
ĠgÃ¸ remÃ¥l
Ġsor timentet
ĠUndersÃ¸g elser
ĠKri min
ĠP ass
k ass
Ġved tog
Ġuund gÃ¥
Ġsk adet
ran den
ĠE K
Ġbl inde
Ġord ne
ĠSundheds styrelsens
Ġkulhyd rater
Ġind retningen
Ġinddr aget
Ġra ske
Ġh Ã¦nde
Ġdigital isering
ikk ens
ĠA udi
Ġtriv sels
Ġber Ã¸rer
p ix
ĠM iss
ĠTw in
s be
Ġdag institution
bo ende
Ġdu fter
ĠH unde
E s
sdag en
ĠlÃ¸b esko
Ġpro stat
ĠUndervisning sministeriet
ĠVol vo
h Ã¥b
Ġudg rav
om asse
f ronten
ĠKir ken
Ġa ustral
Arbej d
ĠAfghan istan
ĠJuni or
reg ner
ĠFran sk
Ġmod stÃ¥
Ġtra iler
P T
br yn
Ġdeaktiver et
tra dition
Ġtilp asser
ĠLau ra
Ġanonym t
Ġst Ã¸de
Ġbli r
Ã¸v ende
Ġor dens
Ġbaby er
ĠtrÃ¦ f
su pport
Ġcont ainer
men u
Ġja kkesÃ¦t
Ġspot tede
Ġver i
Ġhypp igt
Ġtilslut tes
ĠResult ater
Ġstim ulere
ĠN ak
Ġaf brudt
Ã ¢
ĠA qu
Ġkne pper
Ġfolket ings
sb o
Ġvari ationer
ĠmÃ¦rk elig
M ark
ĠGr ind
Ġfry seren
Ġtra pper
Ġskr Ã¸b
c al
lÃ¸s ningen
Ġgens id
ĠL Ã¥n
ĠgrÃ¸n landske
o id
ks el
bud get
Ġg ood
ĠLille bÃ¦lt
ĠFinan stilsynet
ĠfÃ¦ng slet
Ġtjen esten
Ġaf hente
sÃ¸ konom
Ġb ras
ĠMo tion
Ġreguler es
K ap
l okaler
id rÃ¦t
ĠdrÃ¦ be
Ġhav ens
Ġindb yder
Ġindt aster
ĠL ider
Ġe b
est o
Ġaktivitet en
Ġud viser
imm ing
Ġover lÃ¦ge
Ġslu kket
Ġfug tig
h Ã¥ret
Ġs avn
Ġtra kt
ĠtÃ¦nk elige
Ġfinansi eret
ĠK ender
Ġsku ffe
g ud
ĠR ose
Ġplan et
sm Ã¦g
spÃ¦r re
ĠM aler
Ġbu ffet
For fatter
Ġder pÃ¥
Ġord sprog
er t
ĠPr oblem
sikker heden
Ġudsp ringer
li ps
klÃ¦d nings
ĠKur set
Ġangri be
Ġpla y
ĠFÃ¦lles skab
ress ource
Ġblok ere
sf olk
Ġfor est
det s
ĠCh ris
sp lig
a ug
sp ejder
ĠG ay
ĠOp gaver
stat en
ĠbeskÃ¦ftigelses indsatsen
Ġher reg
ĠT egn
Ãĺ D
Ġkr og
dr ages
Ġumiddel bare
ĠG Ã¦lder
Ļ ¥
of Ã¦lles
Ġdef ineres
L IGE
Ġklar ede
Ġd id
Ġpasser er
adres ser
Ġkl am
ĠJ A
ĠgÃ¦ng se
Ġk Ã¥l
ĠFri tids
Ġhon or
ĠH y
FÃĺ LG
Ã¦r lighed
Ġtag get
ĠI B
Ã¸l ge
tekn ik
KOMM EN
F olk
N eden
em peratur
SÃ¥ fremt
ĠPlan lÃ¦gning
ri x
Ġfri sten
Ġsammen hold
Ġskol edag
ĠhÃ¸js Ã¦det
Ġryt tere
in tet
ĠÐ ¿
f olket
ĠT ar
ĠuÃ¸n skede
Ġtjeneste ydelser
ĠvÃ¦r ksteder
rug t
Er hvervs
s ygdom
ost alg
Ġtilbage kalde
Ġoffentlig gÃ¸re
ĠM ur
ĠR undt
Ġborger ens
bo oks
Ġsn avs
rÃ¦ kket
mens Ã¦tning
ĠApp s
ĠO VER
sb ladet
ĠuimodstÃ¥ elige
g ie
T re
ĠvÃ¦l ter
Ġvarmepum pe
Ġan visning
Ġske p
Ġmag asiner
Ġbos iddende
av le
G ET
Ġmys tiske
ĠSam tidigt
Ġlyn lÃ¥s
Ġukr udt
ĠudlÃ¸ ser
ĠsÃ¸g en
Ġug entligt
ĠMaj a
Ġforet rÃ¦kke
Ġglan s
Ġk inder
st Ã¸vler
ER NE
ĠsÃ¸d me
Ġcamping plads
V est
ĠLeg acy
Ġimp ul
Ġmad spild
appar ater
is ation
Ġudg aven
ĠI m
ch a
Ġadministration en
Ġspe ed
ĠM AS
Ġag ur
Ġrespon den
ĠgÃ¥r de
ĠBek Ã¦mpelse
âĢ ĺ
ĠK it
Ġvalg muligheder
Ġjord skÃ¦l
Ġscor ede
ĠRed egÃ¸relse
Ġmusk lerne
administ ration
sta dens
kt ar
Ġfod tÃ¸j
Ġreturner er
Ġind ust
Ġ21 1
em iddel
ĠG aar
Ã¸rg sler
un ktion
ĠRen Ã©
Ġsp ins
Ġdisku terer
Ġbetaling smuligheder
Ġtil stande
Ġvis i
ĠUd gang
R igtig
ed s
ann ab
Ġrev olu
et ur
Ġregel mÃ¦ssig
Ġg astron
gra den
ben et
ĠpÃ¥vir kes
ĠÃĨnd ringen
Ġj Ã¦ger
B og
m Ã¦ngde
ĠIngen iÃ¸r
Ġlog istik
Ġkonserv ative
Ġs Ã¦der
ĠIn spiration
ik ator
Ġsyd Ã¸st
ĠD ens
ygg elige
ĠR avn
ĠLu ksus
N OTAT
Ġg Ã¸dning
ĠOp d
ĠAff ald
ĠV EJ
Ġlo kke
Ġsj Ã¦le
Ġud syn
alis men
ĠÃ¦ndring erne
Ġuf att
Ġoph Ã¦velse
sej ere
Ġstem nings
mÃ¥ ler
au x
kl art
Ġstren g
Ġnabob yer
ĠO slo
ĠprÃ¦ dik
ĠPet ers
Ġd ater
sk ap
sb udget
ĠB NP
ĠP ak
Ġle ktor
ds el
Ġefterkomm ere
n isk
f inde
Ġsk yd
aut oriseret
ĠRis ik
Ġetn isk
ĠM ai
Ġrens et
Ġfed tet
oner er
Ġambiti Ã¸se
Ġfast holder
M ax
Ġgrund lov
Re ference
Ġafrik anske
Ġinvi terede
beste mmelser
Ġbry llu
Ġder hen
ĠhjÃ¦lp ere
Ġdag bog
ĠO liver
FOR M
l ler
Ġutr yg
ingen iÃ¸r
Ġgennem skue
Ġom end
Ġubehag elige
Ġindkald es
Ġhul let
ĠfÃ¦ng sels
ĠGe orge
ĠafgrÃ¦n set
Ġsp Ã¦d
Ġsin de
ĠhÃ¦ ver
ĠM Ã¦rk
ĠM ose
Ġpol ske
op skrifter
Ġun iverset
orden e
Ġc yl
ĠC opyright
Ġnov elle
st ar
Ġhel te
Ġty veri
ĠlÃ¸bet id
Ġkammer ater
Ġlynhurtig t
t ransport
Ġth ailand
K ar
ĠDire ktÃ¸r
sc ar
Ġud bygning
Ġh ormoner
N ET
ur ter
ĠL ok
Ġven skaber
Ġej ede
Ġvold tÃ¦gt
Ġry ster
se y
Ġkompli cerede
Ġex t
Ġprote iner
Ġkon ferencen
Ġkurs ister
pr int
ĠGal axy
Ġplan terne
stat ning
akk els
ĠP asser
elÃ¸s ning
" )
ĠformÃ¥ ede
om a
ĠEnk elte
Ġlod ret
Ġz o
Fred ag
ĠnÃ¸dvend ighed
ĠforlÃ¦ng es
Ġuend elige
Ġstri kker
al edes
b b
ĠL E
Ġbade kar
F ran
KÃ¸benhavn s
f okus
Ġsens or
kirt len
c le
ĠÃ¸rer inge
Ġhil se
hjÃ¦lp ere
ĠsÃ¸n ner
Ġal fabet
Ġaller fÃ¸rste
Ġk i
sf est
ĠforfÃ¦rd eligt
te kster
Ġplacer er
Ġma kker
os a
Ġfjen der
Ġubet inget
ĠV A
ter nes
em askine
Ġdel ing
Ġam ager
ĠLin ux
op lysningerne
ce an
Ġh i
u i
bef olk
ĠÃĨ r
Ġob je
Ġaf st
Ġsm elter
ĠFor vent
Ġp ic
lem entet
ĠrÃ¥ be
ĠDon ald
ĠS N
ĠunderstÃ¸t tes
Hot els
Ġud fra
ĠR od
beskriv elser
ĠVirk elig
Ġp j
Ġhensigt en
Ġbrug bar
ĠLever ings
Ġfortrolig hed
ĠS OS
Ã¦ derne
ĠPorn ofilm
d Ã¸re
kl ik
Ġk yl
ĠO B
Ã¸nt gen
is m
2 000
ĠbeskÃ¦ftig elsen
Ġpakkes hop
ind dragelse
ĠRes umÃ©
Ġsvag hed
ly ser
ĠKon kurren
ĠKlar bÃ¦ks
al m
Ġsig ter
rej sende
ĠbeskÃ¦ ftige
sk in
ĠO R
Ġalsid ig
ĠA BS
j uni
ga ards
ĠJ ette
ĠClaus en
yr ing
Ġrut ine
ĠHol ly
Ġvidere udvik
f em
ĠSm ith
Ġumu lig
ĠForskel lige
Ġspise bord
nov eller
ers lev
M Ã¦nd
ĠS orte
Ġb in
Ġrent en
ĠLever ing
samling s
Ã¸rr elser
ĠAktiv Ã©r
Ġinds endt
s Ã¦de
ĠEjend oms
ĠProgra mmet
Ġud stillet
ĠtilfÃ¸j elser
g y
mark en
Ġpost kort
Ġforbed res
Ġtom t
B landt
ester ol
ĠY o
Ġnord jyske
ĠSig ne
Ġde fekt
for bud
Ġkor rup
ĠB rev
Ġst jern
ĠNord djurs
Ġbort skaff
ĠS anne
ĠC BD
ĠInd ivid
ĠA rab
ĠstÃ¸rr elses
Ġb ise
sp artner
E le
Ġmag i
Ġknap t
ĠVI P
ĠÃ¥rs rapport
vor ter
S el
ili ps
ĠF itness
200 5
ĠvÃ¦n ne
Ġdr ink
ĠV end
Ġful l
Ġhe kti
ĠA ne
ĠL itteratur
res sen
ĠKon serv
Ġvis uelt
Ã¸ e
Ġbage papir
Ġter rit
Ġserver ing
A A
isk y
Ġintens itet
d als
Ġstim ulerer
Ġproblem atisk
ĠContin ue
Ġt aletid
ĠSol rÃ¸d
Ġsol o
Ġpost kasse
Ġudlever es
ĠKommun al
Y K
Ġulov lig
un iverset
int age
?? ?
Ġmuse ets
Ġstatis tisk
M T
ĠT AK
Ġtvang s
B la
Ġorganis ere
Aller ede
in stitutter
ri erer
smed lemmer
Ġop holdt
ys sel
Ġudvend ig
Ġfed este
Ġp Ã¦rer
Ġelektri ker
Ġsekret Ã¦r
Ġs ene
ĠStra teg
Ġemb al
Ġr ub
ĠkÃ¸ ligt
Ġi sk
ĠgrÃ¦n serne
Ġirrit ation
ber edelse
Ny hedsbrev
h urt
L Ã¦ser
Ġinvester et
Ġ198 8
ĠG L
Ġor dr
ĠivÃ¦rks at
ards ortering
Ġdigital modtager
Ġto ur
ĠgrÃ¦ skar
Ġfor esk
Ġkonkurrencedyg tige
od ser
as me
LE V
Ġsign ifik
v ores
or iteter
Ġma atte
skud det
n Ã¸dder
w er
ĠforstÃ¥ elsen
Ġ21 00
berg s
Ġunder liggende
Ġkug ler
E g
Ġad vokater
ĠMellem Ã¸sten
S Ãħ
Ġudskift et
y ota
Ġhandling splan
Ġkog t
Ġkendet egner
Ġt yng
ĠJust in
Ġi mper
Ġanmeld elsen
ĠM ia
P osten
Ġsk att
Ġopret tede
Ġafklar et
Ġafvig elser
ul lere
ĠV ill
Ġv a
Ġor lov
ĠAl drig
Ġf ood
er klÃ¦ring
ch o
sens or
kor re
i che
Ġb revet
ati kken
Ġd rukket
Ġsp sk
Ġkun stige
h Ã¦tte
om sp
skil der
Ġkolle ktioner
tem inde
ĠH Ã¦r
ĠPrakti k
ver et
ĠplanlÃ¦g ges
les vig
Ġso kker
ĠH ellerup
Ġ 000
Ġlangvar ig
ĠnÃ¦r ing
Ġforsvar s
ĠAnvend es
ĠP ay
skÃ¦r men
FÃĺLG NING
ĠgennemgÃ¥ s
Ġskol et
sp Ã¦nding
iti vt
Ġundervisnings forlÃ¸b
ĠA K
Ġbogstav eligt
men terer
kom sten
ĠPerson ligt
Ġsv Ã¸mning
Ġgennem brud
Ġbranch ens
Ġn Ã¥de
Ġdom inans
sten en
Ġmodstan dere
Ġfragt en
H erefter
Ġpsyk ologisk
off erne
b ran
se kt
dk valitet
ĠhÃ¸j tid
b od
Ġ10 5
Ġudford ringen
T ip
uler es
Ġpriv ile
Ġdet e
ĠR iver
Ġvej ene
ĠTvÃ¦r timod
Ġt ags
ĠF rid
M ag
Ġbevar ings
v ine
Ġst ald
te in
Ġhoved regel
inter view
Ġreklam emÃ¦ssige
Ġbl Ã¦se
Ġmaks imum
st eret
Ġfort ab
v ner
or dan
R ing
Ġfre el
Ġab ort
es h
ĠpÃ¥ hvil
r olle
ĠLe on
Ġstrej f
porn o
for sik
Ġbru ser
kj ole
Ġguler Ã¸dder
Ġb unke
ĠH andling
Ġbygning ens
ĠCo un
Ġteam s
ĠÃ¦stet iske
ĠTÃ¥rn by
Ġb yt
Ġbi ologisk
s liv
Ġsne en
ĠdrÃ¸ft else
Ġrepar ationer
elig ht
Ġme ed
Ġkammer aterne
k amera
Ġalmind elighed
komp agniet
bu tikken
ĠGr undtvig
Ġgrund forlÃ¸b
Ġmedlems nummer
ĠL ande
sb Ã¸ger
Ġber Ã¸rt
Ġv vs
ĠB ack
Ġmind ret
ĠB ort
Ġg if
g igt
Ġprodu ktioner
Stand ardsortering
ar is
Ġ20 25
Ġfast slÃ¥
Ġbland ingen
Ġtanke vÃ¦kkende
ĠVirksom heds
al in
Ġindik atorer
Ġgu ru
ĠP us
ĠM Ã¼n
Ġmyndig heds
ĠpÃ¥p eger
ĠDig it
ĠEg ypten
Ġsti fter
Ġl illes
Ġdoll ar
b undet
Ġop sigt
ĠSk jern
V ED
Ġsp rit
AN S
m as
st eg
mu lighed
stem peratur
c ig
p orte
ĠS ang
Ġforbruger en
ĠCar oline
ĠB elÃ¸bet
sprÃ¸ ver
Ġ198 5
el sker
im al
ĠMari ager
Ġd obbelte
Ġdynam iske
bl omster
ĠH Ã¦
man dens
Ġhas tigheden
k as
ĠBe folk
ĠMP EG
Ġbryst krÃ¦ft
ĠÃħb ent
Ġmoder at
DS M
Ġsol lys
Ġstud ieret
Ġqu iz
v Ã¦l
Ġred aktionen
Ġrob uste
ĠS I
Ġud lÃ¸se
Ġporn ov
Ġskole b
ĠP rag
ĠstÃ¸vs uger
ĠOm rÃ¥der
Ġopgra dere
sp id
Ġkommunik ationen
st ationen
Ġkon en
ĠF Ã¦l
Ġinv it
Ġe u
Ġsor teret
ĠM ak
Ġover gÃ¥r
Ġfin ale
ĠMÃ¥l gruppe
Ġhal vandet
Ġfest lige
net vÃ¦rket
Ġtab ellen
Ġpsyk ologiske
Ġpul jen
rag te
xel les
ĠA ug
Ġ12 3
hav ne
Ġhus erer
ĠSyd sjÃ¦lland
beg rebet
ĠtvÃ¦r gÃ¥ende
Ġfortrol ige
el Ã¸se
sk ra
ĠSn ap
Ġban an
ĠBygger i
ĠFC K
Ġfotograf ere
ĠÃ¦ndring en
ĠS lÃ¦g
ĠV it
sejend omme
Ġutrol ige
Ġreg nede
Ġvarmepum per
Ġl edet
es ystem
ĠU dkast
cit at
Ġ198 4
Ġintens iv
Ġlej ede
ĠInternation ale
Ġmodul et
k orn
ĠU gel
ĠDj ursland
ĠNorde a
Ġann ullere
Ġb ande
ĠMar y
dan nes
belÃ¦g ning
Ġst ang
kk elsen
sborg ere
st ole
end elser
Ġser vi
Ġkol list
Ġmail en
rol len
con om
Ġ$ .
ĠtilrettelÃ¦g ges
ot her
Ġudv Ã¦lge
sb elÃ¸b
Ã¥r net
skur sus
ĠJ ud
yld ige
D on
ĠJ un
Ġfod s
Ġsol briller
hed erne
bar ber
t ysk
ĠAltern ativt
Ġreg ul
Ġgl Ã¦det
Ġdownlo ades
Ġop sparing
Ġsv inger
vir kninger
EM ÃĨRK
Ġsm itter
Ġfast lÃ¦gger
ĠCh i
ĠpÃ¥begynd es
Ġdram atiske
Ġvanvit tigt
Ġnyt Ã¥rs
Ġm aves
age fter
Ġc al
skift ning
ra ul
Ġop ladning
Ġt rÃ¥dt
Ġ Ø
Ġpa user
ĠlÃ¦kker ier
ĠAn noncer
Ġher red
ĠA ND
vis orer
Ġfort Ã¦lles
Ġom giver
Ġsekret ariat
ĠDeb at
ac om
Ġvinder en
ĠS Ã¦lges
ĠL as
ons or
Ġskin ne
Ġredeg Ã¸re
ĠL od
Ġeget rÃ¦
Ġ Ã¦d
Sk atte
Ġge vald
lÃ¸ ft
H O
Ġorgan isk
Ġetn iske
Ġbook et
vision en
Ġindustri elle
el ov
ĠK U
mÃ¥ ske
ag a
ĠIND HOLD
Ġt ape
Ġgr illen
ac o
ĠEC TS
Ġhjemmeb ane
Ġhomoseks uel
Ġevalu ere
Ġhen seende
Ġuhel dig
ĠgÃ¥ ende
Ġfred ags
ib el
ĠCh ef
Ġknog ler
Ġback up
Ġkartoff el
ĠT ypisk
ul ykker
Ġind delt
ĠSogn s
ension s
ser vic
ĠV ent
port en
ĠKrÃ¦ft ens
bru ge
ĠRed aktionen
ĠlÃ¸b ere
Ġfolket ing
or dre
ĠA x
Ġkli pp
Ġinv itation
ny e
ĠSt am
Ġelev ens
Ġforber eder
ĠDe c
ĠSk u
ĠfÃ¸lelses mÃ¦ssige
de fin
Ġt ack
Ġtra il
ĠBod il
J u
Ġlag ring
B estyrelsen
ĠVal de
V alg
Ġen som
institu tionen
i fe
Ġb ond
ling erne
ĠSe ks
ind holdet
r alen
on et
gen der
ĠS ym
ĠEnerg istyr
Ġr ov
ĠK OM
imp ort
Ġsl agt
Ġdiscipl in
ĠAnd el
ĠM as
ĠN ina
are alet
ĠS IM
æ ľ
ĠAl s
ĠKont rakt
Ġenerg imÃ¦rk
Ġmod i
ament ets
it Ã¦re
ĠIN T
ĠIn c
ĠGo od
Ġsyn tet
ĠForsy ning
h lia
Ġtil bered
Ġbruger nes
ĠFÃ¸de vare
S var
Ġcyk ling
ang st
lev en
Ġafklar ing
ĠL G
Ġâ Ĥ¬
p ude
ĠH art
Ã¸r red
ĠP or
Ġadgang en
Ġufor mel
Ġaner kender
sst eder
ĠtilfÃ¸j else
ĠÃĺkonom isk
ĠtÃ¸j dyr
b ugt
ĠO x
Ġkonver tering
Ã¥r ene
assi sk
c ts
Ġprins esse
Ġred ning
ĠHen ri
Ġekstra udstyr
Ġfork Ã¸l
! Â«
Ġrek vir
Ġ197 7
an sÃ¸gning
Ġbe myndig
Ġm arer
bring es
M e
ĠB lev
Ġforsvar et
op le
ĠH H
n Ã©
ĠB ob
Ġskri d
Ġinten st
Ġeftertr agtede
ĠspÃ¦n de
Ġkend sger
sk oven
Ġk uld
ĠSovjet un
ch mark
tal erne
is ion
ĠT ale
fuld stÃ¦ndig
Ġcrem et
Ġfet ish
SÃ¸ ndag
ĠIsland s
ĠIsra els
af giften
Komm ent
ĠMyndighed skode
in vester
Ġgent ag
ĠHer af
Ġfor reste
Ġdistri kt
hjul et
ĠF leks
ĠK i
sm en
Ġmobil itet
ĠÃħb nings
Ġop holde
Ġjourn alistik
Ġdat am
ĠGen op
Ġfj orden
Ġindik ator
Ġb Ã¸v
sÃ¦tt ende
Ġund sk
Ġstren gt
ĠSocialdemokra tiet
ĠR uder
Ġkv indens
mod ning
ĠOp gaven
Ġjuster ing
Ġoblig ationer
Ġvis dom
Ġu sk
ĠAutom atisk
ind pakning
sejend om
b ang
Ġstri ber
ĠG rupp
ĠV IL
Ġpl anten
ast a
best and
mennes ker
Ġsvind el
Ġop kaldt
Ġ198 7
Ġgarder ob
Ġjul es
Ġn ote
Ġbe mand
Ġsucces fulde
L ars
sm ad
Ġbi ogas
Ġal ufÃ¦lge
ĠSe kret
Ġkommerci elt
Ġste mmeret
ĠÃĨ gte
n orm
Ġturner ingen
L iv
Ġbl Ã¦re
ĠW ien
Ġreg ister
vi rus
G iv
ĠM aterialet
atisti kken
Ġbestil linger
Ġund taget
op dater
s aft
Ġma ppe
Ġkvik lÃ¥n
Ġud deles
Ġsm Ã¸re
Ġstyrket rÃ¦ning
Ġforst Ã¦rket
Ġudsted es
In de
ĠKli kker
Ã¸ er
ele kt
Ġkonf ron
Ġkultur en
ĠsÃ¥ mÃ¦nd
ant al
Ġpsykiatri sk
ĠomrÃ¥ derne
ĠDis ney
m angel
ĠFrem sat
ĠMEG ET
ĠF air
c ket
p el
Ġypper ste
Ġvejr trÃ¦kning
ĠV UC
Ġad m
Ġdr inks
h um
Ġtegneser ie
Lig esom
ĠtilfÃ¦l dig
Ġstruktur er
ĠMal ene
an ia
Ġfor lyst
ĠEt ablering
Ġfor gang
is tiker
co unt
Ġu lighed
ĠrÃ¦kke huse
ot to
sm yndighed
Ġkn us
Ġmed regne
Ġfrem sat
ĠOp sÃ¦tning
ĠbÃ¸s ser
Ġd B
Ġlancer er
ĠerklÃ¦r ede
Ġkatol ske
Ġmis und
ĠSk oler
Ġsand aler
Ġfly et
Ġkontroller es
Ġoverf lad
ĠK F
ĠM ilj
Ġetabler ingen
ĠD or
ĠUddann elsen
ĠreprÃ¦sen tere
ĠÃ¥rs agerne
Ġuen ige
Ġemin ente
sl u
Ġtyrk iske
Ġkompati bel
Ġkn ow
Ġpapir er
m isbrug
b Ã¦l
A k
ĠE k
Ġsan se
rens ning
Ġbo ende
Ġstre et
Ġbes ej
Ġkv indes
ĠAlbert slund
ĠBesk riv
Ġdag institutioner
sv ind
ĠA kk
Ġvirtu elle
bef indende
Ġfunktion erne
Ġoper ationer
op kald
Ġafh entes
ĠBru xelles
ĠspÃ¸rgeskema et
er inger
sl Ã¸n
Ġbutik skÃ¦der
l ampe
ĠR u
Ġland splan
Ġtemper ament
Ġbrugerven lighed
Ġh ip
ĠL os
Ġdisk uter
ĠT ube
kommer ci
el eje
mm ets
Ġverden en
Ġgr is
kend elser
Ġdr oppe
ĠÃ¥nded rÃ¦t
Ġud se
St at
ht ml
s tigt
Ġf estivalen
Ġtra ppen
ĠProdu ktion
ĠOds herred
ĠC ast
ĠBÃ¦r edyg
Ġs ner
Ġaf rejse
Ġsm y
Ġgj aldt
fl ugt
o dent
ĠbevÃ¦g elighed
Ġgard in
omet ri
ĠvÃ¦rdi fuld
del ene
Op mÃ¦rksom
od a
Ġhensigt smÃ¦ssig
Ġb Ã¦nk
ĠK Ã¸l
Ġfamil i
ĠhÃ¸jt talere
ĠspÃ¦nd inger
akt en
ĠBrÃ¸n derslev
Ġa ud
ĠE P
Her itage
yr en
T Ã¦nk
Ġforsikrings selskab
Ġtysk erne
Ġp Ã¦re
Ġg un
w ell
ĠSp ejder
Ġorgas mer
Ġuddyb ende
Ġlykk elige
Ġru mmelig
en hav
Ġordin Ã¦rt
Ġst au
ĠlÃ¦s erne
Ġryg ter
smin istre
Ġoli em
ĠBar nets
Ġmys tisk
Ġu forstÃ¥
ĠGuardi ola
Ġop stille
ĠEro tiske
Ġanbefaling erne
an vendelse
Ġvide os
ĠTech n
ĠLeg e
Ġgud domm
bl ok
ĠIndhold et
ĠB lan
ĠVi by
ver t
ĠInde holder
ĠAndels bolig
ĠF inder
sted s
Kun ne
Ġ10 1
Ġkonf igur
Ġtommelf inger
Ġtry kte
ĠindlÃ¦g gelse
Ġf ibre
Ġkraft fulde
Ġsus hi
fr ygt
form anden
D og
eg ruppe
Ġry kkede
k up
ry t
ons ult
ĠO s
um a
Ġbestsel lere
Ġkn ald
ĠsÃ¸ m
Ġdiskussion en
Ġscrip ts
Ġbel g
Ġr uder
H Ã¸r
Ġreg uleret
Ġbibli oteker
Ġrefer erer
Ġny b
Ġ196 8
ĠF ashion
ĠV Ã¦lger
Ġsy vende
Ġtil trÃ¦ng
Ġmusik er
fug l
Ġty kkelse
Ġfader en
est olen
ĠL oven
ĠbÃ¸rne vÃ¦relset
Ġsag erne
Ġcirk us
Ġsind et
Ġud m
Ġtrans aktion
Ġsk amme
Ġud skil
ĠV Ã¦re
Ġmen uer
ĠSt Ã¸v
ĠMy Heritage
Ġautom atiske
OLIT IK
Ġv amp
Ġfl ygte
Ġteg nes
ti es
smod eller
Ġfortrins vis
ĠNew s
ĠD age
ĠK rag
lem iljÃ¸
ĠBon us
ĠBer edskab
Ġlitter Ã¦re
ĠV oks
ĠA ger
sh ip
ĠSp or
Ġchat ten
Ġvent es
ĠmÃ¥ ttet
Ġindhold sop
j ordens
Ġdef inerer
........ ........
F L
Ġrest ri
vide oer
beskriv elsen
ĠForbruger rÃ¥det
ĠsprÃ¸j ter
ĠpÃ¥hvil er
mag asin
Ġakk urat
Ġopf att
ĠJohn ny
vÃ¦rker i
Ġh eter
Ġforhandling erne
Ġbrem ser
itu ationen
B i
Ġau tisme
Ġfantas y
att oo
TÃĨG TER
at ed
infe ktion
Ġtje kliste
Ãĺ F
fo od
Ġdekor ation
ĠAk ut
v igt
H T
Ġind taget
Ġ197 2
Ġfor kort
Ġforsk rifter
over et
Ġcont ent
fÃ¸r ingen
for hÃ¸j
ĠAr n
Ġr anger
Ġkys se
Ġpum per
mid let
fil osof
Ġud skrive
Hver t
rej sen
ĠdÃ¸ tre
Ġsm elte
kl ame
Ġkamp ene
ĠlÃ¦re planer
ĠVietn am
A s
Ġom sÃ¦tningen
Ġstil hed
Ġuddannelses institutioner
Ġl ar
Ġkoord inering
Ġsnyd t
ĠM IL
ĠGeneralfor samling
Ġmiddel alderen
Ġtemp el
ĠFyn s
pr incippet
Ġbjer get
Ġopret telsen
A Y
Ġab sur
ĠMiljÃ¸ styrelsen
Ġban kkont
Ġmorg es
Ġfordel er
ĠM ateriale
do or
ĠSkat tem
Ġ( "
ĠN ick
dag es
on line
t ran
B ORG
Ġhard ware
er o
Ġm Ã¦gler
lÃ¦g nings
oper ation
H L
bli ve
Ġfej ret
A ut
j Ã¦le
Ġpa usen
ĠhÃ¸jde punkter
d um
k Ã¸n
Ġud delt
Ġtr Ã¸st
Ġop gÃ¸relsen
Ġ7 000
atur es
ĠWi Fi
Ġbes lÃ¦g
Ãħ h
Ġu j
Ġtil deling
ĠM alt
Ġgar anter
sb ro
ĠT inder
ĠW all
W S
Ã «
AR HUS
men nesk
ĠMo z
Form Ã¥l
sp akke
ĠG O
20 20
Ġudsol gte
ĠpÃ¥ t
Ġfri heds
ĠFl ygtninge
ster dam
Ġno teret
hj elm
fisk eri
W e
Ġf ix
Ġhv a
ger en
sl es
Ġbek ve
Ġfunktion el
Ġgrunde jer
Ġil den
Bri tta
Ġverden sklasse
ĠF old
gennem snit
ĠKontrol ler
arm or
ĠSu pport
el ej
rÃ¦ d
r ele
Ġinter v
K R
Ġdisk rimin
ĠD ol
ĠvÃ¦r dighed
Ġregn skaber
ĠDen nis
ĠnÃ¦st ved
! :
w ards
koncer t
ĠlÃ¸rdag s
ĠkÃ¦r est
Ġtus inder
ĠCl assic
Ù Ħ
Ġtil lagt
Ġch ec
ĠSeb astian
Ġher over
Ġher udover
ĠMask in
Ġekster nt
Ġtilb Ã¸d
Ġbel yse
Ġarbejds gange
ĠAnk estyrelsen
Ġhoved parten
Ġsteg t
Ġmur sten
ĠÃħr gang
Ġbekl agelig
Ġentr Ã©
strÃ¦ de
ser klÃ¦ring
Ġa gere
ĠG OD
Ġled t
F ragt
k alen
Ġopv okset
Ġfag lÃ¦rte
: Â»
ĠFOR M
Ġst yles
ĠG T
Ġsvine kÃ¸d
Ġforfatter skab
res ter
Ġ197 8
grupp ens
ĠFÃ¸devar estyrelsen
ĠspÃ¸rgsmÃ¥lst egn
Ġop tik
ĠundersÃ¸g te
ĠD ER
Ġejer lejligheder
Ġinter val
lem en
Ġch amp
Ġre b
Ġprodu ktiv
Ġgymnas ie
K en
ed raget
ĠdrÃ¸ ftet
ĠEksemp ler
Ġad varer
lÃ¸b er
Ġvis uel
Ġgrund lÃ¦gger
ĠskÃ¦r mb
g lad
sled ere
afg rÃ¸der
ĠM OD
m orgen
ĠEND NU
Ġm esse
ĠElis abeth
t ug
ĠBr Ã¦nd
ĠK affe
Ġrol lespil
ath rine
Ġcit at
ĠVej ledningen
Ġfremm Ã¸de
ib o
Ġm essen
Ġju rist
Ġm urer
ig es
ĠUgel iste
ĠstrÃ¦ kning
G ode
B Y
of on
Ġhe adset
ĠAren a
Ġaf lyst
yg tige
Ġfl is
Ġmarer idt
Ġst amme
Ġud ryd
Ġneg lel
ĠBes lutning
Ġvan ilje
est rup
Ġbesk at
ĠAr m
Ġtak st
Ġcoach ing
ĠE bÃ¸ger
al ets
k Ã¸l
ĠBÃ¸r sen
Ġindholdsop havsret
ĠK ENDELSE
Sund hed
ĠdrÃ¥ ber
eg od
kon kurrence
Ġja kker
ĠZe aland
Ġoversk redet
ti p
ven tionen
Ġ11 5
ĠmÃ¸d ested
ĠK raft
bu ilding
Ġben et
Ġuend eligt
ĠLiv ing
Ġuhel det
ĠK le
ĠD ie
Ġfl Ã¥de
Ġslut ning
l ar
Ġsp l
Ġhalv anden
Ġreg nen
Ġoliven olie
ĠB ags
ĠAf slut
Ġforbrug slÃ¥n
ĠHam mel
Ġregion erne
K ON
? Â«
p ak
Ġh Ã¦der
eret e
Ġomt anke
Ġ> >
Ġoverlev else
ĠT ine
st ers
Ġskol est
interes ser
F yn
ab it
Ġvinter dÃ¦k
Ġhemmelig heder
ĠUn garn
Ġryt me
ĠGl Ã¦der
Ġhus stande
ĠCaliforn ien
trÃ¦ng ende
ĠMerc edes
sv inkel
ra h
Ġsli kker
foren ings
Ġindh entet
ĠbÃ¸n nerne
ĠVarem Ã¦rker
ĠN AV
i elt
Ġly ster
ĠUl rik
ur ser
Ġte orien
ĠsÃ¦l gere
L AN
Ġhavre gr
Ġaut oc
ĠSvar procent
Ġleds aget
result at
Ġsn acks
ss ager
Ġminim al
Ġb Ã¸nder
Ġud lig
ĠJ Ã¸rn
ĠtÃ¥b elig
OL E
leverand Ã¸rer
ge vin
Ġefter fÃ¸lger
b akke
f Ã¦n
Ġv o
grib ende
Ġbegyn dere
Ġfragt frit
Ġklima anlÃ¦g
ĠÃ¦ ske
ĠHÃ¸j este
Ġprem iere
Ġlegend ariske
se ud
ĠT rivsel
in kt
Ġbekendt gÃ¸relser
ĠbeskÃ¦ftig ede
Ġbereg ner
ĠE riksen
ĠRe klam
Ġmeddel er
Ġforhold sregler
ÃĨ nd
Ġantibio tika
op lysning
dre vet
sl utter
d yb
s ygdomme
Kvalitet s
Ġmang le
ĠKommun ens
Ġeng le
emb ran
V M
Ã¦g ge
Ġlu kning
ĠhÃ¦v ede
forsy ningen
Ġforuren et
Ġp ad
ĠJ ammer
Ġmor al
yndig heden
Ġt ov
: ...
Ġaf drag
Ġhvide varer
Ġcas es
Ġhel ikop
Ġligegyl digheder
Ġsommer ens
Ġfar vede
ro und
el ast
vÃ¦g gen
Ġfunktion elt
ffe kter
ss ag
ĠRad ikale
oci ale
Ġfisk en
ĠF rÃ¸
200 4
OL OGI
eg r
ĠÃĺster gaard
ĠKl it
ĠÃ¦stet ik
hvil ket
K AST
ĠR em
Ġunder tegnede
Ġmeddel te
ĠÃĨnd ringer
ĠS ans
ĠV arm
nen es
f os
Ġomh u
Ġsolskins Ã¸en
ham med
ĠtÃ¥r er
ĠT oft
ĠHandels navn
Ġharmon i
Ġreflekter e
m ine
Ġsex film
Ġafstem ningen
ĠP A
Ġkaff eb
ĠPaul us
ĠHe idi
O O
Ġforvalt ningen
Ġuplo ade
b ler
ĠC i
ek an
ĠejendomsmÃ¦gler en
Ġud stiller
Ġkultur el
lut ningen
Ġmil de
Ġbl Ã¦s
__ __
ĠFisk eri
ub le
p igen
ri er
ĠD orte
Ġadminist rerende
V U
app erne
Ġr enser
ĠGr unde
ĠInd stilling
Ġsi kke
Ġman Ã¸v
k og
Ġsam lingen
j akker
es Ã¸g
Ġskjold brusk
Ġkem isk
it Ã©
ĠK y
Ġkonstru ktiv
Ġfej res
hj Ã¸r
Ġfor rest
IS S
jordens salt
Ã¸d es
Ġskatte pligtige
Ġbet Ã¦ndelse
Ã Ĥ
ring erne
P al
Ġl ur
Ġmed ium
Ġhukomm elses
Ġkah yt
ĠF orestil
Ġinstall ations
ĠNAT O
Ġfor styrrelser
Ġfar en
Ġs og
ĠFl ash
Ġkonflik ten
Ġop rydning
Ã¸j ne
Ġbedste mors
yg iejne
Ġhundred vis
Ġl ift
Ġeftersp Ã¸rgslen
ra te
ri tet
Ġg rej
am ling
ĠH ald
Ġvenne kredsen
ĠBeb oer
ĠRe alkredit
Ġop sÃ¸ge
Ġskad es
ĠF edt
of il
Ġsk yggen
Ġom sÃ¦tte
sekret ariatet
Ġfar mace
F er
ELSE S
ĠÃ¥bnings tid
forand ringer
L Ã¦r
ĠP ap
uler ingen
ĠsÃ¦ dkvalitet
Ã¦g ere
Ġsi er
Ġman uel
install ation
Ġt rÃ¥den
Ġring ere
Ġdygtig ste
Ġalbu mmet
Ġm ex
ĠLink ed
D ata
Ġnord sjÃ¦lland
te ma
h inden
ry tter
ĠkÃ¸kken er
Ġkonklusion er
Ġpriori teret
fyn s
tr op
skud t
ĠV igtigt
Ġra sende
forsikring en
ci der
ĠEfter hÃ¥nden
ĠV urder
s fri
gen heden
ĠWash ington
Ġmed i
Ġ198 2
ĠGylden dal
Ġkryds et
ĠH eden
att est
ft else
anis mer
h ler
lav ede
ĠFolk eskolen
Ġbab yt
Ġinfl uen
s ommer
ĠStor eb
Ac ceptÃ©r
ĠReprÃ¦sent ant
r ager
Ġfremgang smÃ¥de
Ġud steder
ĠK redit
skl asser
Ġud fÃ¸relsen
Ġfotograf eret
te k
int her
Ġinst agram
af gÃ¸rende
ĠG D
Ġformid dagen
ĠtilstrÃ¦kk elige
Ġind lysende
Ã¸b e
Ġafdeling ens
ĠblÃ¥ t
ĠS ystemet
Ġbeste mmes
Ġn Ã¦n
Ġud fald
ĠSt rip
Ġmester skab
Besk Ã¦ftigelses
Ġperi od
Ġregnvejr sdage
Ġhol landske
Ġrevision s
ĠStevn s
Ã¥r lig
ĠUnder vejs
Ġ197 3
Ġfin ansk
ĠVen ner
meddel else
Ġinde fra
ĠVen til
Ġomkost nings
ĠLEG O
Ġintellig ente
kr oppen
ĠS ie
Ġbekvem t
vil la
p ind
else a
Ġspej let
lys nings
Ġh Ã¦vn
ĠX X
Ġomfat tede
Ġsk ylder
Ġrejse arrangÃ¸r
ĠLand et
ĠR and
Ġsti kket
ĠQ ue
ĠRig shospitalet
ĠvedtÃ¦g terne
Ġmod etÃ¸j
il a
S til
ĠMang lende
ĠforÃ¦l det
Ġmedicin en
Ġumiddel bar
ĠD ron
Ġ197 5
ĠFor slaget
iv il
or ama
ĠbÃ¦r es
S end
fra drag
F R
Ġudv ist
Ġfordyb else
ĠJ EG
Ġpunkt et
ved lige
ĠK of
red egÃ¸r
Ġstyr kes
kv ensen
ĠT ele
kv inde
ĠMat as
ĠSt Ã¸rrelse
Ġtilsk uds
Ġret tere
Ġtelefon isk
Ġkarakter en
Ġrespekter er
ren te
Ġaf led
Ġgri m
Ġmass ivt
Ġan at
ele ment
est ykke
Ġkarri eren
Ġafs endelse
Ġn it
Ġkon ti
Op lysningerne
eg rÃ¦n
ĠHÃ¸j t
Ġdokumen terer
ĠGrind sted
ss ystemet
Ġ3 99
sh Ã¦
te ch
ĠM Ã¥ned
Ġfast lÃ¦gges
Ġm ole
ĠpÃ¸l ser
Ġs arte
Ġo x
ĠFOR ORD
sfor sÃ¸g
ud gaven
SK ER
ĠPre ben
Ġpyn tet
Ġop sigelse
Ġl aa
ci ent
stil lÃ¦g
Ġpres tige
irit us
Ġunder tiden
Ġmed fÃ¸rte
AL Y
s af
Ġinter aktion
Ġillust reret
L idt
Ġappar ater
ast en
Ġmagasin et
ĠT akket
Ġ21 5
h y
mÃ¦g tig
frem stilling
LE M
ĠSÃ¦r deles
ings anlÃ¦g
Ġner ves
aw ay
ĠtilrettelÃ¦g ge
Ġservicen iveau
A alborg
Ġdokument et
ĠS ygdom
Ġpo kker
Ġaccep teres
grupp erne
ĠbesvÃ¦r lig
ide o
Hotel let
Ġkunder nes
Ġdag pen
ĠspÃ¦nd ingen
Ã¥d givning
ĠlÃ¸ ftede
p igerne
ĠBold klub
Ġstatisti kker
sm askiner
Ġinspe ktion
ĠprÃ¦sent ationen
Ġl yng
Ġgam e
ĠBry st
ur y
Ġfortrydelses retten
ĠÃ¸v elsen
Ġpress es
Ġg ut
kn ap
Ġp et
Ã¥ en
ĠansÃ¸g ningsskema
Ġvidereg ives
ĠPost ed
Ġfinger en
Ġstrateg ien
Ġinden rig
ĠAn nette
F onden
ad line
di agn
ĠovervÃ¥ ge
sh use
Ġgour meter
L F
N o
Ã¦vnet s
Ġknaller t
Ġp ump
ĠskÃ¸n heds
j ov
ĠSÃ¥dan ne
Ġder i
S Ã¸ger
ĠInd stillinger
ĠKj ellerup
ĠSt Ã¸rre
Ġtru ede
Ġspillet id
Ġtr old
har dt
Ġryst ede
Ġrevi derede
M o
Ġstj Ã¦le
l am
Ġbekym rede
ĠPat rick
. Â»
ĠH este
Ġinten se
Ġbet ro
Ġrepar ere
l amper
V IK
oster on
Ġind ad
Ġb yd
ĠL uther
Ġch ik
hand sker
1 50
Ġinder siden
ĠD ri
Ġn ik
ĠGar anti
ĠtrovÃ¦r dighed
Ġd ommen
w o
Ġh ofte
vÃ¦r g
pop ulÃ¦re
Ġover sÃ¦tte
ĠB and
ĠL P
Ġast ma
bas en
Ġrespekter e
ĠAl men
ĠUkra ine
ĠK AN
sb l
Be handling
Ġforsink elser
Ġfotografer ing
var tering
Ġj al
Ġmy ter
ĠstÃ¸d te
k Ã¦der
rev el
Ġinspir erer
ĠEnerg y
Ġbrug bare
Ġfjern betjening
Op lev
ĠÃ¥ en
ĠLever and
ĠlÃ¥ get
Ġankom sten
Ġl atex
Ġudgivelses dagen
ver s
r Ã¸ret
Ġeng agere
smÃ¦g lere
Ġbek rige
Ġvar met
Ġsov jet
sen hed
ĠKar in
bevÃ¦g elser
Ġind tag
Ġt ort
ĠL yst
sst rategi
ĠOm vendt
Ġvask en
g Ã¦r
ĠR ent
ok o
be ck
Ġinformer er
Ġindled t
Ġeksplic it
ĠM ah
ĠÃ¥ben lyst
ekn ik
Ġan ker
Ġp uds
ti derne
is tika
ĠkÃ¸b ers
ĠS ender
Ġnatur gas
oc a
la an
) ?
le an
ĠHer red
v ninger
Ġdiagn os
ĠB it
Ġdyr este
g rim
ĠdomÃ¦n en
Ġbl onde
Ġgen kend
ĠOut look
Ġbas erer
R eger
AL T
ĠJu ster
ĠpÃ¥ stÃ¥r
gÃ¥rds vej
Ġsl Ã¦b
Ġomhand lede
! ).
ier ark
ĠVel fÃ¦rd
ĠBIL AG
ĠLiv s
ĠInv acom
ĠB ou
Ġudarbejd elsen
Ġultim o
Ġdemonst ration
sat spulje
Ġfac on
inister en
Ġfund amentet
kore a
Ġmy ster
sk reds
Ġrig elig
Ġd ommere
Ġvalg fag
Ġporn ografisk
od et
ĠLed ige
ren es
ĠG el
Ġoversigt en
f eld
ĠT j
Ġl at
Ġhalv vejs
Ġd amet
Ġ197 9
Ġsa ad
ripAd visors
Ġdobbelt seng
ĠSa int
ĠP alle
Ġsk rig
Ġudvend ige
Ġforb lÃ¸
ĠforlÃ¸b er
Ġklit oris
ĠT ripAdvisors
Ġund tagelses
Ġtilsyn s
Ġreligi Ã¸s
v ene
am arbejde
8 000
Ġopskrifter ne
Ġst rÃ¦kke
Ġbekendt gÃ¸relsen
Ġbli de
Ġham mer
ygger i
dr ager
Ford i
S U
k ro
ud n
ĠarbejdsmiljÃ¸ et
Ġtil sid
enhav ner
Ġind spil
ĠF is
bed st
Ġefter navn
ĠEU R
st ationer
Ġindvand ring
Ġpersondat al
Ġkur sen
Ġneder del
kar akter
J ER
ĠDu b
Ġenerg ir
ĠW ill
Ġan set
op ol
Ġforfri skende
Ġind gives
sti kker
ink ler
Ġfuld magt
Ġkend skabet
Ġtilsyn et
ĠS in
ĠReg istrer
Ġhot elvÃ¦r
ĠModer ne
ĠMos es
Ġman ager
Ġrej sning
Ã¦s ning
IT ET
ĠkÃ¦r lige
ĠRich ard
Ã¦l linger
b estilling
ï ¼
ĠforelÃ¸b ige
ĠOb ama
ĠK ob
ĠAlmind elige
Ġlilles Ã¸ster
Ġc tr
Ġteg nede
K unst
ĠD rop
Ġmess ing
Ġled nings
autom ater
Ġins ister
ent usi
ĠP ix
ĠF at
Ġmen ighed
Ġre ager
v r
uler inger
Ã¸ dende
ĠlÃ¦ring smÃ¥l
Ġvin dere
Ġslan ge
Ġind trÃ¦
ĠArbejd stilsynet
Ġimplementer et
Ġlille bror
ĠHoved b
d Ã¸ren
Ġf ashion
vind uer
Le ver
ter inger
F ag
Ġsogne prÃ¦st
s Ã¦son
ĠGust av
Ġstem te
Ġbu sk
bol ler
P syk
Ġp ud
vir kende
ann else
ĠK il
Ġfar er
ĠB U
Ġbef rug
An sÃ¸gning
S mu
ĠLi fe
Ġekspl oder
pe bjerg
Ġhun dene
ĠG j
Ġforesp Ã¸rgsler
p raksis
la h
Ġbestyrelses medlem
ĠB I
smu lighed
ĠF ig
P Ã¦dagog
ont o
Ġhandle plan
ĠfÃ¸d te
ĠlÃ¦ng der
Ġpressemeddel elser
Ġgen ial
Ġlin jen
pl at
Ġarkite kter
Ġblond ine
ĠE kst
Ġimmun forsvar
ĠsÃ¸rg ede
for ordning
ks en
Ġansvar lighed
ĠEli te
ĠD istri
ĠBet ingelser
us et
Ġked el
b ags
Ġsam liv
ĠN iveau
ĠZ oo
Ġtilb ragte
Ġbeklagelig vis
ass istenter
Ġaf sÃ¦tning
as is
ĠFire fox
ĠbÃ¦r bar
Ġarab iske
Ġvels ign
Ġryt m
h ospital
Ġsur fe
Ġg led
ĠK ast
En hver
ĠKar amel
Ġu fag
ĠPrÃ¦ diken
ag on
Ġman de
ĠF art
Ġhen fÃ¸res
ĠMet ode
Ġej erne
Ġmedlemsst ater
ĠF ris
Ġknu de
c ens
Ġs au
ĠKer teminde
Ġforudbestil ler
Ġfunktion sevne
Ġop lader
Ġfug lene
eg o
ra ten
s chef
fÃ¸l somme
ĠMÃ¥l sÃ¦tning
Ġfork ant
Ġd ommeren
Ġsof istiker
bu ffet
Ġform ulere
ĠopkrÃ¦ ve
L av
Ġprop or
Ġacces sories
Ġp sy
ĠSk ru
Ġom tales
it alen
Ġd ikt
Ġst akkels
ĠN avnet
Ġskriv ende
hold ige
Ġtillad te
ĠSel f
Ġaner kende
olog en
ar ium
Ġin n
sp leje
ĠIn kl
Ġl Ã¸v
r un
Ġud fÃ¦rdig
Ġv et
ĠkÃ¸ret Ã¸jet
Ġcig aretter
Ġsn yde
Ġtran sporter
p rakti
Ġkon dition
sker nes
ĠRes ume
sm id
Ġh ome
Ġplacer ingen
Ġkryd se
k la
ĠTor v
R en
Ġspiller en
Ġembed smÃ¦nd
Ġhen visninger
kÃ¦r lighed
Ġned sl
ĠS ax
Ġtra f
Ġtra mp
ĠsjÃ¦l en
Ġkj olen
Ġforsam lings
Ġk oder
ĠSp ring
f Ã¦st
ĠVej direktoratet
ĠpÃ¥ tage
ĠUdenrig sministeriets
Ġtrans aktioner
N r
Ġen det
Ġop stand
Ġlig a
Ġforne mmelsen
ink y
Ġind iske
Ã¦n denes
Ġbil erne
Ġte ch
ĠvÃ¦rd sat
ÃĨN K
ck ers
ĠudvÃ¦lg else
vÃ¦rks Ã¦tter
Ġlys ere
Ġdisplay et
sp olitiske
H VER
av ler
ĠkÃ¦mp est
Ġsyn lighed
Ġb dsm
Ġd ruk
ĠA h
Ġdialog en
Ġcykl us
ĠivÃ¦rksÃ¦t tes
annab is
be byg
Ġrej seg
Dej ligt
Ġkont rover
ĠAl ene
sp oliti
gÃ¥ s
C ent
ĠselvstÃ¦nd ighed
ĠKlar bÃ¦k
Ġpar as
Ġtilsk ade
Ġu ventede
Ġes tim
tim erne
Ġvis um
Ġc ere
Ġoverensk omster
Ġperson erne
Ġmal ede
ĠS tik
teg net
Sp ejder
h ard
an ie
Ġfor lange
at ure
Ġg aderne
ĠS Ã¦
ĠK M
dom stolen
Om kring
drag ter
Ġsor tering
Ġanmod ninger
w orld
met oden
ĠsÃ¸nd ags
manu al
ka ffe
Ã¦ gerne
Ġv inger
Ġselv sagt
se p
var mer
ĠX xx
Ġdistribu tion
ĠP ut
Ġra ff
Ġher ligt
Ġs lem
Ġsuper populÃ¦re
ĠLand sforening
V inter
Ġsh emale
Ġt we
ĠvÃ¦ vet
Ġaften ens
arbejd else
ĠtilrettelÃ¦g gelse
Ġd un
ti ce
us s
Reger ingen
el ing
Bes Ã¸g
Ġfordel ingen
Ġbrun ch
kl Ã¦det
Ġerhver ve
ĠHer rens
Ġkomment aren
Ġneden under
iser inger
Ġmotiver e
ĠOpr ind
Ġvidereg iver
yd elsen
fe kte
Ġp av
ĠS kt
Ġkob let
Ã¸s se
Ġbyg ningerne
for styrrelser
Ġaltern ativt
Ġcamping vogn
Ġregnskabs Ã¥ret
Ġtv inge
J ens
aft ryk
Ġkommentar feltet
in formationer
Ġperfe ktion
Ġgennemsnit ligt
Ġ Ã¥l
ĠKon kurrence
l ish
Ġi alt
Ġtilber edt
ĠS ens
ĠSimp le
mm els
ĠHad sten
k Ã¦den
Ġkristend ommen
med arbejder
aj a
Ġg artner
il bud
mm elige
et abler
ĠbrÃ¦tspil lene
s idste
Ġv ester
over vÃ¥gning
ĠlÃ¦rings redskaber
Ġsa aledes
Ġf onden
Ġmar itime
Ġindvi et
Ġskabel oner
ej et
S Ã¦t
Result at
ä º
Ġdep ositum
Ġovern atte
sp ot
ber edskab
Ã¥b Ã¦r
Ġsand elig
ĠÃ¦stet isk
ĠtilfÃ¦l dige
Ġforud sÃ¦ttes
p inde
ĠStor kÃ¸benhavn
Ġover sÃ¦tter
proces ser
ĠM US
Ġdest ru
ĠK am
Ġdilemm aer
bekendt gÃ¸relsens
Ġgirl s
ot ens
ĠP ier
Ġbo tilbud
ĠH aven
Ġker nen
omkost ningerne
j ust
ĠHand el
le gen
vÃ¦r net
ĠsÃ¦dvan ligvis
amb us
Ġk Ã¦der
ĠS Ã¸v
ĠT eg
eg nen
esk ri
ĠFrid ay
,- .
Ġrund visning
Ġgens yn
Ġoverra ske
ĠtiltrÃ¦ng t
ot land
Ġvi ce
Ġer kender
Ġbar m
Ġmand skab
ĠChamp ions
ĠÃ¸ ens
ĠMan ager
o ge
at al
Ġstor eb
hÃ¦ fte
Ġhoris ont
Ġdig ter
ateri el
Ġforhand le
Ġferiel ej
ind tag
ĠHver ken
v agten
ĠI S
ĠH amb
ele ventyr
fisk er
ĠValde mar
. *
frem stiller
Ġkob le
ends yssel
ER I
Ġopr igtig
Ġaflever ing
ĠArbejdsmarked s
ĠFar um
ul arer
Gr Ã¸n
Ġspred ning
ĠLÃ¦ge middel
odu ler
ĠD ir
Ġtak e
orden en
ĠlÃ¦r red
Ġoph id
kra ften
Ġf Ã¦tter
og les
Ã¤ n
Ġlast biler
Ġt ulip
Ġom givende
ĠhÃ¦k lemiljÃ¸
ĠL er
ĠbemÃ¦rk ede
ĠW ellness
ĠL Ã¦ger
fÃ¦r digheder
fred nings
Ġti derne
Ġm asc
Ġp ur
Ġdis pon
TER ING
Ġtidlig st
Ġed der
ĠFor brug
Ġdiagn oser
Ġr ingen
Hus et
s gave
Ġass ist
Ġpus lespil
Ġbel yser
ĠĠ ĠĠ
h of
Ġreserver er
Ġkor respon
Ġbedste mor
Ġmikro fon
Ġvaret Ã¦gts
sl og
ĠK und
ĠSam arbejds
ĠR un
Ġtilt rukket
ĠRÃ¥d givning
Ġmusk ul
Ġfor fald
ĠmÃ¸n t
Ġgra vet
Ġforl aget
ĠC are
Ġmass ere
ĠstrÃ¦k ningen
cent rene
Ġfolke pension
ĠunÃ¸d ig
Ġbo u
F r
S Ã¸ren
fang et
V ÃĨRK
Ġpat enter
Ġar ve
Ġret sfor
Ġu farlige
RA PP
te amet
et ik
Ġjern bane
ĠHall oween
T IL
kast et
oc key
Ġf am
Ġport ug
Ġsuppler er
c re
Ġoverbe vise
i os
ch okolade
D em
ĠforlÃ¸b ne
Ġform odent
nd al
Ġred igeret
lÃ¦ den
Ġreklam ere
ĠV AR
Ġgu id
Ġvari abel
Ġc ru
Ġvand ring
Ġfirk ant
is mens
Ġy det
Ġud lagt
Ġsur f
Ġfer sk
ĠtrovÃ¦r dig
ĠO scar
ĠudgÃ¸r es
Ġha kket
ĠComp uter
Ġhov eder
b ob
Ġbesk yttende
Projekt et
Ġenerg ie
ĠtvÃ¦r fagligt
ĠV arer
Ġpost nummer
Ġc ur
Ġsocial rÃ¥dgiver
kj oler
b la
Ġrest au
lan dene
Ġv endes
Ġkasser er
am ing
x y
Ġl os
ĠHold et
ĠfÃ¸rst Reference
ill s
Ġudse endet
ĠS li
[...]
