{"<se>":0,"<pad>":1,"</s>":2,"<unk>":3,"<mask>":4,"!":5,"\"":6,"#":7,"$":8,"%":9,"&":10,"'":11,"(":12,")":13,"*":14,"+":15,",":16,"-":17,".":18,"/":19,"0":20,"1":21,"2":22,"3":23,"4":24,"5":25,"6":26,"7":27,"8":28,"9":29,":":30,";":31,"<":32,"=":33,">":34,"?":35,"@":36,"A":37,"B":38,"C":39,"D":40,"E":41,"F":42,"G":43,"H":44,"I":45,"J":46,"K":47,"L":48,"M":49,"N":50,"O":51,"P":52,"Q":53,"R":54,"S":55,"T":56,"U":57,"V":58,"W":59,"X":60,"Y":61,"Z":62,"[":63,"\\":64,"]":65,"^":66,"_":67,"`":68,"a":69,"b":70,"c":71,"d":72,"e":73,"f":74,"g":75,"h":76,"i":77,"j":78,"k":79,"l":80,"m":81,"n":82,"o":83,"p":84,"q":85,"r":86,"s":87,"t":88,"u":89,"v":90,"w":91,"x":92,"y":93,"z":94,"{":95,"|":96,"}":97,"~":98,"¡":99,"¢":100,"£":101,"¤":102,"¥":103,"¦":104,"§":105,"¨":106,"©":107,"ª":108,"«":109,"¬":110,"®":111,"¯":112,"°":113,"±":114,"²":115,"³":116,"´":117,"µ":118,"¶":119,"·":120,"¸":121,"¹":122,"º":123,"»":124,"¼":125,"½":126,"¾":127,"¿":128,"À":129,"Á":130,"Â":131,"Ã":132,"Ä":133,"Å":134,"Æ":135,"Ç":136,"È":137,"É":138,"Ê":139,"Ë":140,"Ì":141,"Í":142,"Î":143,"Ï":144,"Ð":145,"Ñ":146,"Ò":147,"Ó":148,"Ô":149,"Õ":150,"Ö":151,"×":152,"Ø":153,"Ù":154,"Ú":155,"Û":156,"Ü":157,"Ý":158,"Þ":159,"ß":160,"à":161,"á":162,"â":163,"ã":164,"ä":165,"å":166,"æ":167,"ç":168,"è":169,"é":170,"ê":171,"ë":172,"ì":173,"í":174,"î":175,"ï":176,"ð":177,"ñ":178,"ò":179,"ó":180,"ô":181,"õ":182,"ö":183,"÷":184,"ø":185,"ù":186,"ú":187,"û":188,"ü":189,"ý":190,"þ":191,"ÿ":192,"Ā":193,"ā":194,"Ă":195,"ă":196,"Ą":197,"ą":198,"Ć":199,"ć":200,"Ĉ":201,"ĉ":202,"Ċ":203,"ċ":204,"Č":205,"č":206,"Ď":207,"ď":208,"Đ":209,"đ":210,"Ē":211,"ē":212,"Ĕ":213,"ĕ":214,"Ė":215,"ė":216,"Ę":217,"ę":218,"Ě":219,"ě":220,"Ĝ":221,"ĝ":222,"Ğ":223,"ğ":224,"Ġ":225,"ġ":226,"Ģ":227,"ģ":228,"Ĥ":229,"ĥ":230,"Ħ":231,"ħ":232,"Ĩ":233,"ĩ":234,"Ī":235,"ī":236,"Ĭ":237,"ĭ":238,"Į":239,"į":240,"İ":241,"ı":242,"Ĳ":243,"ĳ":244,"Ĵ":245,"ĵ":246,"Ķ":247,"ķ":248,"ĸ":249,"Ĺ":250,"ĺ":251,"Ļ":252,"ļ":253,"Ľ":254,"ľ":255,"Ŀ":256,"ŀ":257,"Ł":258,"ł":259,"Ń":260,"er":261,"en":262,"Ġs":263,"Ġd":264,"et":265,"Ġa":266,"Ġo":267,"Ġf":268,"in":269,"or":270,"Ã¥":271,"Ġm":272,"ti":273,"Ã¦":274,"an":275,"ed":276,"el":277,"Ġh":278,"Ã¸":279,"Ġv":280,"ig":281,"Ġb":282,"es":283,"Ġk":284,"Ġog":285,"Ġi":286,"ar":287,"Ġp":288,"de":289,"ing":290,"Ġfor":291,"st":292,"til":293,"le":294,"Ġer":295,"Ġat":296,"Ġtil":297,"re":298,"om":299,"Ġen":300,"Ġg":301,"Ġaf":302,"al":303,"sk":304,"Ġl":305,"ag":306,"Ġn":307,"on":308,"ter":309,"un":310,"te":311,"il":312,"der":313,"kk":314,"ĠpÃ¥":315,"ne":316,"Ġt":317,"eg":318,"ud":319,"ver":320,"Ġmed":321,"ra":322,"Ã¸r":323,"ĠD":324,"Ġdet":325,"se":326,"ol":327,"Ġder":328,"ler":329,"is":330,"lig":331,"Ã¦r":332,"Ġsk":333,"Ġst":334,"kke":335,"am":336,"ĠS":337,"Ã¥r":338,"ning":339,"Ġde":340,"den":341,"Ġin":342,"Ġud":343,"Ġden":344,"ge":345,"Ġhar":346,"at":347,"Ġr":348,"Ġj":349,"Ġdu":350,"and":351,"og":352,"Ġsom":353,"ve":354,"Ġom":355,"Ġvi":356,"od":357,"Ġkan":358,"Ġikke":359,"Ġhv":360,"Ġet":361,"ri":362,"ĠH":363,"ere":364,"Ġop":365,"Ġan":366,"ru":367,"hed":368,"it":369,"ej":370,"Ġ1":371,"Ã¦n":372,"ĠM":373,"Ġ2":374,"ik":375,"ur":376,"ende":377,"Ġe":378,"Ã¦l":379,"ad":380,"ede":381,"Ġal":382,"els":383,"ĠsÃ¥":384,"else":385,"ĠF":386,"tion":387,"id":388,"Ġel":389,"ĠA":390,"ger":391,"âĢ":392,"as":393,"Ġjeg":394,"ĠB":395,"for":396,"Ġpr":397,"ĠK":398,"ul":399,"ske":400,"ste":401,"av":402,"ens":403,"Ġind":404,"li":405,"ent":406,"Ġman":407,"ĠV":408,"omm":409,"Ġvar":410,"Ġfra":411,"kt":412,"mm":413,"ab":414,"ĠT":415,"ks":416,"Ġeller":417,"Ġsam":418,"ĠI":419,"ĠE":420,"erne":421,"us":422,"fter":423,"Ġvil":424,"Ġsp":425,"ĠP":426,"rÃ¦":427,"und":428,"end":429,"elig":430,"..":431,"Ġmen":432,"je":433,"Ġskal":434,"ang":435,"ĠL":436,"Ġhvor":437,"Ġover":438,"est":439,"ind":440,"ĠvÃ¦":441,"ok":442,"Ã¸b":443,"op":444,"Ġved":445,"Ġc":446,"tid":447,"ĠJ":448,"sp":449,"age":450,"ĠDet":451,"old":452,"lev":453,"bej":454,"Ġsig":455,"ĠmÃ¥":456,"ort":457,"ov":458,"ĠN":459,"lige":460,"Ġ-":461,"sÃ¥":462,"elt":463,"Ã¸j":464,"Ġbru":465,"Ã¦g":466,"Ġ20":467,"tig":468,"Ġre":469,"vis":470,"Ġkun":471,"ling":472,"Ġ(":473,"ation":474,"ĠO":475,"Ġun":476,"ft":477,"nd":478,"ĠâĢ":479,"iv":480,"Ġnog":481,"Ġny":482,"ĠG":483,"yg":484,"ĠvÃ¦re":485,"Ġefter":486,"ĠR":487,"ĠogsÃ¥":488,"ser":489,"ige":490,"Ġar":491,"ĠÃ¥r":492,"ist":493,"ot":494,"Ã¦t":495,"Ġbe":496,"det":497,"Ġdin":498,"Ġu":499,"yr":500,"Ġdig":501,"dan":502,"Ġse":503,"Ġkomm":504,"Ã¸n":505,"Ġbes":506,"Ġbli":507,"Ã¸d":508,"kker":509,"ĠC":510,"Ġkon":511,"ores":512,"pp":513,"Ġgod":514,"Ġbl":515,"Ġblev":516,"Ã¸g":517,"Ġsi":518,"lem":519,"sm":520,"ut":521,"Ã¸l":522,"Ġ3":523,"eget":524,"elv":525,"ligt":526,"ave":527,"vÃ¦r":528,"ob":529,"art":530,"dre":531,"ale":532,"ir":533,"sen":534,"let":535,"ĠfÃ¥":536,"ring":537,"si":538,"yn":539,"ret":540,"00":541,"Ġhan":542,"ak":543,"hold":544,"men":545,"Ġvores":546,"Ġher":547,"ĠvÃ¦r":548,"ele":549,"Ġunder":550,"eder":551,"ke":552,"ce":553,"ĠfÃ¸r":554,"ff":555,"enne":556,"Ġ201":557,"var":558,"ro":559,"Ġkl":560,"Ġmin":561,"ark":562,"Ġmeget":563,"rem":564,"skab":565,"elser":566,"ĠU":567,"ager":568,"Ġend":569,"Ġselv":570,"Ġmere":571,"Ġmod":572,"ly":573,"ene":574,"um":575,"Ġarbej":576,"Ġalle":577,"isk":578,"ninger":579,"ry":580,"Ġsm":581,"sl":582,"itet":583,"ers":584,"ie":585,"alg":586,"Ġmu":587,"Ġfin":588,"ker":589,"nes":590,"tet":591,"os":592,"Ã¸re":593,"me":594,"Ã¦nd":595,"ĠVi":596,"ner":597,"be":598,"Ġdag":599,"lighed":600,"ĠJeg":601,"ber":602,"la":603,"Ġtid":604,"este":605,"ĠlÃ¦":606,"em":607,"Ġbet":608,"ord":609,"ĠnÃ¥r":610,"Ġbrug":611,"lad":612,"elsen":613,"yl":614,"Ġhav":615,"net":616,"idt":617,"ci":618,"Ã¦ng":619,"Ġle":620,"Ġmange":621,"rÃ¥":622,"kti":623,"ĠâĢĵ":624,"ĠDer":625,"lÃ¦g":626,"igt":627,"kl":628,"red":629,"eret":630,"per":631,"ch":632,"Ġnu":633,"ati":634,"jÃ¦l":635,"Ġstor":636,"Ġbed":637,"jer":638,"...":639,"Ġ4":640,"iver":641,"Ġbliver":642,"led":643,"ant":644,"Ġvir":645,"mer":646,"Ġbil":647,"lere":648,"Ġhvis":649,"Ġkv":650,"ĠFor":651,"pe":652,"Ġtilb":653,"odu":654,"ast":655,"arbej":656,"di":657,"Ġmig":658,"ennem":659,"Ġudv":660,"Ġdan":661,"Ġgr":662,"Ġfrem":663,"ĠÃ":664,"ater":665,"Ġkunne":666,"del":667,"Ġhje":668,"are":669,"Ġte":670,"Ġdem":671,"ine":672,"agt":673,"eb":674,"yt":675,"Ã¥l":676,"org":677,"ĠbÃ¸r":678,"Ġnoget":679,"ĠDan":680,"yd":681,"Ġda":682,"igtig":683,"ĠÃ¸":684,"Ġgodt":685,"Ġ5":686,"dag":687,"Ġhave":688,"lan":689,"erson":690,"Ġhavde":691,"Ã¦s":692,"sÃ¦t":693,"Ġforsk":694,"Ġret":695,"Ġos":696,"Ġdenne":697,"ingen":698,"Ġandre":699,"Ġhvad":700,"ktion":701,"ten":702,"Ġkr":703,"yder":704,"ide":705,"gang":706,"iske":707,"avn":708,"Ġor":709,"tik":710,"ode":711,"ic":712,"Ġti":713,"dk":714,"alt":715,"Ġalt":716,"ma":717,"ass":718,"ster":719,"ningen":720,"riv":721,"ĠhÃ¸j":722,"Ġtr":723,"Ġlig":724,"land":725,"dt":726,"mp":727,"ket":728,"Ġforb":729,"Ġderes":730,"elses":731,"Ġhelt":732,"Ġhver":733,"Ġuden":734,"ive":735,"Ġreg":736,"sker":737,"âĢĿ":738,"Ġfort":739,"ĠkÃ¸b":740,"dr":741,"pr":742,"ksom":743,"ĠSt":744,"Ġbeg":745,"dende":746,"Ġpro":747,"ap":748,"sb":749,"Ġbeh":750,"ĠfÃ¥r":751,"Ġw":752,"fÃ¸r":753,"Ġkom":754,"ier":755,"Ġlidt":756,"mmer":757,"Ġsamt":758,"Ġmel":759,"mel":760,"Ġsammen":761,"vend":762,"ion":763,"Ġlige":764,"les":765,"ook":766,"ĠDu":767,"Ġforskel":768,"Ġhun":769,"Ġser":770,"Ġnye":771,"Ġperson":772,"hol":773,"Ġgra":774,"heder":775,"Ġkont":776,"kst":777,"sat":778,"Det":779,"ange":780,"ĠDe":781,"atur":782,"Ġgennem":783,"Ġfl":784,"ĠDen":785,"vet":786,"aler":787,"Ã¸de":788,"Ġdette":789,"Ġsid":790,"ĠtrÃ¦":791,"tag":792,"Ġ6":793,"ĠvÃ¦ret":794,"enter":795,"Ġgen":796,"Ġflere":797,"Ġig":798,"Ġto":799,"Ġsl":800,"Ã¥de":801,"Ġnogle":802,"Ġprodu":803,"Ġdel":804,"Ġform":805,"ĠhjÃ¦l":806,"cer":807,"ille":808,"Ã¸rg":809,"ĠfÃ¸l":810,"mme":811,"vi":812,"elle":813,"iser":814,"Ġblive":815,"Ġhele":816,"ĠMen":817,"gÃ¸r":818,"ien":819,"tisk":820,"Ġma":821,"stil":822,"vej":823,"kter":824,"ven":825,"Ġ\"":826,"Ġvej":827,"ĠgÃ¸r":828,"ug":829,"ade":830,"dere":831,"sÃ¸g":832,"elige":833,"isse":834,"Ġad":835,"ost":836,"Ġned":837,"Ã¸ger":838,"ĠEn":839,"Ġbruger":840,"Ġinden":841,"get":842,"Ġpar":843,"ĠOg":844,"mark":845,"Ġmellem":846,"ĠnÃ¦":847,"form":848,"oli":849,"ub":850,"nings":851,"Ã¥nd":852,"ĠAl":853,"ult":854,"ds":855,"im":856,"eligt":857,"Ġkommer":858,"af":859,"Ġdit":860,"Ġgang":861,"ĠSk":862,"ĠstÃ¸r":863,"lys":864,"Ġinter":865,"ĠHv":866,"Ã¥b":867,"giv":868,"Ġ19":869,"kken":870,"Ġhvil":871,"Ġmulighed":872,"ets":873,"Ġmind":874,"Ġsin":875,"Ġra":876,"Ġeg":877,"ĠbÃ¥de":878,"endt":879,"gen":880,"Jeg":881,"inder":882,"Ġgiver":883,"hus":884,"Ġlang":885,"ĠfÃ¸rste":886,"Ġforskellige":887,"Ġly":888,"ĠÃ¸n":889,"Ġdine":890,"over":891,"ĠbÃ¸rn":892,"ĠHvis":893,"ĠgÃ¸re":894,"dann":895,"Ġbr":896,"Ġ7":897,"ĠAn":898,"inger":899,"under":900,"Ġudvik":901,"ktiv":902,"Ġbesk":903,"esk":904,"Ġsen":905,"Ã¸s":906,"tal":907,"Ġhvordan":908,"ĠmÃ¥n":909,"Vi":910,"Ġskul":911,"Ġhjemm":912,"kon":913,"ings":914,"ĠIn":915,"ans":916,"Ġbare":917,"Ġhel":918,"Ġliv":919,"Ġsex":920,"akt":921,"Ġfinde":922,"Ġaltid":923,"hver":924,"ĠHer":925,"olig":926,"Ġdat":927,"Ġland":928,"rÃ¸":929,"Ġhen":930,"Ġstore":931,"Ġsiden":932,"Ġven":933,"ald":934,"gi":935,"ken":936,"Ġhos":937,"sten":938,"Ġ8":939,"rug":940,"alitet":941,"andt":942,"dig":943,"Ġdi":944,"ac":945,"nu":946,"inde":947,"ĠSÃ¥":948,"fÃ¸l":949,"ĠgÃ¥r":950,"edet":951,"Ġres":952,"Ġandet":953,"gende":954,"Ġgrund":955,"tes":956,"Ġvirksom":957,"ĠvÃ¦l":958,"ies":959,"tige":960,"yk":961,"fte":962,"havn":963,"Ġlever":964,"ĠW":965,"Ġjo":966,"Ġskulle":967,"Ġ200":968,"ĠgÃ¥":969,").":970,"sion":971,"Ġver":972,"Ġsy":973,"Ã¦re":974,"andling":975,"komm":976,"orn":977,"unkt":978,"tere":979,"mÃ¦r":980,"Ġsamme":981,"Ġgerne":982,"asse":983,"Ġfors":984,"Ġ10":985,"Ġsyn":986,"aget":987,"Ġvel":988,"Ã©":989,"Ġkommun":990,"Ġanden":991,"Ġfar":992,"tis":993,"aver":994,"Ġdes":995,"amp":996,"au":997,"rer":998,"Ġsu":999,"Ġspil":1000,"ister":1001,"Ã¸rgsm":1002,"ĠSe":1003,"Ġsikker":1004,"Ġbedste":1005,"lede":1006,"sel":1007,"Ġnet":1008,"kket":1009,"Ġblevet":1010,"ogra":1011,"Ġtilf":1012,"uld":1013,"kn":1014,"res":1015,"Ġper":1016,"Ġderfor":1017,"ĠÂ":1018,"Ġhjemmes":1019,"stÃ¥":1020,"ĠKomm":1021,"ligere":1022,"Ġfri":1023,"Ġskri":1024,"vent":1025,"ĠDanmark":1026,"tem":1027,"Ġgode":1028,"Ġville":1029,"Ġdog":1030,"heds":1031,"ĠlÃ¸b":1032,"heden":1033,"Ġrigtig":1034,"Ġcook":1035,"Ġigen":1036,"ĠInd":1037,"ynd":1038,"Ġlav":1039,"ole":1040,"Ġmennes":1041,"Ġtilbage":1042,"Ġomk":1043,"Ġ9":1044,"olog":1045,"lads":1046,"Ġstil":1047,"rupp":1048,"ran":1049,"Ġskab":1050,"ĠprÃ¦":1051,"ust":1052,"Ġarbejde":1053,"dens":1054,"Ġbruge":1055,"atter":1056,"jen":1057,"len":1058,"olk":1059,"ren":1060,"teg":1061,"Ġnatur":1062,"ffe":1063,"ĠsÃ¦t":1064,"Ġgl":1065,"Ã¸rer":1066,"Ġlille":1067,"Ġfik":1068,"lik":1069,"lysninger":1070,"Ġbag":1071,"ER":1072,"Ġej":1073,"âĢĻ":1074,"Ġso":1075,"enhavn":1076,"assage":1077,"Ġinde":1078,"oder":1079,"ard":1080,"istor":1081,"Ġbyg":1082,"ĠUd":1083,"Ġnok":1084,"ĠKommun":1085,"Ġrej":1086,"med":1087,"Ã¸rgsmÃ¥l":1088,"Ġty":1089,"amil":1090,"ĠKÃ¸b":1091,"ester":1092,"Ġhol":1093,"Ġvand":1094,"tte":1095,"20":1096,"Ġforhold":1097,"Ġenk":1098,"Ġlov":1099,"borg":1100,"Ġbar":1101,"urtig":1102,"Ġsit":1103,"tr":1104,"ationer":1105,"Ġsn":1106,"Ã¦v":1107,"ĠtÃ¦n":1108,"Ġsidste":1109,"Ġvigtig":1110,"asser":1111,"Ġfordi":1112,"Ġnem":1113,"Ġdanske":1114,"styr":1115,"Ġby":1116,"Ã¦kke":1117,"Ã¥d":1118,"kte":1119,"Ġnogen":1120,"ĠÃ¥b":1121,"tiske":1122,"Ġdisse":1123,"Ġoplev":1124,"ĠTil":1125,"eci":1126,"ĠsÃ¸":1127,"oblem":1128,"ib":1129,"Ġweb":1130,"ĠÃ¸nsker":1131,"ĠsÃ¦r":1132,"Ġcookies":1133,"Ġkra":1134,"ĠmÃ¥de":1135,"aft":1136,"Ġvalg":1137,"eller":1138,"sigt":1139,"Ġhurtig":1140,"Ġsik":1141,"Ġting":1142,"Ġmest":1143,"Ġfun":1144,"Ġch":1145,"Ġkomme":1146,"Ã¦lles":1147,"som":1148,"Ġhold":1149,"ĠHan":1150,"Ġon":1151,"Ġ0":1152,"ĠmÃ¥l":1153,"Ġdansk":1154,"Ġhand":1155,"Ġled":1156,"ĠnÃ¦r":1157,"Ġham":1158,"min":1159,"Ġgive":1160,"Ġtage":1161,"Ġeks":1162,"Ġpen":1163,"cep":1164,"Ġele":1165,"Ġfr":1166,"Ġsag":1167,"Ġvirk":1168,"ĠhÃ¥nd":1169,"Ġgratis":1170,"gÃ¥":1171,"Ġtra":1172,"oved":1173,"ĠMed":1174,"ringer":1175,"Ġomkring":1176,"ilj":1177,"Ġpris":1178,"sam":1179,"anden":1180,"ledning":1181,"arbejde":1182,"lag":1183,"jekt":1184,"ĠnÃ¸d":1185,"gr":1186,"up":1187,"bet":1188,"Ġfast":1189,"lÃ¸b":1190,"Ġside":1191,"Ġlu":1192,"ĠspÃ¸rgsmÃ¥l":1193,"stem":1194,"set":1195,"far":1196,"Ġbek":1197,"ĠomrÃ¥":1198,"Ġbest":1199,"oner":1200,"ĠgÃ¦l":1201,"Ġmand":1202,"yld":1203,"spunkt":1204,"endes":1205,"of":1206,"ĠlÃ¦ng":1207,"ryk":1208,"Ġfil":1209,"ĠâĢĿ":1210,"Ġplan":1211,"Ġmuligt":1212,"ĠÃĺ":1213,"oks":1214,"ow":1215,"ĠUn":1216,"Ġarbejd":1217,"Ġvide":1218,"reg":1219,"fer":1220,"Ã¦ldre":1221,"Ġspeci":1222,"ĠEr":1223,"Ġfinder":1224,"orm":1225,"Ġoff":1226,"Ġmark":1227,"leder":1228,"Ã¦k":1229,"entlig":1230,"stru":1231,"sh":1232,"Ġingen":1233,"sti":1234,"ĠKÃ¸benhavn":1235,"sn":1236,"Ġgam":1237,"ĠhjÃ¦lp":1238,"vem":1239,"iner":1240,"Ġ18":1241,"ĠTh":1242,"Ġsiger":1243,"Ġsv":1244,"Ġjer":1245,"ont":1246,"ĠmÃ¥ske":1247,"Ġgener":1248,"undet":1249,"ĠprÃ¸":1250,"ris":1251,"ĠPÃ¥":1252,"ges":1253,"Ġaller":1254,"ĠsÃ¥dan":1255,"revet":1256,"Ġstad":1257,"Ã¥n":1258,"ĠCh":1259,"Ġek":1260,"Ġudvikling":1261,"pen":1262,"Ġbedre":1263,"svar":1264,"âĢ¦":1265,"Ġmindre":1266,"Ġbog":1267,"ĠÃ¦nd":1268,"Ġproblem":1269,"Ġ15":1270,"Ġlok":1271,"Der":1272,"ĠrÃ¦kke":1273,"ces":1274,"skri":1275,"Ġuddann":1276,"Ġsmu":1277,"Ġkvalitet":1278,"ledes":1279,"line":1280,"iljÃ¸":1281,"Ġnyt":1282,"Ġhans":1283,"Ġsvar":1284,"iger":1285,"eter":1286,"ĠlÃ¦r":1287,"Ġpoli":1288,"vs":1289,"stilling":1290,"Ġfamil":1291,"Ġdage":1292,"Ã¦rk":1293,"ĠSp":1294,"sted":1295,"Ġfly":1296,"holder":1297,"vir":1298,"olen":1299,"000":1300,"indelse":1301,"ĠmÃ¥neder":1302,"rev":1303,"Ġoplysninger":1304,"Ġmit":1305,"Ġhjem":1306,"ĠkrÃ¦":1307,"Ġdelt":1308,"),":1309,"hÃ¦ng":1310,"iet":1311,"slag":1312,"ĠsmÃ¥":1313,"meld":1314,"gÃ¥r":1315,"ĠKommune":1316,"Ġkomp":1317,"ĠfÃ¥et":1318,"derne":1319,"EN":1320,"Ġkvinder":1321,"byg":1322,"ss":1323,"Ġhistor":1324,"by":1325,"Ġ12":1326,"ĠAr":1327,"all":1328,"mod":1329,"ĠfortÃ¦l":1330,"fik":1331,"Ġtager":1332,"Ġblandt":1333,"Ġhvilket":1334,"Ġverden":1335,"Ġkli":1336,"Ġkort":1337,"Ġligger":1338,"Ġpo":1339,"iden":1340,"undt":1341,"vice":1342,"ĠstÃ¥r":1343,"Ġred":1344,"Ġlet":1345,"ĠOp":1346,"indes":1347,"cent":1348,"Ġsted":1349,"rÃ¦n":1350,"Ġstadig":1351,"For":1352,"Ġendnu":1353,"tidig":1354,"Ġgj":1355,"Ġhjemmeside":1356,"antas":1357,"Ġudvalg":1358,"Ġkn":1359,"Ġbor":1360,"Ġmennesker":1361,"ĠfÃ¸rst":1362,"Ġanvend":1363,"Ġtre":1364,"Ġmodt":1365,"ĠDette":1366,"Ġben":1367,"Ġekst":1368,"uden":1369,"ĠhÃ¥r":1370,"Ġinteres":1371,"vt":1372,"konom":1373,"vel":1374,"ĠÃ¥rs":1375,"Ġ&":1376,"Hvis":1377,"Ġdire":1378,"Ġ/":1379,"ĠHvor":1380,"Ġtilbud":1381,"ink":1382,"alen":1383,"trÃ¦":1384,"eks":1385,"ĠvÃ¦lge":1386,"Ġgange":1387,"Ġopg":1388,"Ġaktiv":1389,"ateri":1390,"Ġbu":1391,"okus":1392,"Ġmassage":1393,"ĠAf":1394,"Ġnr":1395,"Ġmine":1396,"Ġhus":1397,"terer":1398,"ĠVed":1399,"Ġlave":1400,"Ġklar":1401,"ek":1402,"telse":1403,"fon":1404,"ia":1405,"Ġforbindelse":1406,"lade":1407,"ration":1408,"fil":1409,"Ġhal":1410,"Ġvirkelig":1411,"semp":1412,"Ġtv":1413,"Ġpl":1414,"io":1415,"ĠlÃ¦se":1416,"Ġka":1417,"ĠâĢľ":1418,"gt":1419,"udv":1420,"Ġstyr":1421,"tim":1422,"Ġegen":1423,"br":1424,"ĠfÃ¦lles":1425,"bef":1426,"stand":1427,"anske":1428,"plan":1429,"beh":1430,"ĠÃ©":1431,"ande":1432,"ĠLÃ¦s":1433,"mid":1434,"Ġunge":1435,"Ġord":1436,"fe":1437,"ĠlÃ¦ngere":1438,"omrÃ¥":1439,"omp":1440,"skaber":1441,"Ġstart":1442,"En":1443,"tede":1444,"ore":1445,"Ġis":1446,"ĠNÃ¥r":1447,"Ġhoved":1448,"bud":1449,"ck":1450,"syn":1451,"Ġfantas":1452,"ĠbesÃ¸g":1453,"sfor":1454,"Ġpa":1455,"Ġfag":1456,"Ġfindes":1457,"Ġbolig":1458,"Ġonline":1459,"Ã¦nge":1460,"Ġstort":1461,"Du":1462,"brug":1463,"ultur":1464,"formation":1465,"Ġofte":1466,"rig":1467,"ĠmÃ¥ned":1468,"Ġprodukter":1469,"IN":1470,"ĠfÃ¦r":1471,"oer":1472,"dom":1473,"ĠAlle":1474,"Ġpra":1475,"ĠÃħ":1476,"ader":1477,"rik":1478,"mar":1479,"ĠSam":1480,"omme":1481,"mind":1482,"van":1483,"ĠindlÃ¦g":1484,"Ġpriv":1485,"Ġsynes":1486,"Ġmens":1487,"nen":1488,"our":1489,"Ġvis":1490,"ĠstÃ¸rre":1491,"ĠhjÃ¦lpe":1492,"Ġ14":1493,"Ġca":1494,"mail":1495,"Ġfokus":1496,"Ġset":1497,"agen":1498,"Ġ11":1499,"lerne":1500,"Ġsel":1501,"tu":1502,"Ġomf":1503,"Ġ.":1504,"ytte":1505,"Ġsol":1506,"Ġfolk":1507,"Ġund":1508,"Ġallerede":1509,"Ġtur":1510,"rog":1511,"ering":1512,"Ġbehandling":1513,"ejl":1514,"Ġbetal":1515,"Ġmad":1516,"Den":1517,"ĠlÃ¦g":1518,"ue":1519,"Ġstra":1520,"gÃ¸relse":1521,"Ġsoci":1522,"teret":1523,"Ġhurtigt":1524,"fri":1525,"ĠsvÃ¦r":1526,"Ġudt":1527,"par":1528,"Ġbev":1529,"ĠmÃ¦nd":1530,"Ã¦d":1531,"ĠtilfÃ¦l":1532,"ys":1533,"201":1534,"ĠtÃ¦t":1535,"non":1536,"Ġth":1537,"rag":1538,"atte":1539,"Ġsommer":1540,"lut":1541,"Ġlangt":1542,"Ġeksemp":1543,"ire":1544,"ym":1545,"drig":1546,"ĠkÃ¦r":1547,"app":1548,"Ġarbejds":1549,"Ġbestil":1550,"ital":1551,"Ġvidere":1552,"urder":1553,"Ġkor":1554,"aktisk":1555,"olle":1556,"Ġbetyder":1557,"tiv":1558,"ĠDenne":1559,"Ã¸v":1560,"ift":1561,"Ġvin":1562,"Ġsine":1563,"Ġdri":1564,"Ġber":1565,"Ġsikre":1566,"Ġgik":1567,"Ġforh":1568,"ga":1569,"Ġholde":1570,"Ġdej":1571,"ĠrÃ¥d":1572,"Ġtidligere":1573,"gelig":1574,"Ġmang":1575,"ĠkÃ¸":1576,"Ġ30":1577,"ĠnÃ¸dvend":1578,"ign":1579,"Ġrig":1580,"Ġsund":1581,"Ġporn":1582,"Ġgar":1583,"Ġrest":1584,"snit":1585,"Ġvoks":1586,"Ã¦de":1587,"Ġmus":1588,"ĠlÃ¸s":1589,"ighed":1590,"Ġyder":1591,"cen":1592,"lever":1593,"Ġaldrig":1594,"ider":1595,"Ġ16":1596,"ron":1597,"uder":1598,"Ġ[":1599,"Ġrundt":1600,"mt":1601,"anis":1602,"ĠkÃ¸be":1603,"Ġvirksomhed":1604,"Ġsige":1605,"Ġ2015":1606,"vÃ¦rk":1607,"Ġstand":1608,"Â«":1609,"Ġac":1610,"urop":1611,"Ġanbef":1612,"ai":1613,"Ġfunktion":1614,"Ġmedarbej":1615,"ags":1616,"Ġkrop":1617,"Ġstk":1618,"ykke":1619,"Ġerhver":1620,"Ġviser":1621,"Ġopd":1622,"Ġforet":1623,"sy":1624,"Ġkar":1625,"ĠRe":1626,"rip":1627,"Ġrejse":1628,"ori":1629,"taget":1630,"Ġplads":1631,"ank":1632,"Ġpart":1633,"Ġbry":1634,"terne":1635,"lo":1636,"Ġ:":1637,"ftig":1638,"Ġbruges":1639,"irk":1640,"Ġpenge":1641,"ĠHvad":1642,"fÃ¸rt":1643,"ĠspÃ¦n":1644,"ĠEt":1645,"Ġviden":1646,"kommen":1647,"Ġlavet":1648,"Ġherunder":1649,"rist":1650,"Ġadgang":1651,"Ġdyr":1652,"Ġeffe":1653,"elte":1654,"endte":1655,"Ġbilleder":1656,"bo":1657,"Ġ17":1658,"Ãĺ":1659,"Ġvia":1660,"otel":1661,"Ġhende":1662,"Ġhu":1663,"ay":1664,"Ġprojekt":1665,"Ġbehov":1666,"Ġekstra":1667,"Ġdy":1668,"ment":1669,"ĠnÃ¦ste":1670,"Ġfal":1671,"Ġkonk":1672,"iveau":1673,"unde":1674,"Ġtekn":1675,"Ã¦ss":1676,"Ġprodukt":1677,"St":1678,"Ġ13":1679,"uelle":1680,"Ġkontakt":1681,"Ġfuld":1682,"Ġresult":1683,"Ġorg":1684,"Ġopf":1685,"Ġvigtigt":1686,"fÃ¦r":1687,"Ã¸rende":1688,"prÃ¦":1689,"utter":1690,"Ã¦rke":1691,"OR":1692,"orgen":1693,"Ġerfar":1694,"Ġdirekte":1695,"Ġ25":1696,"Ġblot":1697,"grund":1698,"Ġjob":1699,"ĠHar":1700,"Ġakti":1701,"vor":1702,"Ġuge":1703,"Ġarbejder":1704,"skabet":1705,"ĠÃ¸v":1706,"Ġren":1707,"ĠaltsÃ¥":1708,"mb":1709,"one":1710,"Ġsamarbejde":1711,"Ġblog":1712,"ors":1713,"spil":1714,"ĠskÃ¸n":1715,"Ġindhold":1716,"visning":1717,"Ġgamle":1718,"Ġkur":1719,"ĠMan":1720,"Ġbo":1721,"ession":1722,"blik":1723,"uds":1724,"vand":1725,"mmet":1726,"Ġtiden":1727,"ligvis":1728,"Ġhaft":1729,"leje":1730,"fra":1731,"cort":1732,"Ġejend":1733,"Ġafsl":1734,"ĠÃ©n":1735,"Ġansvar":1736,"ensen":1737,"Ġpla":1738,"ĠEl":1739,"ogle":1740,"nere":1741,"ĠvÃ¦rdi":1742,"ts":1743,"Ġaft":1744,"ĠsÃ¸ger":1745,"Ġ2014":1746,"ĠÃ¸konom":1747,"Ġener":1748,"Ġfaktisk":1749,"Ġbel":1750,"ĠstÃ¸rste":1751,"ĠDerfor":1752,"ise":1753,"elefon":1754,"Ġhvert":1755,"Ġju":1756,"rede":1757,"marks":1758,"ationen":1759,"menter":1760,"ĠstÃ¸":1761,"Ġnemlig":1762,"ps":1763,"Ã¸ge":1764,"Ã¸je":1765,"ppe":1766,"Ġskabe":1767,"Ġfleste":1768,"Ġge":1769,"Ã¸se":1770,"Ġsalg":1771,"ate":1772,"ved":1773,"ĠkÃ¸r":1774,"Ġindk":1775,"Ġflot":1776,"tra":1777,"Ġfer":1778,"Ġsamtidig":1779,"Ġigennem":1780,"Ġvirksomheder":1781,"ĠEfter":1782,"Ġbud":1783,"alet":1784,"stÃ¦nd":1785,"ĠspÃ¦ndende":1786,"ders":1787,"ĠnÃ¦sten":1788,"Ġko":1789,"Ġstedet":1790,"10":1791,"ĠÂ»":1792,"Ġmil":1793,"ĠÃ¦g":1794,"Ġudfor":1795,"bar":1796,"ĠfÃ¸d":1797,"orden":1798,"Ġ...":1799,"Ġoplevelse":1800,"lemmer":1801,"Ġbeslut":1802,"Ġful":1803,"alis":1804,"ĠsÃ¥ledes":1805,"giver":1806,"Ġaut":1807,"Ġlej":1808,"ĠgÃ¦lder":1809,"ww":1810,"Ġhendes":1811,"deling":1812,"Ġteg":1813,"aly":1814,"AN":1815,"ĠMar":1816,"Ġhin":1817,"ĠundersÃ¸g":1818,"Ġ,":1819,"Ġkal":1820,"Ġfre":1821,"Ã¦st":1822,"Ġtog":1823,"unden":1824,"iteter":1825,"ĠAt":1826,"sent":1827,"Ġjul":1828,"Ġmindst":1829,"rÃ¥d":1830,"skud":1831,"Ġ100":1832,"Ġmor":1833,"Ġopret":1834,"ote":1835,"Ġuger":1836,"Ġinsp":1837,"Ġgu":1838,"Ġsj":1839,"Ġgrupp":1840,"nede":1841,"Ġgiv":1842,"omst":1843,"ylland":1844,"grupp":1845,"Ġdele":1846,"Ġeng":1847,"olitik":1848,"satte":1849,"ĠOm":1850,"Ġtab":1851,"uni":1852,"ĠSom":1853,"com":1854,"bil":1855,"ening":1856,"orer":1857,"ĠÃ¸je":1858,"estil":1859,"edes":1860,"Ġaccep":1861,"Ġsyg":1862,"ĠHun":1863,"ou":1864,"Ã¥et":1865,"Ġeksempel":1866,"uddann":1867,"Ġbegynd":1868,"Ġenkelte":1869,"pro":1870,"off":1871,"Ġevent":1872,"Ġ2016":1873,"lagt":1874,"Ġ%":1875,"ĠlÃ¥":1876,"int":1877,"Ġtale":1878,"dres":1879,"ĠopmÃ¦r":1880,"Ġtal":1881,"Ġvist":1882,"rum":1883,"tering":1884,"Ã¥ret":1885,"Ġmateri":1886,"ĠfÃ¸lge":1887,"Ġmid":1888,"orde":1889,"syk":1890,"ĠReg":1891,"Sk":1892,"arbejdet":1893,"fÃ¸lgelig":1894,"Ġenkelt":1895,"Ġes":1896,"Ã¦der":1897,"Ġmaj":1898,"ansk":1899,"ask":1900,"ĠPr":1901,"Ġpri":1902,"Ġhvilke":1903,"elserne":1904,"Ġnavn":1905,"ĠnÃ¦rm":1906,"ED":1907,"ben":1908,"Ġtaget":1909,"ĠNord":1910,"Ġsikkert":1911,"Ã¸rn":1912,"Ġservice":1913,"fic":1914,"Ġindeholder":1915,"Ã¸ren":1916,"Ġlin":1917,"EL":1918,"dat":1919,"anu":1920,"ĠsvÃ¦rt":1921,"Ġtror":1922,"dent":1923,"Ġ2013":1924,"Ġste":1925,"ure":1926,"ĠtilfÃ¦lde":1927,"Ġsker":1928,"Ġfjer":1929,"Ġsat":1930,"Ġskrive":1931,"Ġmo":1932,"ĠfortsÃ¦t":1933,"Ġude":1934,"Ġannon":1935,"Ġinv":1936,"Ġab":1937,"Ġmuligheder":1938,"Ġnetop":1939,"sf":1940,"Ġno":1941,"akter":1942,"oven":1943,"Ġmedlem":1944,"Ġslet":1945,"pport":1946,"ĠfÃ¸lgende":1947,"Ġstat":1948,"Ġantal":1949,"ĠY":1950,"Denne":1951,"De":1952,"ften":1953,"arts":1954,"ĠforstÃ¥":1955,"Ġkig":1956,"ĠsÃ¦l":1957,"Ã¦m":1958,"ĠGr":1959,"Ġbedst":1960,"ikring":1961,"Ġtilbyder":1962,"Ġfod":1963,"anter":1964,"ceret":1965,"deren":1966,"ĠmÃ¸d":1967,"ĠKl":1968,"Ġris":1969,"estyr":1970,"jerg":1971,"yde":1972,"Ġfy":1973,"Ġtop":1974,"Ġhinanden":1975,"Ġkri":1976,"ativ":1977,"Ġmail":1978,"ĠFr":1979,"ĠDa":1980,"Ãħ":1981,"efter":1982,"ĠOver":1983,"akke":1984,"Ġpiger":1985,"Ġkrav":1986,"ĠKon":1987,"rol":1988,"kort":1989,"Ġfilm":1990,"Ġkamp":1991,"erer":1992,"Ġalmind":1993,"Ġhyg":1994,"Ġcent":1995,"ÃĨ":1996,"reds":1997,"ĠlÃ¦nge":1998,"Ġtro":1999,"skil":2000,"holde":2001,"Ġev":2002,"Ġmet":2003,"kv":2004,"Ġbrugt":2005,"bold":2006,"ĠDanmarks":2007,"Ġkvinde":2008,"Ġinformation":2009,"kendt":2010,"Ġnorm":2011,"amer":2012,"oler":2013,"Ã¦ld":2014,"ST":2015,"NÃ¥r":2016,"ance":2017,"Ġkap":2018,"ct":2019,"Ġmorgen":2020,"ĠopmÃ¦rksom":2021,"Ġforbed":2022,"ĠDansk":2023,"ax":2024,"Ġopdater":2025,"ivers":2026,"ograf":2027,"Ġprof":2028,"vid":2029,"stre":2030,"aven":2031,"ĠsÃ¦tte":2032,"givet":2033,"yldt":2034,"Ġkultur":2035,"Ġ2018":2036,"ĠforÃ¦ldre":2037,"Ġbarn":2038,"ĠmÃ¸de":2039,"itter":2040,"lej":2041,"fl":2042,"Ġter":2043,"Ġpasser":2044,"Ġenhver":2045,"Ġsuper":2046,"Ġbestem":2047,"ĠfÃ¸":2048,"ages":2049,"Ġide":2050,"Ġudgang":2051,"Ġdata":2052,"ĠselvfÃ¸lgelig":2053,"Ġban":2054,"ĠgrÃ¸n":2055,"ET":2056,"Ġvedr":2057,"Ġtimer":2058,"Ġpop":2059,"ĠEU":2060,"Ġ2017":2061,"uter":2062,"hedsb":2063,"Ġhjer":2064,"anti":2065,"tt":2066,"rej":2067,"Ġfamilie":2068,"Ġid":2069,"Ã¥let":2070,"fund":2071,"che":2072,"Ġprakti":2073,"Ġbred":2074,"ĠformÃ¥l":2075,"Ġaften":2076,"ĠisÃ¦r":2077,"uler":2078,"lingen":2079,"AT":2080,"ension":2081,"Ġelsker":2082,"Ġvurder":2083,"Ġvarer":2084,"Ġem":2085,"eren":2086,"reb":2087,"ĠSex":2088,"ĠÃ¸j":2089,"Ġbetyd":2090,"vn":2091,"Ġ24":2092,"kkes":2093,"ender":2094,"Ġfa":2095,"Ġmener":2096,"Ã¦nger":2097,"Ġsand":2098,"ryd":2099,"visor":2100,"anuar":2101,"ator":2102,"atisk":2103,"ĠJo":2104,"hand":2105,"Ġgjort":2106,"Ad":2107,"Ġsagde":2108,"Ġbegyn":2109,"ĠMin":2110,"Ġsenere":2111,"Ġskole":2112,"ĠsÃ¸ge":2113,"kning":2114,"Ġmusik":2115,"Ġhandler":2116,"Ġindt":2117,"Ġhj":2118,"Ã¸ver":2119,"anset":2120,"Ġsti":2121,"tioner":2122,"ĠBil":2123,"arer":2124,"att":2125,"ĠlÃ¸bet":2126,"Ġkunst":2127,"ĠstÃ¸rr":2128,"Ġmasse":2129,"Ġnemt":2130,"Ġlog":2131,"ative":2132,"Ġlaver":2133,"Ġ50":2134,"Ġrigtige":2135,"Ġne":2136,"use":2137,"ess":2138,"ĠfortÃ¦ller":2139,"ologi":2140,"Ġlyst":2141,"aur":2142,"Ġprivat":2143,"ĠlÃ¦kker":2144,"Ġ'":2145,"Ġelever":2146,"iller":2147,"Ġhverdag":2148,"Ġholder":2149,"ĠNy":2150,"vÃ¦rende":2151,"ell":2152,"Ã¸der":2153,"Ġstar":2154,"ĠrÃ¥":2155,"Ġlev":2156,"ĠdrÃ¸":2157,"ĠbÃ¸rne":2158,"pper":2159,"Ġ21":2160,"ĠAnd":2161,"Ġregn":2162,"Ġprogra":2163,"ĠhÃ¸jt":2164,"stitu":2165,"Ġmoder":2166,"Ġpersoner":2167,"Ġmob":2168,"Ġhens":2169,"udvalg":2170,"sÃ¦tning":2171,"ober":2172,"Ġbro":2173,"....":2174,"Ã¦son":2175,"Ġfejl":2176,"Ġgrad":2177,"Ġartik":2178,"ĠTe":2179,"Ã¸st":2180,"SA":2181,"center":2182,"Ġsagt":2183,"ĠUnder":2184,"Ġung":2185,"Ġford":2186,"ligheder":2187,"ĠtÃ¸r":2188,"rige":2189,"krÃ¦":2190,"Ã¸jer":2191,"sport":2192,"Ġliges":2193,"Ã¦rer":2194,"Ġtan":2195,"Ġfantastisk":2196,"PÃ¥":2197,"ĠÃ¦n":2198,"Ġro":2199,"Ġrel":2200,"Al":2201,"retning":2202,"ĠbÃ¸ger":2203,"ING":2204,"liv":2205,"Ġarbejdet":2206,"Ġperfe":2207,"ĠLe":2208,"ĠdÃ¦":2209,"sv":2210,"Ġvind":2211,"minist":2212,"Ġhvorfor":2213,"AR":2214,"Ġforvent":2215,"Ġregist":2216,"ina":2217,"mand":2218,"Ġvarme":2219,"ĠsÃ¦tter":2220,"Ġskriver":2221,"Ġindsat":2222,"hop":2223,"ĠÃ¦ldre":2224,"orter":2225,"dene":2226,"ĠlÃ¦re":2227,"ytter":2228,"Ġ2012":2229,"bu":2230,"Ġcyk":2231,"fÃ¸re":2232,"Ġsteder":2233,"inge":2234,"Ġinkl":2235,"linger":2236,"Ġhalv":2237,"endelse":2238,"kÃ¥r":2239,"Ġbas":2240,"Ġtilg":2241,"eten":2242,"he":2243,"sdag":2244,"ligevel":2245,"ĠÃ¦ndre":2246,"Ġoffent":2247,"vember":2248,"Ġforud":2249,"ĠVej":2250,"bat":2251,"ann":2252,"ĠmiljÃ¸":2253,"Ġindtil":2254,"30":2255,"ĠomrÃ¥de":2256,"Ġproblemer":2257,"ful":2258,"Ġellers":2259,"lÃ¸s":2260,"Ġbehand":2261,"Ġopn":2262,"ĠhÃ¸r":2263,"Ġeneste":2264,"Ġja":2265,"ations":2266,"ĠTV":2267,"Ġeget":2268,"Ġsamlet":2269,"--":2270,"Ġpopul":2271,"Ø±":2272,"vÃ¦rre":2273,"Ġposi":2274,"ktur":2275,"ĠNu":2276,"Ġdesign":2277,"Ġjuni":2278,"Ġklub":2279,"ons":2280,"varer":2281,"ĠvÃ¦k":2282,"ruger":2283,"Ã¦vn":2284,"otor":2285,"Ġfald":2286,"Ġtelefon":2287,"SÃ¥":2288,"iste":2289,"tiden":2290,"Ġudg":2291,"Ġskrevet":2292,"Ã¦ssige":2293,"Ġbegge":2294,"Ġski":2295,"ĠkrÃ¦ver":2296,"produ":2297,"nation":2298,"aller":2299,"Ġenten":2300,"Ġbilled":2301,"jekter":2302,"Ġpsyk":2303,"aling":2304,"ivl":2305,"Ġfx":2306,"Ġhjemme":2307,"arbejd":2308,"ĠkÃ¸kken":2309,"ĠfrÃ¦":2310,"Ġheller":2311,"ripAd":2312,"ĠtÃ¸j":2313,"ykker":2314,"Ġrisik":2315,"ĠmÃ¥tte":2316,"ningerne":2317,"Ġslut":2318,"Ġyderligere":2319,"ĠvÃ¦lger":2320,"leks":2321,"Ġsprog":2322,"Ġlys":2323,"esp":2324,"Ã¦ster":2325,"aa":2326,"11":2327,"ommen":2328,"ĠnÃ¸g":2329,"ĠsÃ¸g":2330,"kkede":2331,"ikke":2332,"ĠstÃ¥":2333,"Ġleder":2334,"Ġindenfor":2335,"mens":2336,"ĠkÃ¸re":2337,"atet":2338,"pl":2339,"sels":2340,"Ġmodtage":2341,"bog":2342,"ĠdÃ¥r":2343,"Ġkunder":2344,"Ġlivet":2345,"ite":2346,"Ġpriser":2347,"Til":2348,"Ġhotel":2349,"Ġfarver":2350,"icin":2351,"Ġmedlemmer":2352,"Ġuddannelse":2353,"Her":2354,"Ġporno":2355,"Ã©r":2356,"Ġuds":2357,"Ġjanuar":2358,"Ġpati":2359,"rÃ¦t":2360,"Ġbestemt":2361,"Ġvid":2362,"cem":2363,"jÃ¦lp":2364,"Ġkommet":2365,"Ġfire":2366,"Ġfysi":2367,"Ġskyld":2368,"givning":2369,"Ġdermed":2370,"ban":2371,"ods":2372,"ĠlÃ¦s":2373,"Ġsyge":2374,"Ġcm":2375,"ĠPro":2376,".,":2377,"Ġpersonlige":2378,"Ã¥ber":2379,"ktioner":2380,"ĠKv":2381,"Ġmodtag":2382,"Ġmon":2383,"Ġene":2384,"bl":2385,"Ġdagen":2386,"'s":2387,"ikker":2388,"ripAdvisor":2389,"holm":2390,"fÃ¸lge":2391,"Ġdok":2392,"ĠprÃ¸ve":2393,"Ġlokale":2394,"ĠArbej":2395,"ĠhjÃ¦lper":2396,"Ġstud":2397,"Ġbestyr":2398,"Ġmodtager":2399,"Ġnord":2400,"Ġsitu":2401,"ium":2402,"Ġretur":2403,"irma":2404,"Men":2405,"ĠBl":2406,"Ġforeg":2407,"Ø±Ø±":2408,"Ġvelkommen":2409,"ĠBe":2410,"ose":2411,"Ġvirker":2412,"Ġseneste":2413,"rat":2414,"Ġsystem":2415,"Ġenergi":2416,"spr":2417,"Ġoven":2418,"erefter":2419,"ener":2420,"Ġhvilken":2421,"ins":2422,"Ġmarked":2423,"esten":2424,"Ġorganis":2425,"ktober":2426,"dition":2427,"50":2428,"ĠEurop":2429,"Med":2430,"lende":2431,"Ġfem":2432,"Ġudb":2433,"assi":2434,"ĠAar":2435,"Ġminutter":2436,"mu":2437,"fatter":2438,"12":2439,"Ġkonkur":2440,"Ġanmeld":2441,"Ġcomp":2442,"IL":2443,"Ã¦dag":2444,"Ġhjemmesiden":2445,"ht":2446,"ĠÃ¸nsk":2447,"Ġtak":2448,"ĠgÃ¦ldende":2449,"mmelse":2450,"uel":2451,"yrer":2452,"Ġferie":2453,"hen":2454,"Ġtidspunkt":2455,"Ã¦dagog":2456,"ON":2457,"uer":2458,"Ġmasser":2459,"Ġtvivl":2460,"ĠHol":2461,"stat":2462,"Ġmarts":2463,"Ġprofession":2464,"Ġfandt":2465,"jylland":2466,"Ġarbejdsm":2467,"Ġru":2468,"frem":2469,"akte":2470,"Ġjeres":2471,"ich":2472,"Ġvideo":2473,"Ġapp":2474,"vil":2475,"Ġudgangspunkt":2476,"Ġhistorie":2477,"Ġses":2478,"Ġseks":2479,"ĠÃħr":2480,"Ġnyhedsb":2481,"Ġfot":2482,"Ġsimp":2483,"Ġfundet":2484,"Ġsmukke":2485,"edt":2486,"Ã¦ftig":2487,"Ġ199":2488,"Ġbid":2489,"cember":2490,"iode":2491,"da":2492,"gifter":2493,"rup":2494,"Ġhvem":2495,"stÃ¥r":2496,"kkende":2497,"huset":2498,"Ġsek":2499,"Ġbillede":2500,"Ġkender":2501,"Ġalligevel":2502,"Ġescort":2503,"ikling":2504,"Ġfol":2505,"udover":2506,"Ġtekst":2507,"Ġkontrol":2508,"Ġudford":2509,"Ġy":2510,"Ġmedarbejdere":2511,"Ġnettet":2512,"abler":2513,"lader":2514,"Ġimp":2515,"ĠforsÃ¸g":2516,"Ġanvendes":2517,"ĠbekrÃ¦":2518,"Ġwebsi":2519,"elighed":2520,"Ġregler":2521,"SK":2522,"Ġpige":2523,"ĠtilgÃ¦ng":2524,"ogn":2525,"Ġ22":2526,"Ġnovember":2527,"ĠbegrÃ¦n":2528,"Ġerhvervs":2529,"Ġang":2530,"Ġrele":2531,"rav":2532,"inister":2533,"strÃ¦":2534,"Ġur":2535,"ument":2536,"Ġ2011":2537,"Ġpass":2538,"pril":2539,"tter":2540,"uelt":2541,"Ġselvom":2542,"Ġluft":2543,"Ġmis":2544,"Ġdisk":2545,"ove":2546,"Ġniveau":2547,"Ġganske":2548,"Ġsep":2549,"ip":2550,"In":2551,"orte":2552,"agra":2553,"Ġbaggrund":2554,"ile":2555,"Ġgjorde":2556,"Ã¥nden":2557,"assen":2558,"Ġ|":2559,"Ġakt":2560,"Ġudstyr":2561,"Ġstille":2562,"stÃ¦ndig":2563,"Ġ40":2564,"ĠRo":2565,"ĠGo":2566,"abel":2567,"âĢĿ.":2568,"Ġbef":2569,"fÃ¸rer":2570,"ygt":2571,"Ġspiller":2572,"vÃ¦g":2573,"ress":2574,"ack":2575,"ĠFreder":2576,"tember":2577,"Ġsc":2578,"egn":2579,"ĠÂ§":2580,"Ġsider":2581,"Ġwww":2582,"ĠgÃ¥et":2583,"fÃ¦rd":2584,"ugust":2585,"holdt":2586,"Ġborger":2587,"vende":2588,"spro":2589,"elsk":2590,"Ġfordel":2591,"ĠlÃ¦ge":2592,"Ġegne":2593,"ladser":2594,"Ġligesom":2595,"Ġbeste":2596,"ĠBr":2597,"jerne":2598,"Ġalene":2599,"Ġforn":2600,"Ġ#":2601,"Ġtjen":2602,"Er":2603,"egnet":2604,"Ġaktiver":2605,"Ġhe":2606,"Ġsidder":2607,"ðŁ":2608,"splan":2609,"ĠsÃ¦rligt":2610,"Ġtred":2611,"Ġhed":2612,"Ġtillad":2613,"ĠskÃ¦r":2614,"Ġlade":2615,"ĠX":2616,"Ġsej":2617,"Ġmidt":2618,"ĠstÃ¸tte":2619,"Ġske":2620,"Ġfred":2621,"her":2622,"ĠSide":2623,"Ġmobil":2624,"Ġforkl":2625,"Ġul":2626,"erede":2627,"ĠprÃ¦c":2628,"ĠHvordan":2629,"ĠDes":2630,"ĠKan":2631,"\".":2632,"Ã¸rne":2633,"19":2634,"Ġtilmel":2635,"anlÃ¦g":2636,"vender":2637,"Ġlande":2638,"trol":2639,"ĠgÃ¦ster":2640,"ĠtÃ¦nke":2641,"ĠZ":2642,"Ġmilli":2643,"ovedet":2644,"berg":2645,"ĠomrÃ¥det":2646,"ĠlÃ¸n":2647,"ĠSund":2648,"ĠhÃ¸re":2649,"Ġstri":2650,"Ã¦rker":2651,"âĢĿ,":2652,"Ã¦lg":2653,"Ġkontakte":2654,"tighed":2655,"ĠfÃ¦rdig":2656,"ĠTr":2657,"ĠNi":2658,"ond":2659,"ĠVores":2660,"ĠÃ¥ben":2661,"ĠLand":2662,"ĠafgÃ¸r":2663,"ladsen":2664,"Ġsjov":2665,"tel":2666,"Ġkost":2667,"Ġopskri":2668,"ll":2669,"agn":2670,"fÃ¸res":2671,"Ġ2010":2672,"ftet":2673,"ĠSelv":2674,"Ġautom":2675,"Ġlokal":2676,"ammer":2677,"pÃ¥":2678,"ĠFÃ¸r":2679,"oen":2680,"15":2681,"Ġdyb":2682,"risti":2683,"Ġhenhold":2684,"ĠAd":2685,"Ã¦ldende":2686,"Ġtran":2687,"yng":2688,"elsens":2689,"Ġpoliti":2690,"ĠhÃ¥ber":2691,"ars":2692,"Ġspise":2693,"ĠTripAdvisor":2694,"Ġpartnere":2695,"ktor":2696,"Ud":2697,"Ġdren":2698,"ĠhÃ¸jere":2699,"ici":2700,"ĠvÃ¦gt":2701,"Ġslags":2702,"Ġdecember":2703,"oci":2704,"lejer":2705,"ah":2706,"gere":2707,"Ġtru":2708,"irke":2709,"Ã¸rs":2710,"alog":2711,"Ġvise":2712,"gte":2713,"ĠgrÃ¦n":2714,"spe":2715,"Ġnav":2716,"Ġens":2717,"hje":2718,"ĠbestÃ¥r":2719,"ĠkÃ¦m":2720,"Ġvalgt":2721,"hÃ¸j":2722,"Ġbekendt":2723,"Ã¥ende":2724,"jÃ¦lland":2725,"lid":2726,"Ġbyen":2727,"ill":2728,"ĠSyd":2729,"Ã¸det":2730,"Ġwebsite":2731,"Ġsende":2732,"ĠansÃ¸g":2733,"Ġsli":2734,"feren":2735,"Ġoktober":2736,"Ġopgaver":2737,"Ġrestaur":2738,"Ġlejlighed":2739,"Ġnat":2740,"skl":2741,"aden":2742,"Ġevt":2743,"Ġbi":2744,"Ġgav":2745,"uderende":2746,"ĠanlÃ¦g":2747,"Ġlyd":2748,"Ġaccepterer":2749,"ach":2750,"Ġsamfund":2751,"Ġglad":2752,"ail":2753,"Ġvejen":2754,"Ġdesuden":2755,"ĠVÃ¦r":2756,"Ġudtryk":2757,"ĠKont":2758,"omrÃ¥det":2759,"Ġlandet":2760,"Ġkil":2761,"ĀĀ":2762,"ĠmÃ¦rke":2763,"alborg":2764,"ĠÃĨ":2765,"ÂŃ":2766,"iti":2767,"Ġfeb":2768,"rivelse":2769,"Ġrigtigt":2770,"Ġerfaring":2771,"ĠreprÃ¦":2772,"AL":2773,"lÃ¦":2774,"ĠtvÃ¦r":2775,"Ġgul":2776,"Ġsociale":2777,"apir":2778,"klub":2779,"Ġforan":2780,"ruar":2781,"oplysninger":2782,"Ġgaranti":2783,"ĠprÃ¦sen":2784,"sÃ¦tt":2785,"ĠdesvÃ¦rre":2786,"Ġfisk":2787,"Ġand":2788,"Ġforslag":2789,"pligt":2790,"Ġkomment":2791,"Ġimod":2792,"Ġkolle":2793,"bart":2794,"Ġproces":2795,"ĠAarhus":2796,"Ġryg":2797,"Ġkend":2798,"Ġapril":2799,"Ġsnart":2800,"ĠglÃ¦de":2801,"yttet":2802,"Ġjord":2803,"Ġkraft":2804,"Ġanaly":2805,"Ġinteresser":2806,"fald":2807,"bolig":2808,"ĠnÃ¥":2809,"forstÃ¥":2810,"Ġus":2811,"Ġstop":2812,"ral":2813,"Ã¦nder":2814,"Ġbillig":2815,"Ġ23":2816,"Ġdeltag":2817,"fÃ¸lgende":2818,"cept":2819,"Ġjf":2820,"\",":2821,"nende":2822,"Ġbuti":2823,"Ġsket":2824,"Ġ26":2825,"Ġgivet":2826,"stÃ¸":2827,"Ġof":2828,"ĠkÃ¸ber":2829,"Ġpres":2830,"Ġproduktion":2831,"Ġbetale":2832,"Ġtest":2833,"Ġoffentlig":2834,"ĠBer":2835,"ksis":2836,"ĠvÃ¦g":2837,"pris":2838,"!!":2839,"ĠsÃ¦son":2840,"Ġmangler":2841,"ild":2842,"Ġverdens":2843,"aren":2844,"entet":2845,"gelse":2846,"Ġuanset":2847,"Ġbygge":2848,"ĠtrÃ¦ning":2849,"Ġgeb":2850,"Ġx":2851,"Ġinst":2852,"eningen":2853,"leve":2854,"Ġkateg":2855,"Ġafslut":2856,"Ġvold":2857,"lin":2858,"ĠdÃ¸d":2859,"Ġfunger":2860,"Ġcomputer":2861,"Ġseptember":2862,"ĠfÃ¸lger":2863,"Ġelekt":2864,"fly":2865,"Ġfakt":2866,"ĠAlt":2867,"Ġhensyn":2868,"KK":2869,"Ġopr":2870,"ĠGod":2871,"aj":2872,"oc":2873,"ĠÃ¥ret":2874,"Ġindsam":2875,"Ġlag":2876,"nal":2877,"Ġspille":2878,"stillinger":2879,"ĠIndhold":2880,"Ġaktiviteter":2881,"gene":2882,"Ġvinter":2883,"Ġegentlig":2884,"18":2885,"Ġejer":2886,"Ġvenner":2887,"kÃ¸b":2888,"range":2889,"nummer":2890,"Ġ28":2891,"ktÃ¸r":2892,"Ġbegynder":2893,"sd":2894,"Ġderefter":2895,"Ġbook":2896,"Ã¸nder":2897,"rÃ¸m":2898,"Som":2899,"dighed":2900,"Ġhund":2901,"Ġinternation":2902,"Ġaftale":2903,"Ġmask":2904,"akker":2905,"tigt":2906,"dense":2907,"ĠsÃ¦rlig":2908,"Ġsidst":2909,"Ġoli":2910,"Ġsendt":2911,"ĠFol":2912,"Ġsmag":2913,"Ġgennemsnit":2914,"Ġmat":2915,"Ġkompeten":2916,"ph":2917,"fin":2918,"ĠrÃ¸d":2919,"port":2920,"ĠgrÃ¦":2921,"delse":2922,"ĠkÃ¦rlighed":2923,"Ġlager":2924,"ĠlÃ¦rer":2925,"sig":2926,"Og":2927,"Ġlide":2928,"vÃ¦rks":2929,"cces":2930,"Ġkomb":2931,"ĠkÃ¸n":2932,"ylder":2933,"reret":2934,"gaard":2935,"ĠGra":2936,"ommer":2937,"vin":2938,"Ġfarve":2939,"middel":2940,"mellem":2941,"âĢĭ":2942,"Ġafh":2943,"Ġvejledning":2944,"Ġvari":2945,"ĠSu":2946,"Ġ27":2947,"mÃ¥l":2948,"Ġnaturligvis":2949,"bli":2950,"ylde":2951,"Ġrum":2952,"Ġjule":2953,"ĠÃ¦r":2954,"ĠsjÃ¦l":2955,"Ġbetaling":2956,"ko":2957,"ĠÃ¦ndringer":2958,"arl":2959,"ĠomrÃ¥der":2960,"Ġsundhed":2961,"Ġkorre":2962,"ĠkÃ¸rer":2963,"Ã¦ring":2964,"sminister":2965,"Ġinternet":2966,"ĠHen":2967,"ĠmÃ¸r":2968,"Ġresultater":2969,"Ġvigtigste":2970,"Ã¥rs":2971,"ĠvedrÃ¸rende":2972,"ĠindgÃ¥":2973,"Ġfyr":2974,"IG":2975,"Ġkommunik":2976,"iration":2977,"ĠfortsÃ¦tter":2978,"ampe":2979,"Ġfug":2980,"Ġforl":2981,"aske":2982,"Ġtyd":2983,"Har":2984,"Ġfint":2985,"Ġrent":2986,"raft":2987,"Ġarbejdsp":2988,"ĠmÃ¸der":2989,"ace":2990,"ĠMassage":2991,"sÃ¦ttelse":2992,"Ġoffentlige":2993,"ras":2994,"kom":2995,"to":2996,"Ġstod":2997,"Ġfat":2998,"iversitet":2999,"An":3000,"estyrelsen":3001,"SE":3002,"ĠvÃ¦kst":3003,"Ġregion":3004,"ĠVil":3005,"ygge":3006,"ĠlÃ¦ser":3007,"Ġaugust":3008,"skole":3009,"ĠlÃ¸bende":3010,"ĠFra":3011,"ĠfÃ¸ler":3012,"Ġrette":3013,"Ġuddannelses":3014,"midler":3015,"Ġmoderne":3016,"ĠDanske":3017,"fo":3018,"ĠFrederik":3019,"valg":3020,"ysk":3021,"ĠidÃ©":3022,"tager":3023,"ĠvÃ¦rd":3024,"Ġblod":3025,"ktÃ¸j":3026,"ĠforlÃ¸b":3027,"Ġalvor":3028,"ĠbÃ¦r":3029,"ĠbehÃ¸ver":3030,"OL":3031,"Ġkommende":3032,"ĠUSA":3033,"Et":3034,"ĠbevÃ¦g":3035,"rivil":3036,"Ġsikkerhed":3037,"Ġadres":3038,"Ġmotor":3039,"Ġvoksne":3040,"udvalget":3041,"Ġbetydning":3042,"Ġdating":3043,"teres":3044,"Ġpost":3045,"mmes":3046,"Ġkendt":3047,"ĠmÃ¦ng":3048,"aner":3049,"merik":3050,"uen":3051,"atis":3052,"ette":3053,"ity":3054,"vÃ¦":3055,"Ġak":3056,"osp":3057,"denti":3058,"forlÃ¸b":3059,"Ã¸rger":3060,"ĠnÃ¸dvendigt":3061,"Ġtag":3062,"ĠOr":3063,"ĠopnÃ¥":3064,"Ġsyd":3065,"Ġpik":3066,"ĠEller":3067,"rigt":3068,"Ġadminist":3069,"ĠindkÃ¸b":3070,"ĠfortÃ¦lle":3071,"Ġdr":3072,"arm":3073,"Ġwe":3074,"Ġ2009":3075,"vare":3076,"ali":3077,"ĠðŁ":3078,"eskab":3079,"Ġ+":3080,"Ġprocent":3081,"14":3082,"ustri":3083,"Ved":3084,"rÃ¥det":3085,"behandling":3086,"Ġeffektiv":3087,"ĠlÃ¸":3088,"Ġdejlig":3089,"Ġoplevelser":3090,"Ġmulige":3091,"offer":3092,"Ġmm":3093,"tern":3094,"fort":3095,"Ġselskab":3096,"ĠtÃ¦nker":3097,"sÃ¦tte":3098,"usion":3099,"elu":3100,"elÃ¸b":3101,"alfor":3102,"ĠJes":3103,"kendelse":3104,"book":3105,"ristian":3106,"oms":3107,"Ġ29":3108,"Ġklasse":3109,"ĠpÃ¥vir":3110,"ringe":3111,"Ġfodbold":3112,"Ġbal":3113,"Ġtyp":3114,"ĠsÃ¦rlige":3115,"okol":3116,"rit":3117,"Efter":3118,"ktive":3119,"Ġyd":3120,"Ġkre":3121,"ĠSer":3122,"mÃ¦rk":3123,"16":3124,"rid":3125,"Ġgammel":3126,"Ġklart":3127,"sus":3128,"ĠMad":3129,"Ġpolitik":3130,"tage":3131,"ĠGud":3132,"mÃ¸de":3133,"Ġprofil":3134,"ansi":3135,"ĠhÃ¦":3136,"Ġmedicin":3137,"Ġinspir":3138,"Ġtilfreds":3139,"Ġborg":3140,"Ġbrugerne":3141,"Ġtredje":3142,"unkter":3143,"200":3144,"slut":3145,"hav":3146,"Ġbarnet":3147,"Ġnormalt":3148,"po":3149,"Ġsamlede":3150,"ĠKun":3151,"bes":3152,"ikken":3153,"Ġkarakter":3154,"Ġstykke":3155,"ystem":3156,"Ġob":3157,"Ġdom":3158,"Ġfremm":3159,"ĠNe":3160,"Ġoptim":3161,"viser":3162,"Ġbestille":3163,"Ġbetales":3164,"usk":3165,"Ġlagt":3166,"Ġtilp":3167,"Ġneden":3168,"Â»":3169,"igur":3170,"mad":3171,"ung":3172,"ologisk":3173,"aster":3174,"fuld":3175,"Ã¦ssigt":3176,"ĉĊ":3177,"Ġfebruar":3178,"ĠJoh":3179,"Ġetabler":3180,"ĠDat":3181,"Ġudvikle":3182,"Ġanvender":3183,"Ġkm":3184,"Ġprivate":3185,"Ġbegyndte":3186,"oft":3187,"deles":3188,"ander":3189,"Ġsku":3190,"bro":3191,"aff":3192,"ĠkÃ¸bt":3193,"iz":3194,"Ġtradition":3195,"ĠlÃ¸sning":3196,"ĠstÃ¸rrelse":3197,"Ġresten":3198,"Ġkroner":3199,"Ġmodel":3200,"yst":3201,"abil":3202,"ĠplanlÃ¦g":3203,"ingelser":3204,"Ġengang":3205,"Ġ60":3206,"Ġthai":3207,"Ġlad":3208,"Ġkonkurren":3209,"Ġsammenlig":3210,"rettet":3211,"Ġsundheds":3212,"Ġskaber":3213,"isten":3214,"yttelse":3215,"ĠbelÃ¸b":3216,"qu":3217,"Ġoplys":3218,"jort":3219,"sol":3220,"Ġlange":3221,"ĠâĢ¦":3222,"Ġvenlig":3223,"ĠIkke":3224,"Ġeksper":3225,"Ġinform":3226,"Ġkonkret":3227,"fag":3228,"stÃ¥ende":3229,"virksom":3230,"Ġâ":3231,"Ġordre":3232,"ĠHÃ¸j":3233,"mask":3234,"Ġstig":3235,"mus":3236,"Ġlink":3237,"drag":3238,"Ġbrow":3239,"Ġrekl":3240,"fun":3241,"ame":3242,"besk":3243,"des":3244,"ĠsammenhÃ¦ng":3245,"hjÃ¦lp":3246,"ĠDisse":3247,"tagelse":3248,"Ġdis":3249,"ivid":3250,"Ġskol":3251,"sÃ¦ttes":3252,"ĠÃ¥bne":3253,"kur":3254,"ase":3255,"ĠâĢĻ":3256,"Ġintet":3257,"ĠtrÃ¦n":3258,"Ġsport":3259,"otek":3260,"behÃ¸r":3261,"Ġgruppe":3262,"ĠMÃ¥":3263,"met":3264,"Ġfaste":3265,"Ġsucces":3266,"Ġopgave":3267,"Ġnyheder":3268,"Ġsocial":3269,"man":3270,"ĠÃ¦ndring":3271,"ĠnuvÃ¦rende":3272,"nas":3273,"gu":3274,"enser":3275,"Ġklassi":3276,"asin":3277,"ĠSÃ¥dan":3278,"elkommen":3279,"Ġkonst":3280,"ĠnÃ¦vn":3281,"ĠRegion":3282,"ales":3283,"gede":3284,"Ġerhverv":3285,"Ġudsk":3286,"ĠPar":3287,"Ġudf":3288,"Ġretning":3289,"ĠVar":3290,"co":3291,"ilke":3292,"Ġdetal":3293,"Ġnyde":3294,"Ġinteress":3295,"tionen":3296,"Ã¸rge":3297,"Ã¸get":3298,"Ġsimpelt":3299,"ĠlÃ¥n":3300,"Ġprin":3301,"ĠEs":3302,"Ġtry":3303,"obb":3304,"Ġpark":3305,"Ġspr":3306,"ĠSte":3307,"Ġtit":3308,"Ġsal":3309,"idst":3310,"Ġdigit":3311,"Ġark":3312,"OM":3313,"Ġmodtaget":3314,"Ġvare":3315,"lemm":3316,"Ġsh":3317,"ĠGoogle":3318,"ioden":3319,"tive":3320,"ĠbÃ¸rnene":3321,"Ã¦b":3322,"omster":3323,"ĠstÃ¦rk":3324,"Ġfungerer":3325,"Ġspecielt":3326,"Ġperiode":3327,"Ġhelst":3328,"17":3329,"Ġautomatisk":3330,"Ġperfekt":3331,"udt":3332,"Ġpraksis":3333,"Ġforbedre":3334,"Ġbur":3335,"Ġflyt":3336,"ash":3337,"Ġkonse":3338,"system":3339,"sikring":3340,"ND":3341,"kald":3342,"gade":3343,"Ġleve":3344,"Ġartikel":3345,"ĠpÃ¦dagog":3346,"kre":3347,"Ġsender":3348,"ĠAndre":3349,"Ġdrift":3350,"Ind":3351,"ante":3352,"Ġhedder":3353,"ĠundgÃ¥":3354,"Ġosv":3355,"Ġkunde":3356,"redit":3357,"ĠHans":3358,"Ġbryster":3359,"omrÃ¥de":3360,"ĠâĢĭ":3361,"plads":3362,"Ġstuderende":3363,"Ġimellem":3364,"ĠkÃ¦mpe":3365,"13":3366,"Se":3367,"Ġindsats":3368,"Ġtrods":3369,"ĠprÃ¦cis":3370,"emÃ¦rk":3371,"rand":3372,"ymnas":3373,"onne":3374,"ld":3375,"ĠPeter":3376,"Ġkol":3377,"ĠAalborg":3378,"kr":3379,"Ġinspiration":3380,"ancer":3381,"Ġophold":3382,"ĠefterfÃ¸lgende":3383,"ĠÃ¦gte":3384,"arbejder":3385,"ĠBÃ¸rn":3386,"ĠPer":3387,"yndig":3388,"vad":3389,"Ġpenis":3390,"mÃ¥":3391,"ĠvilkÃ¥r":3392,"oret":3393,"nr":3394,"dage":3395,"Ġrom":3396,"sst":3397,"-)":3398,"fal":3399,"Ġinstru":3400,"Ġudelu":3401,"isering":3402,"Ġskrev":3403,"ĠSch":3404,"Ġvedlige":3405,"Ġleje":3406,"Ġkroppen":3407,"ĠÃ¸nske":3408,"ndag":3409,"Ġopleve":3410,"imum":3411,"Ġkonf":3412,"somt":3413,"ID":3414,"Ġsygdom":3415,"Ã¦nk":3416,"trodu":3417,"ragt":3418,"Ġskyldes":3419,"ĠHver":3420,"Ġnation":3421,"ĠafhÃ¦ng":3422,"Ġmar":3423,"Ġudtry":3424,"vic":3425,"tigheder":3426,"Ġskj":3427,"Ġfest":3428,"ĠhÃ¸jre":3429,"Ġkop":3430,"Ġstarter":3431,"Ġsort":3432,"Ġbudget":3433,"Ġendelig":3434,"ĠInter":3435,"Ġhot":3436,"Ġlignende":3437,"ĠhÃ¸rer":3438,".âĢĿ":3439,"ĠsÃ¦d":3440,"Ġfej":3441,"siden":3442,"oten":3443,"Ġregistrer":3444,"Ġneg":3445,"ppet":3446,"ĠFran":3447,"Ġkry":3448,"Ġudviklet":3449,"samling":3450,"Ġeksister":3451,"ĠpopulÃ¦re":3452,"Ġklo":3453,"bjerg":3454,"Ġvaren":3455,"itel":3456,"Ġkat":3457,"ĠHel":3458,"gift":3459,"Ġreger":3460,"ĠÃ¸jebli":3461,"nÃ¥r":3462,"ĠNet":3463,"inget":3464,"ĠhÃ¸je":3465,"sul":3466,"Ġopdateret":3467,"Ġindivid":3468,"Ġtaler":3469,"Ġforbi":3470,"ĠdÃ¸":3471,"Ġamerik":3472,"Ġfortsat":3473,"Ã¸rdag":3474,"ĠbeskÃ¦ftig":3475,"beg":3476,"mere":3477,"Ã¶":3478,"Ġtrafik":3479,"ĠEuropa":3480,"Ġoply":3481,"aby":3482,"rapport":3483,"cere":3484,"Ġmag":3485,"Ġforv":3486,"ovens":3487,"Ġbade":3488,"Ġthe":3489,"Ġende":3490,"forhold":3491,"Ġgebyrer":3492,"Ġlege":3493,"ĠJa":3494,"Ġ2008":3495,"Ġmateriale":3496,"Ġoverra":3497,"ty":3498,"Ġplacer":3499,"ativt":3500,"Ġudn":3501,"ian":3502,"Ġhvid":3503,"ĠPorn":3504,"tÃ¦g":3505,"ĠNogle":3506,"ĠâĢĭâĢĭ":3507,"Ġoplever":3508,"Ġhum":3509,"Ġholdt":3510,"âĢľ":3511,"Ġskrift":3512,"Ġpartner":3513,"politik":3514,"Ġhuske":3515,"ĠlÃ¦gger":3516,"Ġinteresse":3517,"vÃ¦relse":3518,"Ġanvendelse":3519,"ĠHoved":3520,"Ġrol":3521,"ĠopkrÃ¦":3522,"Ġuh":3523,"ĠFl":3524,"ĠvÃ¦relser":3525,"dige":3526,"oplev":3527,"Ġlyder":3528,"Ġdesig":3529,"Ġkommunen":3530,"Ġglas":3531,"Ġsekunder":3532,"Ġbogen":3533,"Ġinvester":3534,"Ġlevering":3535,"60":3536,"Ã¦rkt":3537,"Ġbrowser":3538,"Ġbygger":3539,"ĠLu":3540,"Ġhud":3541,"ses":3542,"yge":3543,"stillet":3544,"Ġtilh":3545,"uddannelse":3546,"mper":3547,"Ġfrug":3548,"Ġbrand":3549,"Ġfragt":3550,"Hvor":3551,"shop":3552,"ĠIndledning":3553,"Dette":3554,"Ġmening":3555,"Ġtast":3556,"ĠkÃ¦reste":3557,"lÃ¸se":3558,"ĠBar":3559,"Ġidet":3560,"nelse":3561,"okra":3562,"Ġfrivil":3563,"ĠTra":3564,"arked":3565,"Ġdato":3566,"gÃ¥ende":3567,"strup":3568,"skov":3569,"Ġfamilien":3570,"Ġbland":3571,"Ġtype":3572,"ĠBesk":3573,"chen":3574,"Ġinstitu":3575,"ĠOff":3576,"Ġbad":3577,"udvikling":3578,"Ġprojekter":3579,"Ġbidr":3580,"Ġafsnit":3581,"nov":3582,"vejen":3583,"undersÃ¸g":3584,"yre":3585,"Ġresultat":3586,"Ġudvid":3587,"Ġregel":3588,"ix":3589,"ĠOdense":3590,"ĠnÃ¦rmere":3591,"Ġvalgte":3592,"Ġtime":3593,"eres":3594,"Ġrespe":3595,"ologiske":3596,"smÃ¦ssige":3597,"Ġbord":3598,"ĠundersÃ¸gelse":3599,"ĠMod":3600,"rives":3601,"cel":3602,"Ġtransport":3603,"fremt":3604,"eledes":3605,"Ġflotte":3606,"ĠâĢĺ":3607,"kast":3608,"Ġtypisk":3609,"ĠÂ·":3610,"LC":3611,"ĠMange":3612,"inen":3613,"ĠErhver":3614,"Ã¸m":3615,"ibli":3616,"Ġufor":3617,"za":3618,"attet":3619,"orier":3620,"Ġ31":3621,"igtige":3622,"Ġserver":3623,"ospital":3624,"Ġeffekt":3625,"Ġrammer":3626,"Ġfirma":3627,"Ġaktivitet":3628,"ostninger":3629,"bÃ¦k":3630,"ĠVer":3631,"ĠSoci":3632,"Ġviste":3633,"ĠmÃ¥der":3634,"Ã¸jet":3635,"Ġrejser":3636,"ĠBet":3637,"Ġarrange":3638,"Ġdeltage":3639,"tre":3640,"ĠnetvÃ¦rk":3641,"styrelsen":3642,"vision":3643,"AG":3644,"edyg":3645,"25":3646,"Ġbort":3647,"Ã¦mp":3648,"we":3649,"Ġdens":3650,"Ġundervis":3651,"landet":3652,"ĠsÃ¦lger":3653,"eser":3654,"Ġalmindelige":3655,"Ġmeter":3656,"ĠFri":3657,"anten":3658,"vejledning":3659,"mester":3660,"tegi":3661,"ĠmÃ¦rk":3662,"ĠEscort":3663,".\"":3664,"Ġsikrer":3665,"Ġdatoer":3666,"holdelse":3667,"ĠhvornÃ¥r":3668,"ĠglÃ¦der":3669,"Ġbelig":3670,"Ġprisen":3671,"Ġbesked":3672,"Ġander":3673,"tast":3674,"Ġbereg":3675,"Ġfyldt":3676,"ficeret":3677,"Ġkombin":3678,"Op":3679,"Ġspecial":3680,"oto":3681,"Ġredu":3682,"Ġdokument":3683,"Ġoverf":3684,"ĠlÃ¦gge":3685,"Ġkendte":3686,"ĠsÃ¸n":3687,"ĠNatur":3688,"kal":3689,"Ġfrisk":3690,"sÃ¦tter":3691,"ĠpÃ¥g":3692,"own":3693,"ĠnÃ¸j":3694,"digvis":3695,"oden":3696,"Ġsmer":3697,"Ġtyper":3698,"IS":3699,"uren":3700,"ape":3701,"amen":3702,"Ġundervisning":3703,"ĠGl":3704,"ĠBrug":3705,"ĠlÃ¦kre":3706,"fulde":3707,"adres":3708,"Ġkommune":3709,"ĠEner":3710,"vne":3711,"Da":3712,"Ġoverblik":3713,"ĠThe":3714,"Ã¦tter":3715,"Ġformid":3716,"iel":3717,"Ġnyhedsbrev":3718,"Ġtje":3719,"Ġref":3720,"Ġendda":3721,"Ġpluds":3722,"Ġudsigt":3723,"ission":3724,"Ġhul":3725,"ktionen":3726,"ĠVis":3727,"hÃ¥nden":3728,"Ġpleje":3729,"person":3730,"Ġjuli":3731,"iew":3732,"Ġmidler":3733,"ĠÃ¸vrige":3734,"Ġdyg":3735,"veje":3736,"ork":3737,"oter":3738,"Ġfremtid":3739,"ĠdÃ¦kker":3740,"oliti":3741,"NING":3742,"sende":3743,"ef":3744,"Ġwebsted":3745,"mmere":3746,"ogen":3747,"job":3748,",-":3749,"Ġfuldt":3750,"RE":3751,"givelser":3752,"ĠBo":3753,"ruktur":3754,"Ġskabt":3755,"ĠÃ¸vrigt":3756,"Ġledige":3757,"Ġgave":3758,"Ġfunktioner":3759,"Ġpas":3760,"ĠKÃ¸benhavns":3761,"Ġstyrke":3762,"ĠPo":3763,"Ġskolen":3764,"Ġhy":3765,"ĠFin":3766,"kende":3767,"Ġnummer":3768,"vist":3769,"Ġanderledes":3770,"Ġ*":3771,"Ġordent":3772,"otenti":3773,"Ġgenerelt":3774,"beret":3775,"vante":3776,"Ġvirksomheden":3777,"Ġalder":3778,"ĠfÃ¸de":3779,"bare":3780,"mmen":3781,"na":3782,"Ġstartede":3783,"agent":3784,"Ġenerg":3785,"Ġfedt":3786,"Ġspillet":3787,"atistik":3788,"rere":3789,"Ġpub":3790,"Ã¥rige":3791,"vise":3792,"ierne":3793,"ĠlÃ¦ring":3794,"ĠSel":3795,"iat":3796,"spunktet":3797,"ĠGrÃ¸n":3798,"val":3799,"Ġdejligt":3800,"lf":3801,"Ġpatienter":3802,"aks":3803,"bevar":3804,"Ġejendom":3805,"ĠLLC":3806,"Ġudfordringer":3807,"Ġregnskab":3808,"Ġsor":3809,"Ġfran":3810,"Ġstol":3811,"lÃ¥":3812,"ny":3813,"Ã¦kker":3814,"ĠEng":3815,"Ġselve":3816,"ca":3817,"Ġannoncer":3818,"Ġsko":3819,"ĠstÃ¦rkt":3820,"gar":3821,"ĠpÃ¥gÃ¦ldende":3822,"IT":3823,"iven":3824,"ĠforÃ¦l":3825,"Ġkontra":3826,"Ġsidde":3827,"Ġpil":3828,"Ġsupp":3829,"Ġhandling":3830,"getÃ¸j":3831,"Ġhuset":3832,"Ġkoster":3833,"Ġtun":3834,"40":3835,"ĠnÃ¸dvendig":3836,"vÃ¦rdi":3837,"Ġadresse":3838,"Ġap":3839,"Ġgravid":3840,"Alle":3841,"gerne":3842,"Ġborgere":3843,"vejs":3844,"Ġpct":3845,"Ġcykel":3846,".:":3847,"Ġtanker":3848,"opg":3849,"Ġmist":3850,"Ġaner":3851,"Ġsituation":3852,"ĠPris":3853,"vede":3854,"Ġgli":3855,"vig":3856,"side":3857,"hÃ¦":3858,"Ġfinansi":3859,"uropÃ¦":3860,"fÃ¸ring":3861,"Ġkrig":3862,"Ġfac":3863,"ĠKontakt":3864,"ĠDerudover":3865,"okal":3866,"pleje":3867,"Ġforker":3868,"Ġstarte":3869,"afhÃ¦ng":3870,"Mere":3871,"Ã¦rt":3872,"Ġsenest":3873,"Ġmenneske":3874,"Ġmio":3875,"kommende":3876,"rÃ¦k":3877,"ĠGener":3878,"Ġkaffe":3879,"Ġbaseret":3880,"Ġsammens":3881,"ves":3882,"Ġleveret":3883,"ĠprimÃ¦r":3884,"als":3885,"Ġforst":3886,"fÃ¦l":3887,"Ġkorrekt":3888,"ĠudgÃ¸r":3889,"Ġforfatter":3890,"delingen":3891,"ĠsÃ¸d":3892,"Ġforestil":3893,"Ġvenligst":3894,"Ġoprind":3895,"lÃ¦ggende":3896,"ĠgÃ¸res":3897,"Ã¦ssig":3898,"Af":3899,"delt":3900,"kommer":3901,"Ġ2007":3902,"Ġport":3903,"sour":3904,"Ġ80":3905,"ĠSen":3906,"Ġtilsyn":3907,"Ġklikker":3908,"Ġhygg":3909,"forb":3910,"indre":3911,"if":3912,"ogram":3913,"Ġstandard":3914,"Ġam":3915,"Ġmuligvis":3916,"Ġsagen":3917,"forening":3918,"imod":3919,"Ġvarm":3920,"Ġtand":3921,"Ġcookie":3922,"betaling":3923,"ĠPl":3924,"Ġmillioner":3925,"ike":3926,"Ġoverrask":3927,"ĠDag":3928,"ĠhÃ¥rdt":3929,"inden":3930,"ĠSh":3931,"Ġbrugere":3932,"Ġvild":3933,"Ġ70":3934,"ĠChristian":3935,"solut":3936,"Ġversion":3937,"hj":3938,"ĠFort":3939,"ilm":3940,"vok":3941,"ĠÃħrhus":3942,"ĠnÃ¸dt":3943,"amping":3944,"Ġ35":3945,"ĠspÃ¦nd":3946,"obbelt":3947,"Ġmv":3948,"Ġindb":3949,"ebyg":3950,"Ġlivs":3951,"ĠfortsÃ¦tte":3952,"ĠtvÃ¦rs":3953,"histor":3954,"geb":3955,"ĠbesÃ¸ger":3956,"Ġkommuner":3957,"ordning":3958,"dagen":3959,"Ġomfatter":3960,"Ġvest":3961,"ĠlÃ¸sninger":3962,"ĠByg":3963,"Ġudarbejdet":3964,"ĠforsÃ¸ger":3965,"letter":3966,"ĠtillÃ¦g":3967,"Ġreser":3968,"Ġstarten":3969,"Ġ198":3970,"Un":3971,"Ġlykk":3972,"ĠPerson":3973,"Ġkul":3974,"Ġmarkeds":3975,"Ġvore":3976,"ĠslÃ¥":3977,"ĠIs":3978,"Ġspur":3979,"ĠBy":3980,"ĠsÃ¥vel":3981,"Ġz":3982,"huse":3983,"drer":3984,"Ġbeskri":3985,"Ġvideoer":3986,"ĠSm":3987,"ĠhÃ¸jde":3988,"Ġpaa":3989,"Ġbekym":3990,"Ġvurdering":3991,"udstyr":3992,"pla":3993,"Ġstem":3994,"Ġsove":3995,"Ġudgave":3996,"Ġomfang":3997,"ĠprÃ¸ver":3998,"Ġcirk":3999,"Ġsmuk":4000,"Ġforbrug":4001,"Ġudgifter":4002,"talien":4003,"Ġtilbyde":4004,"ĠEx":4005,"Ġskift":4006,"Ã¥g":4007,"Ġlo":4008,"oris":4009,"ugt":4010,"stra":4011,"ĠkÃ¸benhavn":4012,"Ġfine":4013,"gruppe":4014,"skrift":4015,"Ã¼":4016,"ĠtrÃ¥d":4017,"Ġdrikke":4018,"Ġviagra":4019,"âĢĵ":4020,"ĠQ":4021,"omrÃ¥der":4022,"Ġkg":4023,"ĠRes":4024,"rene":4025,"ĠnÃ¸dvendige":4026,"Ġskil":4027,"Ġudbud":4028,"Ġfjern":4029,"klen":4030,"Ġafdeling":4031,"Ġpatient":4032,"slin":4033,"Ġvandet":4034,"ĠtrÃ¦kke":4035,"Ġbetaler":4036,"Ã¦vnet":4037,"Ġchokol":4038,"ĠdÃ¦k":4039,"Ġoverh":4040,"Ġdebat":4041,"ĠFace":4042,"ĠafgÃ¸rende":4043,"aen":4044,"ĠlÃ¦st":4045,"Ġnyeste":4046,"Ġfleks":4047,"pet":4048,"view":4049,"ĠindgÃ¥r":4050,"Ġdejlige":4051,"Ġgeneralfor":4052,"Ġtages":4053,"ĠAm":4054,"ton":4055,"ĠHe":4056,"Ġtids":4057,"Ġbenytte":4058,"Ġforretning":4059,"Ġburde":4060,"ĠStor":4061,"Ġopbyg":4062,"Ġafsp":4063,"tiver":4064,"ĠVand":4065,"Ġressour":4066,"Vores":4067,"Ġmagt":4068,"Ġten":4069,"ĠfrÃ¦kke":4070,"ĠFOR":4071,"Ġidenti":4072,"Ġkald":4073,"aktion":4074,"ĠGu":4075,"Ġrelevante":4076,"ĠprÃ¸vet":4077,"Ġhandle":4078,"gÃ¦ld":4079,"ĠefterhÃ¥nden":4080,"Ġberet":4081,"iens":4082,"varme":4083,"itteratur":4084,"Ġha":4085,"Ġprojektet":4086,"steder":4087,"Ġinteg":4088,"rus":4089,"ĠProdu":4090,"Ġvejr":4091,"Ġsmart":4092,"Ġmennesk":4093,"//":4094,"ĠforegÃ¥r":4095,"ĠMÃ¥ske":4096,"Ġgodkendt":4097,"Ġudviklingen":4098,"ĠunderstÃ¸":4099,"ĠÃ©t":4100,"ĠblÃ¸d":4101,"Ġring":4102,"Ġvenstre":4103,"holdes":4104,"ĠÃĺn":4105,"skolen":4106,"ĠfremgÃ¥r":4107,"ffer":4108,"Ġbrugen":4109,"ĠThai":4110,"ĠnÃ¦rmest":4111,"ĠifÃ¸lge":4112,"elen":4113,"Ġbrugte":4114,"Ġforsikring":4115,"ath":4116,"Ġmedier":4117,"svis":4118,"Ġpension":4119,"ram":4120,"Ġindbyg":4121,"Ġudl":4122,"ĠJensen":4123,"Ġlod":4124,"egÃ¸r":4125,"Ġcentrum":4126,"Ġnab":4127,"Ġbus":4128,"ĠtilbehÃ¸r":4129,"ĠÃ¸konomiske":4130,"Ġked":4131,"Ġanmeldelser":4132,"Ġamb":4133,"Ø±Ø±Ø±Ø±":4134,"ĠDR":4135,"Ġantallet":4136,"Ġklikke":4137,"rette":4138,"skÃ¦r":4139,"Ġbekl":4140,"Ġabsolut":4141,"45":4142,"ĠIngen":4143,"ĠVÃ¦lg":4144,"Ġrolle":4145,"delen":4146,"Ġkalen":4147,"lings":4148,"Ġtegn":4149,"jern":4150,"Ġansatte":4151,"Ġteam":4152,"ĠblÃ¥":4153,"rienter":4154,"stemer":4155,"nat":4156,"Ġklare":4157,"sprog":4158,"Ġerstat":4159,"Ġopfor":4160,"70":4161,"ĠStat":4162,"Ġslag":4163,"ĠÃ¸jne":4164,"have":4165,"ane":4166,"Ġag":4167,"Ġpakke":4168,"ĠFÃ¥":4169,"Sam":4170,"rende":4171,"Ġhaven":4172,"Ġgenop":4173,"Nu":4174,"Ġsmil":4175,"Ġhistorier":4176,"Ġstraks":4177,"Ġkoncer":4178,"Ġoverfor":4179,"ĠrÃ¥dgivning":4180,"ĠNor":4181,"âĢ¦]":4182,"KT":4183,"Ġforber":4184,"Ġparti":4185,"sby":4186,"Ġsten":4187,"Ġkendskab":4188,"aar":4189,"Ġglade":4190,"Ġklin":4191,"rÃ¦kke":4192,"ĠÃ¸nskede":4193,"Ġpol":4194,"Ġtema":4195,"Ġbilen":4196,"Ġsjovt":4197,"chef":4198,"Ġlader":4199,"ĠLov":4200,"okost":4201,"Ġhvide":4202,"elske":4203,"ĠCar":4204,"ĠVen":4205,"aer":4206,"LE":4207,"Ġrecept":4208,"komst":4209,"ĠChrist":4210,"elÃ¦g":4211,"ĠÃ¸k":4212,"tur":4213,"ĠForm":4214,"Ġdagens":4215,"Ġpunkt":4216,"ĠPrÃ¦":4217,"strÃ¦kk":4218,"Ġsvarer":4219,".)":4220,"Ġfantastiske":4221,"ilde":4222,"Ġsandsyn":4223,"ĠHvorfor":4224,"ĠBag":4225,"Ã¥det":4226,"ĠprimÃ¦rt":4227,"eltet":4228,"vendelse":4229,"ĠÃ¸l":4230,"DS":4231,"Ġprogram":4232,"Ġreglerne":4233,"vÃ¦rker":4234,"Ġmedarbejder":4235,"ĠdÃ¸r":4236,"uk":4237,"ĠrÃ¸r":4238,"ĠreprÃ¦sent":4239,"Ġvisse":4240,"ĠÃ¸konomi":4241,"ish":4242,"Ġbutik":4243,"ĠEnd":4244,"Ġ;":4245,"Ġdatter":4246,"Ġmaterialer":4247,"Ġaltern":4248,"domme":4249,"ĠRet":4250,"orsdag":4251,"Ġeksisterende":4252,"Ġdeler":4253,"ight":4254,"Ġoper":4255,"Ġero":4256,"ĠArbejd":4257,"skilde":4258,"Ġare":4259,"Ġliste":4260,"Ġudelukkende":4261,"afil":4262,"Ã¥rig":4263,"Ġint":4264,"atiske":4265,"elset":4266,"ĠKlik":4267,"kendte":4268,"Ġli":4269,"Ġanbefaler":4270,"Ġstof":4271,"Ġhverken":4272,"Ġstruktur":4273,"Ġdeltager":4274,"Ġtot":4275,"ĠKn":4276,"Ġbygget":4277,"Ġond":4278,"park":4279,"Ġfork":4280,"Ġnogens":4281,"Ġkryd":4282,"Ġgrundlag":4283,"vit":4284,"Ġskov":4285,"akken":4286,"tom":4287,"Ġpludselig":4288,"yttes":4289,"ĠBolig":4290,"gjort":4291,"Ġfysisk":4292,"olf":4293,"Ġpolitiske":4294,"Ġeksempelvis":4295,"ĠfÃ¸dsels":4296,"gÃ¸re":4297,"ĠbrÃ¸d":4298,"ytt":4299,"Ġformer":4300,"Ġmelde":4301,"givelse":4302,"ĠvÃ¦sent":4303,"ĠhÃ¸jeste":4304,"Ġforhand":4305,"Ġdigital":4306,"Ã¦ger":4307,"Ġopdag":4308,"ĠskÃ¸nne":4309,"ĠsÃ¸de":4310,"ĠsÃ¸ndag":4311,"Ġsmule":4312,"Ġtemper":4313,"acitet":4314,"rator":4315,"Ġligeledes":4316,"Ġforskning":4317,"ura":4318,"US":4319,"artner":4320,"vant":4321,"Ġvidt":4322,"Ġringe":4323,"-,":4324,"ĠTysk":4325,"ĠDesuden":4326,"Sp":4327,"Ġblomster":4328,"sÃ¸ger":4329,"ĠBÃ¸rne":4330,"://":4331,"Ġudenfor":4332,"Ġrisiko":4333,"Ġbetragt":4334,"Ġsimpelthen":4335,"stit":4336,"andid":4337,"Ġfalder":4338,"Hvad":4339,"ĠOG":4340,"mmelser":4341,"alte":4342,"sbet":4343,"videre":4344,"Ã¸ller":4345,"inter":4346,"Ġkold":4347,"spolitik":4348,"RA":4349,"Ġrapport":4350,"Ġvises":4351,"Ġejendommen":4352,"Ġforand":4353,"jend":4354,"Ġpersonlig":4355,"une":4356,"Ġlangs":4357,"ros":4358,"Ġoverens":4359,"Ġmeg":4360,"ĠsÃ¥som":4361,"kar":4362,"yndighed":4363,"ĠVest":4364,"Ġpotenti":4365,"Ġdoku":4366,"test":4367,"Ã¸bler":4368,"Ġerfaringer":4369,"Ġinformationer":4370,"sÃ¸ge":4371,"otte":4372,"Ġvigtige":4373,"ĠDig":4374,"bÃ¦r":4375,"ĠMidt":4376,"kor":4377,"Ġartikler":4378,"anger":4379,"Ġmarkedet":4380,"ĠFacebook":4381,"99":4382,"Ġguide":4383,"idler":4384,"ude":4385,"Ġinvi":4386,"Ġsamtykke":4387,"Ġdigitale":4388,"ĠKom":4389,"ĠpÃ¦n":4390,"ake":4391,"Ġgift":4392,"Ġemner":4393,"Ġdobbelt":4394,"Ġbloggen":4395,"ĠDin":4396,"22":4397,"Ġengelsk":4398,"ĠmÃ¸n":4399,"ĠSundheds":4400,"ĠHus":4401,"ĠlÃ¸rdag":4402,"Ġsad":4403,"eden":4404,"ĠtrÃ¦k":4405,"klar":4406,"fÃ¸relse":4407,"Ġforklar":4408,"Ġtilmeldt":4409,"Ġmodeller":4410,"Ġpapir":4411,"anders":4412,"vest":4413,"ĠUniversitet":4414,"Ġungdom":4415,"DE":4416,"Re":4417,"Ġdels":4418,"Ar":4419,"Ġprinci":4420,"Ġbredt":4421,"Ġkigge":4422,"Ã¸rr":4423,"Ġanvende":4424,"ĠFÃ¦lles":4425,"ĠKar":4426,"mmelig":4427,"Ã¦ste":4428,"Ġfremtiden":4429,"Ġpersonale":4430,"organis":4431,"bÃ¸ger":4432,"ĠfÃ¦llesskab":4433,"Ġkarri":4434,"oo":4435,"Ġ[âĢ¦]":4436,"az":4437,"ĠFind":4438,"melde":4439,"onnement":4440,"Ġyng":4441,"Ġjorden":4442,"ĠgengÃ¦ld":4443,"ĠbesÃ¸ge":4444,"ĠMÃ¥l":4445,"ĠSÃ¸nder":4446,"hal":4447,"Ġbooking":4448,"krig":4449,"out":4450,"ĠfÃ¸rer":4451,"Ġalmindelig":4452,"iss":4453,"ĠgrundlÃ¦ggende":4454,"bred":4455,"mi":4456,"kan":4457,"gra":4458,"vl":4459,"Ġovervej":4460,"ĠvÃ¦rktÃ¸j":4461,"tids":4462,"ĠeuropÃ¦":4463,"Ġ45":4464,"Ġhjerte":4465,"ĠtrÃ¦der":4466,"digheder":4467,"Ã¤":4468,"Ġnogensinde":4469,"brud":4470,"Ġleverand":4471,"Ġkonsekv":4472,"ĠÃ¸get":4473,"iker":4474,"Ġkommunikation":4475,"Ġhunde":4476,"ĠBes":4477,"Ġbatter":4478,"Ġigang":4479,"timer":4480,"ikk":4481,"lÃ¦gning":4482,"Ã¦ge":4483,"viden":4484,"Ġbehag":4485,"rÃ¦kker":4486,"Ġoverv":4487,"grupper":4488,"ĠbegrÃ¦nset":4489,"ĠÃ¦ndret":4490,"ĠÃĺst":4491,"ĠuafhÃ¦ng":4492,"Ġbyder":4493,"Ġvarmt":4494,"Ġindholdet":4495,"adresse":4496,"ĠSkole":4497,"rift":4498,"tidspunktet":4499,"Ġci":4500,"ĠFolket":4501,"tilbud":4502,"Ġperfekte":4503,"AS":4504,"EG":4505,"Ġspare":4506,"ĠTo":4507,"Ġdialog":4508,"Ġ33":4509,"Min":4510,"skel":4511,"Ġkommentar":4512,"ĠMo":4513,"Ġtilkn":4514,"livet":4515,"UN":4516,"ha":4517,"Ġshop":4518,"ness":4519,"Ġ=":4520,"Ġkursus":4521,"ja":4522,"ĠSamtidig":4523,"Ġoprette":4524,"Ġdaglige":4525,"Ãĥ":4526,"Ġhovedet":4527,"Ġledelse":4528,"ĠfÃ¸dt":4529,"ĠstrÃ¸m":4530,"Ġskar":4531,"amin":4532,"Ġtilskud":4533,"ĠsÃ¦ttes":4534,"ĠdÃ¥rlig":4535,"stof":4536,"forstÃ¥et":4537,"alb":4538,"Ġnemmere":4539,"Ġneder":4540,"ĠÃ¸konomisk":4541,"ĠfÃ¸le":4542,"Ġtryk":4543,"Ġutr":4544,"Ġlettere":4545,"sret":4546,"ĠHansen":4547,"ĠSÃ¸":4548,"Ġsang":4549,"kser":4550,"Ã¸lle":4551,"Ġekskl":4552,"mon":4553,"Ġforpligt":4554,"AB":4555,"aktiv":4556,"rund":4557,"Ġforne":4558,"orten":4559,"Ġtryg":4560,"ĠvÃ¦s":4561,"irksom":4562,"eld":4563,"Ġugen":4564,"ĠIT":4565,"Ġelektron":4566,"ilet":4567,"Ġforret":4568,"Ġok":4569,"Ġeksp":4570,"ĠSocial":4571,"ĠÃ¸ver":4572,"ĠSuper":4573,"Ġtilmeld":4574,"ornholm":4575,"ĠbrÃ¦nd":4576,"asmus":4577,"Ġkraftig":4578,"Ja":4579,"Ġdre":4580,"Ġbran":4581,"ĠprÃ¦g":4582,"cher":4583,"ekend":4584,"ĀĀĀĀ":4585,"Ġinternationale":4586,"Ġeleverne":4587,"ffet":4588,"Ġfaglige":4589,"Ġudvalgte":4590,"ĠNielsen":4591,"former":4592,"Ġskatter":4593,"Ġanbefale":4594,"Ġorig":4595,"Ġsikkerheds":4596,"ĠRing":4597,"Ã¦rket":4598,"ĠTryk":4599,"Ġomfattet":4600,"Ġfrit":4601,"Ã¸ret":4602,"ĠDit":4603,"Ġdaglig":4604,"Ġsub":4605,"Ġtydeligt":4606,"Ġtus":4607,"ĠlÃ¸ber":4608,"ĠÃ¸jeblikket":4609,"tidigt":4610,"Ġbrev":4611,"Ġumiddel":4612,"Ġmaks":4613,"Ġvidenskab":4614,"Ġlevere":4615,"bord":4616,"ĠkÃ¦l":4617,"gl":4618,"terede":4619,"Stk":4620,"Ġboliger":4621,"minister":4622,"ĠMich":4623,"smu":4624,"ordin":4625,"Ġindeholde":4626,"ĠkÃ¸d":4627,"Ġtips":4628,"Ġkir":4629,"Ġbestyrelsen":4630,"entligt":4631,"fÃ¸rte":4632,"Ġskade":4633,"Ġwebshop":4634,"ĠhÃ¥b":4635,"Ġrim":4636,"..]":4637,"Ġfrugt":4638,"Ġry":4639,"ĠSjÃ¦lland":4640,"ĠMand":4641,"Ġjagt":4642,"troduktion":4643,"Ġbol":4644,"kli":4645,"Ġbefolk":4646,"Ġsla":4647,"ĠÃ¸d":4648,"Ġmuligheden":4649,"Ġ[..]":4650,"ĠhÃ¸rt":4651,"Ġaftal":4652,"urdering":4653,"sku":4654,"ĠlÃ¦kkert":4655,"Ġbryst":4656,"imm":4657,"Ġsne":4658,"Ġherefter":4659,"ĠSK":4660,"ĠApp":4661,"Ġit":4662,"FÃ¥":4663,"sÃ¸":4664,"ELSE":4665,"svarende":4666,"hÃ¥nd":4667,"ĠHos":4668,"ĠAir":4669,"At":4670,"Ġbage":4671,"ĠTid":4672,"Ġoffici":4673,"ĠrengÃ¸r":4674,"Ġguld":4675,"Ġdetaljer":4676,"Ġbilledet":4677,"Ġforetaget":4678,"Ġsendes":4679,"Ġrabat":4680,"penge":4681,"ĠIndtast":4682,"ĠJÃ¸rg":4683,"prÃ¸":4684,"Ġpig":4685,"ĠgennemfÃ¸rt":4686,"IK":4687,"ĠgrÃ¸nne":4688,"Ġfisse":4689,"Ġventer":4690,"Ġenheder":4691,"Ġsager":4692,"agere":4693,"Ġforsv":4694,"data":4695,"Ġkontor":4696,"ĠÐ":4697,"Ġkonstru":4698,"Ġservic":4699,"Ġhtt":4700,"ĠnÃ¸jag":4701,"24":4702,"sler":4703,"Ġomgang":4704,"Ġinteressant":4705,"Ġudlandet":4706,"tallet":4707,"idste":4708,"ĠprÃ¦st":4709,"ĠFord":4710,"ferie":4711,"kasse":4712,"ĠansÃ¸gning":4713,"ĠbÃ¦redyg":4714,"kema":4715,"Ġolie":4716,"Ġvildt":4717,"Ġansvarlig":4718,"ware":4719,"Ġaktuelle":4720,"cyk":4721,"vik":4722,"Ġkonto":4723,"Ġ36":4724,"??":4725,"ĠFrem":4726,"IV":4727,"Ġvansk":4728,"dyr":4729,"Ã¸rgsmÃ¥let":4730,"Ġ2006":4731,"kkerne":4732,"Ġunik":4733,"Ġvider":4734,"Ġpasse":4735,"Han":4736,"Ġstress":4737,"ulle":4738,"Ġchokolade":4739,"vokat":4740,"navn":4741,"Ġforen":4742,"ligheden":4743,"mptom":4744,"Ġstilling":4745,"Ġbebo":4746,"Ġklima":4747,"ĠdÃ¸de":4748,"Ġco":4749,"Ġfore":4750,"grÃ¦n":4751,"Ġforbe":4752,"Ġattra":4753,"Ġkj":4754,"alle":4755,"ĠVelkommen":4756,"Ġsite":4757,"ĠST":4758,"Ġindfly":4759,"ĠNÃ¸r":4760,"dato":4761,"ringen":4762,"ogne":4763,"abet":4764,"ragende":4765,"yb":4766,"Ġpul":4767,"landske":4768,"Ġfysiske":4769,"----":4770,"Ġadskil":4771,"Ġopbevar":4772,"olu":4773,"atÃ¸r":4774,"Ġopskrifter":4775,"lÃ¸sning":4776,"sland":4777,"aard":4778,"ĠHenrik":4779,"agne":4780,"amera":4781,"ĠTyskland":4782,"Ġoph":4783,"Ġleg":4784,"Ġvinder":4785,"ĠThom":4786,"Ġflytte":4787,"Ġbillige":4788,"Ġtri":4789,"Ġtim":4790,"ĠMiljÃ¸":4791,"lex":4792,"Ġknap":4793,"niveau":4794,"istri":4795,"Ġnedenfor":4796,"isme":4797,"RO":4798,"Ġ)":4799,"handel":4800,"ael":4801,"Ġbund":4802,"ĠlÃ¸be":4803,"stemmelse":4804,"Ġstigende":4805,"Ġorigin":4806,"ĠmÃ¦l":4807,"ood":4808,"asset":4809,"ĠLig":4810,"Hos":4811,"Ġmuse":4812,"sÃ¦ttelser":4813,"sning":4814,"Ġkategori":4815,"Ġ90":4816,"Ġligge":4817,"Ġbom":4818,"Ġfremover":4819,"ĠOgsÃ¥":4820,"mÃ¦nd":4821,"ka":4822,"ĠFrederiks":4823,"ĠarbejdsmiljÃ¸":4824,"ĠLars":4825,"ĠrÃ¥dighed":4826,"ĠRasmus":4827,"Ġsukker":4828,"Ġforening":4829,"SP":4830,"deret":4831,"bas":4832,"Ġspillere":4833,"aftale":4834,"Ġelev":4835,"Ġtemperatur":4836,"Ġkund":4837,"kohol":4838,"stitut":4839,"ĠsÃ¦lge":4840,"sikker":4841,"digt":4842,"Ġdags":4843,"Ġamerikanske":4844,"Ġta":4845,"gruppen":4846,"ĠÃ¸st":4847,"antra":4848,"fat":4849,"ĠHand":4850,"tic":4851,"Ġoverord":4852,"ition":4853,"ĠÃ¸ge":4854,"ĠmÃ¦rker":4855,"Ġbon":4856,"EM":4857,"ĠmÃ¸des":4858,"Ġpraktisk":4859,"Ġhenblik":4860,"Ġkende":4861,"ick":4862,"dersen":4863,"aut":4864,"Ġsagtens":4865,"estiv":4866,"ĠUddann":4867,"Ġpublik":4868,"Ġanalyse":4869,"Ġbank":4870,"Ġfleksib":4871,"Ġfed":4872,"plejer":4873,"VÃ¦r":4874,"film":4875,"rop":4876,"ownlo":4877,"ĠopkrÃ¦ver":4878,"SB":4879,"avor":4880,"ĠdÃ¸ren":4881,"ĠÃ¥rets":4882,"Ġkonkrete":4883,"Ġrettigheder":4884,"mÃ¦rket":4885,"ĠtrÃ¦t":4886,"ĠSc":4887,"ĠfornÃ¸j":4888,"anen":4889,"ĠGe":4890,"Ġgri":4891,"ĠCo":4892,"Ġex":4893,"Ġafsk":4894,"hjemme":4895,"Ġgymnas":4896,"lub":4897,"selskab":4898,"fundet":4899,"skur":4900,"skode":4901,"Ġkalder":4902,"ĠdÃ©":4903,"ice":4904,"ĠLad":4905,"ĠbekrÃ¦ft":4906,"Ġfredag":4907,"peci":4908,"ĠGratis":4909,"Ġpengene":4910,"Ġtilslut":4911,"unt":4912,"gave":4913,"ĠvÃ¦sentlig":4914,"ĠNew":4915,"Ġannoncen":4916,"handling":4917,"Ġfores":4918,"Ġtilladelse":4919,"Ġinfo":4920,"Ġmeddel":4921,"Ġrelevant":4922,"ĠskrÃ¦":4923,"atik":4924,"Ã¥ben":4925,"Ġkompetencer":4926,"vÃ¦rket":4927,"Ġskat":4928,"ĠRed":4929,"ĠBeg":4930,"ĠOn":4931,"vind":4932,"Ġbiler":4933,"ference":4934,"Ġbaby":4935,"dannet":4936,"Ġvoksen":4937,"Ġramme":4938,"ome":4939,"ĠkÃ¸l":4940,"midlertid":4941,"ĠlÃ¸se":4942,"ĠBor":4943,"Ġrestauranter":4944,"Ġanmeldelse":4945,"ĠKultur":4946,"Ġleverings":4947,"Ġenhed":4948,"iverse":4949,"Ġnaturen":4950,"SÃ¸g":4951,"Ġinnov":4952,"Ġforsvar":4953,"sbjerg":4954,"Ġforkert":4955,"ĠivÃ¦rks":4956,"ĠEnerg":4957,"Ġjour":4958,"yldig":4959,"ĠafgÃ¸relse":4960,"Ġ500":4961,"ines":4962,"ĠProjekt":4963,"ĠvÃ¦relse":4964,"ladet":4965,"Ġoversigt":4966,"Ny":4967,"Ġudstilling":4968,"itte":4969,"nene":4970,"Ġhistorien":4971,"landt":4972,"egne":4973,"ski":4974,"Ġperioden":4975,"Ġoverhovedet":4976,"ĠÃ¥":4977,"Ġsatte":4978,"ĠbemÃ¦rk":4979,"ĠtrÃ¦ner":4980,"smÃ¸de":4981,"ktÃ¸jer":4982,"ĠtÃ¦nkt":4983,"Ġvirke":4984,"Ġmeste":4985,"Ġminimum":4986,"ĠhÃ¦nder":4987,"slen":4988,"Ġvente":4989,"ĠSl":4990,"Ġnej":4991,"ong":4992,"ĠtÃ¦nder":4993,"rebet":4994,"Ġscen":4995,"Ġstudie":4996,"Ġanal":4997,"Ġbeslutning":4998,"Ġstemme":4999,"onen":5000,"Ġsamarbejd":5001,"eri":5002,"ĠJens":5003,"Ġbegiven":5004,"edag":5005,"Ġskifte":5006,"ĠhÃ¥rd":5007,"ĠFyn":5008,"ferat":5009,"jeg":5010,"ĠJob":5011,"Ġgrunde":5012,"Ġdest":5013,"ament":5014,"Ġbenytter":5015,"stedet":5016,"ĠSkal":5017,"Ġansigt":5018,"ĠSver":5019,"Ġut":5020,"Ġskatte":5021,"Ġspor":5022,"ĠtilgÃ¦ngelig":5023,"Selv":5024,"Ġmindste":5025,"varter":5026,"Ġudvikler":5027,"abri":5028,"Ġsven":5029,"Ġkvart":5030,",âĢĿ":5031,"ĠLang":5032,"Ġvan":5033,"Ġing":5034,"Man":5035,"Ġholdning":5036,"ĠtÃ¦":5037,"vikling":5038,"Ġmaler":5039,"ĠfuldstÃ¦ndig":5040,"ĠSort":5041,"Ġtider":5042,"Ġ:-)":5043,"ĠstÃ¦rke":5044,"regn":5045,"Ġbetingelser":5046,"ĠPost":5047,"Ġafspej":5048,"Ġnaturligt":5049,"Ġstykker":5050,"80":5051,"Ġradi":5052,"Ġudk":5053,"speci":5054,"ĠudfÃ¸rt":5055,"Ġkapacitet":5056,"ĠforstÃ¥else":5057,"Ġleverer":5058,"ĠKort":5059,"Ġeventuelle":5060,"ĠDel":5061,"gÃ¸relsen":5062,"reme":5063,"ĠnÃ¦vnt":5064,"ĠbesÃ¸gende":5065,"Ġsyntes":5066,"reve":5067,"ript":5068,"folk":5069,"Ġvandt":5070,"rab":5071,"jord":5072,"ĠforstÃ¥r":5073,"Ġtu":5074,"Ġdesignet":5075,"ĠJul":5076,"ĠTekn":5077,"Ġvidste":5078,"mag":5079,"Ġformand":5080,"Ġoverensstemmelse":5081,"nÃ¦vn":5082,"Ġgent":5083,"Ã¸mme":5084,"iddel":5085,"Ġnov":5086,"Sc":5087,"Ġkem":5088,"ĠTIL":5089,"ï¿":5090,"alk":5091,"edelse":5092,"unst":5093,"Ġvaret":5094,"Ġhas":5095,"ĠJu":5096,"avet":5097,"ĠreprÃ¦sen":5098,"Ġdvs":5099,"stille":5100,"ĠdÃ¸g":5101,"ĠErhvervs":5102,"ĠAnders":5103,"Ġproduktet":5104,"ĠvÃ¦rdier":5105,"ES":5106,"Ġ197":5107,"egÃ¸relse":5108,"Ġklassiske":5109,"sjÃ¦lland":5110,"ĠFÃ¸l":5111,"anel":5112,"tider":5113,"Pris":5114,"ĠMon":5115,"ĠFar":5116,"ï¿½":5117,"21":5118,"ydes":5119,"Ġorienter":5120,"holdet":5121,"slaget":5122,"ĠopmÃ¦rksomhed":5123,"Ġanti":5124,"Ġforbruger":5125,"Ġindustri":5126,"pladsen":5127,"Ġpolitiet":5128,"Ã¦tte":5129,"Ġfulde":5130,"Ġrejseagent":5131,"ekendt":5132,"ĠrÃ¸de":5133,"ĠPeder":5134,"haver":5135,"Ġbutikker":5136,"ĠÃ¥rsager":5137,"Ġbevidst":5138,"vendt":5139,"ilkeborg":5140,"kont":5141,"komme":5142,"LÃ¦s":5143,"ĠAndersen":5144,"ĠâĢĶ":5145,"ĠBemÃ¦rk":5146,"alder":5147,"Ġinternettet":5148,"Ġplaceret":5149,"serne":5150,"Ġiniti":5151,"Ġir":5152,"ftest":5153,"Ġvirkeligheden":5154,"mindre":5155,"arder":5156,"institu":5157,"ĠSol":5158,"llup":5159,"lÃ¦s":5160,"ateret":5161,"Ġgenerisk":5162,"Ġfe":5163,"ĠÃ¥bner":5164,"sag":5165,"Ġlider":5166,"Ġspecifik":5167,"Ġvejret":5168,"enes":5169,"Hej":5170,"omk":5171,"pladser":5172,"laus":5173,"Ġkomfort":5174,"Ġfart":5175,"Ġbestilling":5176,"Ġval":5177,"bed":5178,"ĠtilstrÃ¦kk":5179,"gel":5180,"ĠRej":5181,"hund":5182,"asc":5183,"Ġoppe":5184,"Ġstatus":5185,"ain":5186,"Ġchat":5187,"ĠStk":5188,"rale":5189,"ĠfrÃ¦k":5190,"stande":5191,"Om":5192,"Ġtysk":5193,"ĠUden":5194,"ION":5195,"Ġsil":5196,"Ġmanglende":5197,"Ġprofessionelle":5198,"ĠHje":5199,"sÃ¦tninger":5200,"ĠðŁĻ":5201,"aterne":5202,"ĠfÃ¸re":5203,"Ġ:)":5204,"ĠLeg":5205,"yske":5206,"Ġhverdagen":5207,"undersÃ¸gelse":5208,"Ġfyld":5209,"sek":5210,"gangen":5211,"Ġpersonligt":5212,"ĠValg":5213,"Ġfordele":5214,"somme":5215,"pil":5216,"Ġdrenge":5217,"Ġment":5218,"Ġtyske":5219,"sulent":5220,"Ġengelske":5221,"Ġstran":5222,"Ġeval":5223,"Ġsur":5224,"ĠPlan":5225,"Ġglob":5226,"ĠDK":5227,"ern":5228,"AM":5229,"ema":5230,"plig":5231,"Ġvejled":5232,"Ġlevende":5233,"ĠCV":5234,"lagte":5235,"Ġcialis":5236,"ĠBen":5237,"punkt":5238,"Ġfolkesk":5239,"Ã¦nding":5240,"Ġgrupper":5241,"ĠopstÃ¥r":5242,"Ġhjul":5243,"Ġsind":5244,"veks":5245,"tning":5246,"edrag":5247,"Ġejendomme":5248,"ĠlÃ¥ne":5249,"th":5250,"mÃ¦ssige":5251,"Ġsommeren":5252,"ĠTak":5253,"timent":5254,"ĠÃ¥nd":5255,"alinger":5256,"Ġfungere":5257,"Ġfjerne":5258,"ĠHotel":5259,"Ġtillid":5260,"prÃ¦sent":5261,"su":5262,"Ġdanskere":5263,"ĠSorter":5264,"Ġnede":5265,"ĠsjÃ¦ldent":5266,"Ġideer":5267,"ĠDKK":5268,"ĠkrÃ¦ft":5269,"ĠJesus":5270,"lÃ¦ge":5271,"23":5272,"opp":5273,"Under":5274,"Â´":5275,"Ġweekend":5276,"Ġpolitisk":5277,"tidens":5278,"attende":5279,"Ġug":5280,"Ġlukket":5281,"projekt":5282,"ĠLokal":5283,"Ġhuden":5284,"laget":5285,"agte":5286,"Ġteknologi":5287,"Ġoprettet":5288,"ĠPoul":5289,"Ġsmukt":5290,"ced":5291,"ĠBed":5292,"vide":5293,"Ġemb":5294,"iteten":5295,"Ġtekniske":5296,"iber":5297,"Ġskridt":5298,"Ã¦nde":5299,"Ġup":5300,"Ġforetage":5301,"Ġbeskrevet":5302,"Ġbeliggende":5303,"Ġarkite":5304,"Ġkampen":5305,"haven":5306,"Ġnavnet":5307,"Ġmandag":5308,"ĠRoskilde":5309,"barhed":5310,"leg":5311,"Ġtjeneste":5312,"handler":5313,"ĠsÃ¥fremt":5314,"ygtning":5315,"Ġordentligt":5316,"Ġbegynde":5317,"Ġfla":5318,"Ġdagligt":5319,"holdning":5320,"ĠFlere":5321,"opper":5322,"Ġpga":5323,"Ġskru":5324,"Ġkvali":5325,"Ġkirke":5326,"Ġreklam":5327,"mene":5328,"ĠSundhed":5329,"Ġregistreret":5330,"ĠAp":5331,"ĠKommunes":5332,"Ġfremragende":5333,"Ġfremme":5334,"Ġhente":5335,"ussion":5336,"ĠfÃ¸lelser":5337,"Ġtilstand":5338,"ĠTag":5339,"ĠKrist":5340,"sorg":5341,"ĠMel":5342,"Ġstiller":5343,"Ġansat":5344,"yp":5345,"famil":5346,"Ġtidligt":5347,"Ġfotograf":5348,"ĠforlÃ¦ng":5349,"Ġbeskriver":5350,"nÃ¦vnte":5351,"Ġstrateg":5352,"Ġnatten":5353,"olver":5354,"Ġcamping":5355,"amm":5356,"ĠDi":5357,"ĠfÃ¥s":5358,"Ġ32":5359,"ĠDog":5360,"ĠfÃ¸dselsdag":5361,"Ġinstall":5362,"Ġtoppen":5363,"ĠtrÃ¦kker":5364,"ĠPh":5365,"lov":5366,"Ġkarriere":5367,"produkter":5368,"Ġnaturlige":5369,"Ġfaldt":5370,"Ġturen":5371,"Ġorganisation":5372,"ĠÃ¥bent":5373,"Ġvende":5374,"Ġumu":5375,"sit":5376,"Ġspiser":5377,"ĠEm":5378,"Ġapotek":5379,"Ġarbejdsplads":5380,"ĠðŁĻĤ":5381,"Ġ2005":5382,"Ġkommentarer":5383,"Ġinteresseret":5384,"valt":5385,"Ġskader":5386,"ulering":5387,"ruget":5388,"Ġsorte":5389,"ĠafhÃ¦nger":5390,"bor":5391,"Ġtrans":5392,"Ġskete":5393,"Ġondt":5394,"Ġutrolig":5395,"fr":5396,"Ġindre":5397,"Ġender":5398,"Ġemne":5399,"Ġtriv":5400,"EJ":5401,"Ġskib":5402,"spar":5403,"ĠiP":5404,"Ġforbundet":5405,"alyse":5406,"opgaver":5407,"ansvar":5408,"Ġskr":5409,"Ġkigger":5410,"Ġfavor":5411,"Ġsaa":5412,"Ġaktivt":5413,"Ġalkohol":5414,"affe":5415,"ĠLiv":5416,"Â§":5417,"foreningen":5418,"maskine":5419,"ĠgÃ¦st":5420,"ĠSammen":5421,"eservice":5422,"Ġbookingtidspunktet":5423,"Ã¦ne":5424,"Ġudgivet":5425,"Ġlinks":5426,"Ġeftermid":5427,"Ġanbefales":5428,"iserede":5429,"dem":5430,"ÃĺR":5431,"Ġafs":5432,"iatri":5433,"Ġsamle":5434,"etter":5435,"isen":5436,"synet":5437,"Ġlandets":5438,"ĠSverige":5439,"ĠKirke":5440,"ĠadfÃ¦rd":5441,"lementer":5442,"oll":5443,"slÃ¸s":5444,"sproces":5445,"ned":5446,"smod":5447,"Ġopfat":5448,"AND":5449,"ĠsevÃ¦r":5450,"Ġbilligere":5451,"medlem":5452,"ĠKap":5453,"liggende":5454,"Ġfrokost":5455,"Ġindflydelse":5456,"Ġdets":5457,"Ġimidlertid":5458,"dder":5459,"sken":5460,"ype":5461,"ookies":5462,"TER":5463,"Ġegnet":5464,"Ġdages":5465,"smÃ¦ssigt":5466,"Ġtrin":5467,"Ġkredit":5468,"ĠjÃ¦vn":5469,"Ġbegyndt":5470,"Ġ>":5471,"tivt":5472,"Ġrelig":5473,"itra":5474,"sÃ¸gning":5475,"Ġhvorefter":5476,"Ġmode":5477,"fikation":5478,"ĠfÃ¦ng":5479,"Ġkone":5480,"ĠHold":5481,"Ġkvalitets":5482,"ĠStore":5483,"forbrug":5484,"sloven":5485,"Ġleveres":5486,"kraft":5487,"jeneste":5488,"skon":5489,"Ġbibli":5490,"ĠdrÃ¸mme":5491,"Ġmoms":5492,"ernes":5493,"fisk":5494,"Ġvinde":5495,"iets":5496,"rang":5497,"ĠkÃ¸ret":5498,"frit":5499,"Ġhoteller":5500,"gÃ¥rd":5501,"dire":5502,"ĠudlÃ¸b":5503,"Te":5504,"Ġopskrift":5505,"arkedet":5506,"ĠHav":5507,"Ġstatistik":5508,"Ġpoint":5509,"tegnelse":5510,"Ġbeskrivelse":5511,"Ġbygninger":5512,"egÃ¥r":5513,"ĠJylland":5514,"Ġabonnement":5515,"ĠHusk":5516,"sper":5517,"drene":5518,"ensk":5519,"Ġudend":5520,"ĠForslag":5521,"hjem":5522,"tages":5523,"Ġmulig":5524,"Ġkaldes":5525,"amme":5526,"Dan":5527,"AD":5528,"ksted":5529,"Ġmik":5530,"fÃ¸lg":5531,"hvert":5532,"Ġsymptom":5533,"Ã¦le":5534,"ĠtilgÃ¦ngelige":5535,"Ġgives":5536,"Ġvilde":5537,"Ġsalt":5538,"Ġumiddelbart":5539,"ĠopstÃ¥":5540,"Ġdyre":5541,"ĠafhÃ¦ngig":5542,"rÃ¥de":5543,"Ġudgiv":5544,"ĠTor":5545,"Ġlykkedes":5546,"ĠKvinder":5547,"Ġsing":5548,"Ġoftest":5549,"Ġ2004":5550,"kster":5551,"inst":5552,"ĠmÃ¦ngde":5553,"Ġ2000":5554,"ĠstÃ¸j":5555,"ĠCenter":5556,"Ã¦gt":5557,"ili":5558,"Ġeventuelt":5559,"ĠSE":5560,"Ġrus":5561,"Ġsw":5562,"funktion":5563,"fyldt":5564,"ĠGrund":5565,"Ġfang":5566,"Ġgarantier":5567,"ĠoversÃ¦ttelser":5568,"sor":5569,"Ġarbejdsgiver":5570,"Ġfigur":5571,"Ġklage":5572,"Ã¸lv":5573,"Ġserie":5574,"Ġtom":5575,"Ã¦gter":5576,"ĠNyt":5577,"log":5578,"ateriale":5579,"rejse":5580,"Ġforebyg":5581,"ĠmÃ¸det":5582,"sc":5583,"mor":5584,"Ġtoilet":5585,"ĠSkov":5586,"Ġprofessionel":5587,"able":5588,"ĠundersÃ¸gelser":5589,"Ġforventes":5590,"Ġ34":5591,"Ġsof":5592,"ancen":5593,"adet":5594,"ĠspÃ¸rge":5595,"formen":5596,"ĠRanders":5597,"Ġafd":5598,"ĠsÃ¥danne":5599,"Ġtorsdag":5600,"ĠMart":5601,"mann":5602,"ĠVejle":5603,"sger":5604,"rÃ¦ning":5605,"ĠMus":5606,"ĠkÃ¸bte":5607,"Ġlandbrug":5608,"skort":5609,"Ġroman":5610,"uddannelsen":5611,"Ġkonflik":5612,"Ġreturner":5613,"01":5614,"ari":5615,"Ġretningslin":5616,"aser":5617,"ĠAF":5618,"Ġbange":5619,"mÃ¦rker":5620,"kaldte":5621,"Ġpraktiske":5622,"Ġtingene":5623,"eger":5624,"ĠHvem":5625,"Ġlavere":5626,"jening":5627,"ulti":5628,"oget":5629,"tÃ¸j":5630,"ĠbekendtgÃ¸relse":5631,"Ġklik":5632,"ĠPla":5633,"Ġorden":5634,"ĠkÃ¸rte":5635,"ĠdÃ¥rligt":5636,"Ġheldigvis":5637,"Ġtir":5638,"sex":5639,"Ġdatab":5640,"Ġtilsvarende":5641,"Ġeftersp":5642,"Ġkonstant":5643,"Ġeventyr":5644,"ĠJac":5645,"virksomhed":5646,"ativer":5647,"Ġerkl":5648,"Ġudarbejd":5649,"anne":5650,"Ġonsdag":5651,"ĠGennem":5652,"vilkÃ¥r":5653,"ĠCO":5654,"Ġaktivere":5655,"Pr":5656,"odbold":5657,"ĠForfatter":5658,"ĠhÃ¥nden":5659,"ĠSÃ¸ren":5660,"ĠStig":5661,"rÃ¸rende":5662,"kes":5663,"ows":5664,"uering":5665,"smed":5666,"ĠÃ¸jeblik":5667,"Ġbygning":5668,"ĠefterÃ¥ret":5669,"ĠEsbjerg":5670,"dele":5671,"anke":5672,"Ġkandid":5673,"ĠÃ¦b":5674,"Ġafmelde":5675,"ĠnÃ¦v":5676,"Ġaflever":5677,"ĠstÃ¥l":5678,"dik":5679,"RU":5680,"Ġfornu":5681,"indsat":5682,"ĠprÃ¦m":5683,"Ġuddannelser":5684,"serv":5685,"Ġangivet":5686,"ladelse":5687,"ĠKj":5688,"Ġunivers":5689,"Ġoplevet":5690,"Ã¦vne":5691,"Ġlavede":5692,"Ġinkluder":5693,"du":5694,"ĠhÃ¦nger":5695,"Ġbunden":5696,"Ġmodtagelse":5697,"igheds":5698,"Ġkart":5699,"ested":5700,"ĠJohn":5701,"Ġil":5702,"Ġner":5703,"eken":5704,"part":5705,"ĠSvend":5706,"uet":5707,"ĠSiden":5708,"ĠslÃ¥et":5709,"ynam":5710,"Ġstabil":5711,"olde":5712,"Ġomkostninger":5713,"Ġvask":5714,"ĠforsÃ¸ge":5715,"Ġfolke":5716,"firma":5717,"Ġmiddel":5718,"Ġinvolver":5719,"ivt":5720,"klÃ¦d":5721,"Ġderved":5722,"ĠundersÃ¸ge":5723,"vejr":5724,"zz":5725,"ĠInden":5726,"Ġfortalte":5727,"ream":5728,"Ġfrivillige":5729,"Ġrev":5730,"oth":5731,"ual":5732,"bygning":5733,"smuligheder":5734,"Ġcit":5735,"ĠMu":5736,"Ġ?":5737,"lÃ¦gges":5738,"orks":5739,"Ã¸rges":5740,"Ġinterview":5741,"Ġhotellet":5742,"Ġpraktik":5743,"Ġdiverse":5744,"Ġpersonoplysninger":5745,"Ġunikke":5746,"vogn":5747,"Ġspis":5748,"Ġ37":5749,"Ġ!":5750,"ĠPrÃ¸":5751,"Ġmetoder":5752,"ĠsÃ¸rger":5753,"stad":5754,"Ġhurtigere":5755,"ĠsÃ¸vn":5756,"sid":5757,"Ġdefin":5758,"Ġseri":5759,"Ġtanke":5760,"tekn":5761,"Ġrek":5762,"ĠPorno":5763,"Ġprogrammet":5764,"Ġgulv":5765,"ex":5766,"Ġdamer":5767,"etid":5768,"ĠÃ¸jnene":5769,"api":5770,"ava":5771,"ĠsÃ¦rdeles":5772,"skede":5773,"vidt":5774,"Ġudstyret":5775,"FÃ¸r":5776,"26":5777,"Ġdownlo":5778,"box":5779,"Ġ75":5780,"usive":5781,"Ġderimod":5782,"Ġvidereg":5783,"Ġrespekt":5784,"ĠHÃ¥nd":5785,"Ð¾":5786,"mmende":5787,"Ġdybt":5788,"Ġlitteratur":5789,"stal":5790,"fÃ¸d":5791,"bel":5792,"word":5793,"lands":5794,"Ġnor":5795,"Ġudbet":5796,"ĠsevÃ¦rdigheder":5797,"Ġpe":5798,"Bil":5799,"Ġmyndig":5800,"ĠgrÃ¦nse":5801,"Ġoptaget":5802,"Ã¸nne":5803,"Ġtiltag":5804,"sens":5805,"Ġsamarbejdsp":5806,"arter":5807,"tale":5808,"ĠVirksom":5809,"Ġoverskud":5810,"ĠtÃ¦nkte":5811,"ĠAL":5812,"ĠPa":5813,"ĠRen":5814,"Ġfund":5815,"Ġretten":5816,"rak":5817,"ror":5818,"forslag":5819,"Ġkorte":5820,"Ġdengang":5821,"2015":5822,"28":5823,"bane":5824,"seende":5825,"Ã¸kken":5826,"ĠdirektÃ¸r":5827,"denafil":5828,"sfortegnelse":5829,"lemt":5830,"Ġkunstner":5831,"Ġvent":5832,"cerede":5833,"Ġresultatet":5834,"service":5835,"orsens":5836,"ekendtgÃ¸relse":5837,"papir":5838,"Ġkalenderen":5839,"oppe":5840,"ĠThomas":5841,"Ġgennemsnitlige":5842,"spiller":5843,"Ġbedes":5844,"gange":5845,"Ġorgan":5846,"Ġkoncent":5847,"Ġstoffer":5848,"Ġekstrem":5849,"enh":5850,"Ġtirsdag":5851,"ĠgrÃ¥":5852,"Ġplanter":5853,"Ġkvind":5854,"Ġbidrage":5855,"Ġplacering":5856,"ĠkÃ¸bes":5857,"Ġhid":5858,"Ġomfattende":5859,"Ġsav":5860,"ĠLar":5861,"pens":5862,"ĠeuropÃ¦iske":5863,"Ġgeneralforsamling":5864,"istiske":5865,"ĠNr":5866,"ĠDis":5867,"Ġindstilling":5868,"Ġvaske":5869,"Ġmanden":5870,"Ġmedvir":5871,"hl":5872,"ĠselvstÃ¦nd":5873,"ĠudfÃ¸res":5874,"ower":5875,"videnskab":5876,"Ġelektri":5877,"Ġadgangskode":5878,"ĠTi":5879,"ĠInformation":5880,"struktur":5881,"redi":5882,"ĠNavn":5883,"mÃ¦ssigt":5884,"aste":5885,"ĠudendÃ¸rs":5886,"Ġfremstillet":5887,"ĠBruger":5888,"Ġelementer":5889,"Ġdeb":5890,"Ã¦sent":5891,"Ġgrader":5892,"ikere":5893,"ĠforÃ¥rs":5894,"Ġrund":5895,"rom":5896,"Ġpresse":5897,"06":5898,"Ġgarn":5899,"Ġteknisk":5900,"ĠmarkedsfÃ¸ring":5901,"Ġkne":5902,"Ġvender":5903,"otat":5904,"Ġpriori":5905,"oplevelse":5906,"Ġmass":5907,"Ġklubben":5908,"Ġanledning":5909,"Ġkontrakt":5910,"ĠSv":5911,"Ġtravl":5912,"ĠblÃ¸de":5913,"09":5914,"Ġass":5915,"god":5916,"Ġbyens":5917,"Ġhyggeligt":5918,"ox":5919,",\"":5920,"forsikring":5921,"Ġmotion":5922,"urer":5923,"Vis":5924,"ĠNiels":5925,"ĠlÃ¦der":5926,"Ġfylder":5927,"Ġmedmindre":5928,"Ġbri":5929,"ĠnÃ¸gen":5930,"ĠgrÃ¦nser":5931,"Ġsjove":5932,"bÃ¥nd":5933,"lu":5934,"vÃ¦sen":5935,"Ġrestaurant":5936,"Ġspurgte":5937,"Ġudfordring":5938,"ĠRÃ¥d":5939,"ĠGam":5940,"mo":5941,"ĠsÃ¥kaldte":5942,"estilling":5943,"Ġmaksim":5944,"Ġkommunens":5945,"llust":5946,"ith":5947,"Ġhelbred":5948,"redse":5949,"sede":5950,"ĠtiltrÃ¦":5951,"Ġpat":5952,"Ġligner":5953,"ume":5954,"BS":5955,"ĠbekrÃ¦ftet":5956,"Ġkommunale":5957,"ĠudfÃ¸re":5958,"Ġstr":5959,"Ġtalt":5960,"lip":5961,"Ġnormal":5962,"Ġkonkurrence":5963,"ĠÃ¦ld":5964,"Ġni":5965,"ĠbevÃ¦gelse":5966,"Ġkunden":5967,"ĠViborg":5968,"nerne":5969,"ĠEg":5970,"ĠhÃ¦k":5971,"Ġrenover":5972,"ĠMit":5973,"Ġledere":5974,"Ã¦lger":5975,"ometer":5976,"Ġkampe":5977,"smÃ¥l":5978,"Ġmer":5979,"Ġgemme":5980,"Ġskriv":5981,"ĠFamil":5982,"Ġ300":5983,"Ġsyv":5984,"igh":5985,"konomi":5986,"Ġindstillinger":5987,"ĠHej":5988,"verden":5989,"Ġtemp":5990,"appen":5991,"Ġsamling":5992,"Ġdreng":5993,"xx":5994,"lyst":5995,"Ġperspe":5996,"Mange":5997,"ĠFÃ¸rst":5998,"Ġbehandler":5999,"ryde":6000,"ĠBu":6001,"ze":6002,"Ġutrol":6003,"bekendt":6004,"ĠdrÃ¦":6005,"05":6006,"ial":6007,"ĠMet":6008,"Vej":6009,".Â«":6010,"rets":6011,"amper":6012,"Ġklog":6013,".-":6014,"Ġafholdt":6015,"ĠDem":6016,"ĠFolke":6017,"Ġoverbe":6018,"Ġlive":6019,"ĠFred":6020,"Ġretter":6021,"kend":6022,"Ġslutningen":6023,"Ġlogge":6024,"moder":6025,"Ġspar":6026,"Ġudlej":6027,"ford":6028,"Ġgem":6029,"ĠLej":6030,"Ġforvejen":6031,"ĠNej":6032,"ĠspÃ¸rger":6033,"ĠforÃ¥ret":6034,"ĠspÃ¸rgsmÃ¥let":6035,"rakti":6036,"ĠMov":6037,"Ġafspejler":6038,"onym":6039,"MS":6040,"Var":6041,"fÃ¸rsel":6042,"Ġfler":6043,"Ġlovgivning":6044,"Ġbutikken":6045,"ĠFer":6046,"ĠðŁĺ":6047,"ĠSelvom":6048,"cerer":6049,"Ġdiagn":6050,"Ġrepar":6051,"tog":6052,"Ġlagde":6053,"san":6054,"ĠsÃ¦dvan":6055,"Ġenige":6056,"Ġarrangementer":6057,"Ġkapital":6058,"Ġregering":6059,"olie":6060,"Ġteen":6061,"kstra":6062,"ĠPark":6063,"27":6064,"ranchen":6065,"ĠBru":6066,"Ġbegyndelsen":6067,"Ġsitet":6068,"Ġhuse":6069,"Ġpositiv":6070,"Ġsortiment":6071,"Ã¦gler":6072,"Ġ196":6073,"Ġforetages":6074,"stalt":6075,"icap":6076,"Ġ38":6077,"Ġendte":6078,"Ġkron":6079,"Ġgalt":6080,"Ġselskabet":6081,"Ġmetode":6082,"Ġafstand":6083,"ĠHD":6084,"Ġkast":6085,"stede":6086,"Ġsign":6087,"smet":6088,"Ġudover":6089,"iÃ¸r":6090,"sborg":6091,"ĠkrÃ¦fter":6092,"Ġhensigt":6093,"ĠFÃ¦r":6094,"Ġfalde":6095,"amb":6096,"sministeriet":6097,"Ġhjemmet":6098,"Ġkreativ":6099,"Ġtj":6100,"ĠangÃ¥r":6101,"pt":6102,"Ġdemokra":6103,"Ġmusk":6104,"500":6105,"Ġbyer":6106,"Ġnavne":6107,"ournal":6108,"Ġdrejer":6109,"oblemer":6110,"Ġhom":6111,"Ġsolgt":6112,"Vil":6113,"Ġlandsby":6114,"Ġweeken":6115,"Ġsamtale":6116,"eland":6117,"Ã¦lge":6118,"elef":6119,"ĠVal":6120,"Ġbanen":6121,"Ġnyder":6122,"03":6123,"ĠnÃ¦rheden":6124,"Ġomgivelser":6125,"ĠmÃ¸dt":6126,"ĠKold":6127,"Ġaktive":6128,"tifik":6129,"Ã¦ngde":6130,"Ġveje":6131,"start":6132,"Ġafsted":6133,"ĠBilag":6134,"ior":6135,"Ġkamera":6136,"Ġtastatur":6137,"aterede":6138,"tikler":6139,"krÃ¦ft":6140,"Ġudbyder":6141,"Ġfj":6142,"Ġbryllup":6143,"Ġsvare":6144,"Ġseng":6145,"ĠfornÃ¸jelse":6146,"ĠId":6147,"ĠfÃ¸rende":6148,"Ġyderst":6149,"Ġfamilier":6150,"erende":6151,"Ġproblemet":6152,"Ġsov":6153,"OMM":6154,"Ġbede":6155,"Ġtank":6156,"Ġoverveje":6157,"ĠlegetÃ¸j":6158,"Ġvedkommende":6159,"regler":6160,"trÃ¦k":6161,"Ġslu":6162,"Ġkurser":6163,"Ġgaran":6164,"ĠnÃ¸dvendigvis":6165,"yer":6166,"ĠbeskÃ¦ftigelses":6167,"Ġkrist":6168,"samlingen":6169,"valitet":6170,"ĠFolk":6171,"ĠFoto":6172,"sket":6173,"terende":6174,"yttelses":6175,"ĠUl":6176,"Ġsoft":6177,"Ġovernat":6178,"ĠmÃ¸bler":6179,"ĠLige":6180,"Ġsa":6181,"ĠstÃ¸rrelser":6182,"Ġkvaliteten":6183,"Ġafslapp":6184,"ĠÃ¥rligt":6185,"ftige":6186,"ĠSyge":6187,"ĠKur":6188,"Ġenorm":6189,"kamp":6190,"ĠhÃ¦v":6191,"UD":6192,"Ġstats":6193,"skabs":6194,"Em":6195,"Ġhemm":6196,"atform":6197,"Ġvarem":6198,"lÃ¦gge":6199,"lav":6200,"ĠSilkeborg":6201,"ĠnÃ¥ede":6202,"Ġhil":6203,"ĠprÃ¦sent":6204,"ĠII":6205,"Ġbilag":6206,"nis":6207,"adem":6208,"ĠPriv":6209,"ĠFrankrig":6210,"ĠSal":6211,"urdere":6212,"information":6213,"ĠLed":6214,"tÃ¦gter":6215,"Ġdiskussion":6216,"skol":6217,"Ġlavt":6218,"ĠpÃ¥lid":6219,"klusion":6220,"hej":6221,"standen":6222,"Ġnyhedsbrevet":6223,"ause":6224,"Ġspid":6225,"Ġyde":6226,"Ġspej":6227,"Ã¦dt":6228,"Ġbesluttet":6229,"Ġvision":6230,"ĠgennemgÃ¥":6231,"lÃ¸n":6232,"Ġudbred":6233,"Ġpor":6234,"Ġskoler":6235,"IF":6236,"Ġkvartal":6237,"irt":6238,"komp":6239,"igtigt":6240,"fikke":6241,"Ġundervejs":6242,"ĠUng":6243,"lim":6244,"ĠprÃ¸v":6245,"35":6246,"ĠMax":6247,"ĠsÃ¦lges":6248,"skning":6249,"shÃ¸j":6250,"udvik":6251,"muligheder":6252,"Ġpublikum":6253,"yttede":6254,"ĠIN":6255,"Ġeffektivt":6256,"ĠnÃ¦rmeste":6257,"rim":6258,"Ġaffald":6259,"Ġbestyrelses":6260,"EK":6261,"Ġdk":6262,"aka":6263,"Ġudkig":6264,"give":6265,"asino":6266,"ĠfÃ¦rre":6267,"ĠStud":6268,"Ð°":6269,"Ġarrangement":6270,"Ġaftaler":6271,"elm":6272,"ĠVester":6273,"rin":6274,"ĠMichael":6275,"Ġutil":6276,"Ġau":6277,"Ġstemning":6278,"Ġhjemmesider":6279,"36":6280,"Ġkomplet":6281,"Ðµ":6282,"www":6283,"unk":6284,"Ã¦kken":6285,"ĠdÃ¦kket":6286,"han":6287,"Ġtilmelde":6288,"ĠMal":6289,"ĠResult":6290,"Ġinstitution":6291,"bruger":6292,"Ġplus":6293,"ĠfÃ¸les":6294,"ĠArbejds":6295,"ĠdÃ©t":6296,"Ã¦tning":6297,"Ġindsigt":6298,"lement":6299,"Ġprogrammer":6300,"Ġklass":6301,"Ġparkering":6302,"Ġeksempler":6303,"ammen":6304,"ones":6305,"liste":6306,"ellen":6307,"ĠEN":6308,"va":6309,"ĠmÃ¸rke":6310,"KÃ¸b":6311,"ysten":6312,"utere":6313,"jerner":6314,"Ġsuppler":6315,"varm":6316,"Ã¸rgeskema":6317,"Ġforum":6318,"OT":6319,"Ġudp":6320,"Ġjournal":6321,"FOR":6322,"celler":6323,"Ã¦ller":6324,"ĠkÃ¸rt":6325,"Ġrob":6326,"oteket":6327,"ĠtÃ¥":6328,"Ġramt":6329,"ĠVide":6330,"Velkommen":6331,"ĠhÃ¥ndtere":6332,"PS":6333,"Ġvegne":6334,"ias":6335,"ellas":6336,"Ġaktiveret":6337,"ografi":6338,"Ġforventer":6339,"vÃ¦relset":6340,"ĠJe":6341,"Ġsituationer":6342,"ĠÃ¦ndrer":6343,"ĠspÃ¸rgsmÃ¥lst":6344,"Ġdygtige":6345,"Ġlisten":6346,"Ġfing":6347,"yrk":6348,"Ġstue":6349,"rettel":6350,"Ġanmod":6351,"offet":6352,"orkshop":6353,"Ġmatch":6354,"ĠAnne":6355,"Ġhjertet":6356,"ĠsÃ¥r":6357,"Ġslan":6358,"Ġplaner":6359,"Ġhygge":6360,"ĠnÃ¦vnte":6361,"ĠAut":6362,"ĠpÃ¥rÃ¸rende":6363,"ĠFormÃ¥let":6364,"ĠimÃ¸de":6365,"Ġbetalt":6366,"Ġbeklager":6367,"Ġperi":6368,"Ġskad":6369,"ĠEjend":6370,"ock":6371,"agement":6372,"ĠFolketinget":6373,"ĠVel":6374,"Ġfremmest":6375,"Ġgrundigt":6376,"Ġheraf":6377,"ygger":6378,"ĠIndholdsfortegnelse":6379,"Ġhyggelig":6380,"Ġoprindelige":6381,"Ġligeg":6382,"Ġhenholdsvis":6383,"vejene":6384,"Ġheste":6385,"Ġkob":6386,"skriv":6387,"ÃĨR":6388,"arbejds":6389,"Ġbehandlingen":6390,"okse":6391,"noncer":6392,"Ġkryds":6393,"Ġgenerelle":6394,"ĠGuds":6395,"Ġlinket":6396,"smÃ¦ssig":6397,"Ġbehandles":6398,"ĠrengÃ¸ring":6399,"Ġanvendt":6400,"ĠHal":6401,"ĠsÃ¸rge":6402,"ĠSpÃ¸rgsmÃ¥l":6403,"mmerne":6404,"Ġendvidere":6405,"Fal":6406,"Dansk":6407,"ĠgennemfÃ¸re":6408,"Ġkaldet":6409,"ĠtilfÃ¸je":6410,"liver":6411,"jektiv":6412,"gÃ¸res":6413,"Ġcirka":6414,"Ġflygtning":6415,"Ġhospital":6416,"slev":6417,"Ġtilgang":6418,"Ġgud":6419,"ĠJacob":6420,"Ġforedrag":6421,"agerne":6422,"ĠMark":6423,"ĠBornholm":6424,"Ġstrategi":6425,"Ġroligt":6426,"uller":6427,"Ġdanskerne":6428,"ĠlÃ¦gges":6429,"ĠindgÃ¥et":6430,"fyld":6431,"Ġcy":6432,"ĠstÃ¸v":6433,"Ġslog":6434,"29":6435,"ovre":6436,"Ġbeskyttelse":6437,"ĠforÃ¥r":6438,"ĠrÃ¸g":6439,"Ġudskift":6440,"bÃ¸rn":6441,"utte":6442,"ĠBj":6443,"Ġ55":6444,"Ġimplementer":6445,"ĠRus":6446,"ody":6447,"Ġressourcer":6448,"ĠvÃ¦rktÃ¸jer":6449,"Ġskin":6450,"ĠslÃ¥r":6451,"ĠKat":6452,"no":6453,"ĠJan":6454,"Ġant":6455,"Ġtilladt":6456,"ĠArbejdsm":6457,"Ġbillederne":6458,"Ġ150":6459,"esse":6460,"alerne":6461,"ĠNordjylland":6462,"prÃ¸ve":6463,"ĠmÃ¥neden":6464,"Ġvedligeholdelse":6465,"aften":6466,"Ġterras":6467,"ĠDato":6468,"Ġregne":6469,"Ġudlever":6470,"iliteter":6471,"uro":6472,"ĠJohan":6473,"Ġevne":6474,"Ġuddannet":6475,"ĠÃ¦ndres":6476,"Ġegenskaber":6477,"ferencer":6478,"ĠJava":6479,"Ġsygdomme":6480,"Ã¦lder":6481,"ĠDM":6482,"Ġmorgenmad":6483,"Ġtroede":6484,"Ġdeltagere":6485,"rel":6486,"lek":6487,"laden":6488,"Ġundervisningen":6489,"aw":6490,"Ġdeltagelse":6491,"KKE":6492,"Pro":6493,"Ã¦kst":6494,"Ġaftenen":6495,"Ġrut":6496,"fart":6497,"Ġ39":6498,"Ġlevitra":6499,"grunden":6500,"Ġforny":6501,"ĠpÃ¦nt":6502,"Ġdagsorden":6503,"Ġbenyttes":6504,"ĠFag":6505,"ats":6506,"Ġdokumentation":6507,"ĠBÃ¥de":6508,"rest":6509,"ĠMartin":6510,"openh":6511,"Script":6512,"delinger":6513,"Ġrunde":6514,"Ġcentrale":6515,"Ġhvorvidt":6516,"ingelserne":6517,"Ġalmindeligt":6518,"Ġlands":6519,"Ġintens":6520,"itt":6521,"ho":6522,"Ġuddannelsen":6523,"ĠMaj":6524,"Ġstemmer":6525,"afÃ©":6526,"ĠSw":6527,"lund":6528,"Ġkundeservice":6529,"2016":6530,"ĠtilhÃ¸rende":6531,"ĠsÃ¦":6532,"ĠÃ¦gt":6533,"forsy":6534,"afdelingen":6535,"bn":6536,"Ġserien":6537,"ĠPlads":6538,"amet":6539,"Ġsymb":6540,"ĠNo":6541,"Ġfordelt":6542,"**":6543,"Ġart":6544,"skyld":6545,"Ġsikret":6546,"sident":6547,"ranger":6548,"Ġjern":6549,"dÃ¸rs":6550,"Ġhttp":6551,"brÃ¸d":6552,"Ġsolen":6553,"Ġbilligt":6554,"lÃ¸st":6555,"ĠMeget":6556,"ĠoptrÃ¦":6557,"Ġmund":6558,"arte":6559,"umre":6560,"Ġungdoms":6561,"Ġkonsekvenser":6562,"Ġsamarbejdet":6563,"ĠAb":6564,"spunkter":6565,"Ġstyre":6566,"lene":6567,"ĠÃ¸delÃ¦g":6568,"Ġoverordnede":6569,"Ã¸rsel":6570,"obby":6571,"Ġskuesp":6572,"con":6573,"Ġ00":6574,"Ġsendte":6575,"fuldt":6576,"Ġfrygt":6577,"Ġynd":6578,"Ã¦ftigelses":6579,"Ġoverflade":6580,"ĠMag":6581,"ara":6582,"Ġvarier":6583,"ĠUanset":6584,"ump":6585,"Ġkirk":6586,"ofilm":6587,"Ġblok":6588,"Ġfolket":6589,"kaldt":6590,"Ġhusker":6591,"ordningen":6592,"Ġafb":6593,"ruk":6594,"fre":6595,"elefoner":6596,"ylden":6597,"Ġnaturlig":6598,"Ġsamfundet":6599,"ĠSpeci":6600,"ĠnÃ¸gne":6601,"sigtet":6602,"Ġanalyser":6603,"pression":6604,"Ġrejsende":6605,"Ġminder":6606,"ĠBank":6607,"BemÃ¦rk":6608,"Ġeleg":6609,"Ġudtal":6610,"ĠÃ¥rhund":6611,"Ġfilmen":6612,"ĠFre":6613,"ĠâĢ¢":6614,"ĠtÃ¦nd":6615,"ksus":6616,"estival":6617,"Ġsystemet":6618,"vere":6619,"Ġnationale":6620,"tier":6621,"ĠnÃ¥et":6622,"kra":6623,"Ġplejer":6624,"Ġvurdere":6625,"Ġumuligt":6626,"ony":6627,"Ġsnak":6628,"Ġmiddag":6629,"Ġpositive":6630,"Ġbringe":6631,"Ġforklarer":6632,"lÃ¦gger":6633,"AV":6634,"sko":6635,"Ġku":6636,"Ġstranden":6637,"ĠKong":6638,"Ġudsat":6639,"ads":6640,"Ġsens":6641,"UR":6642,"Ġadministration":6643,"sej":6644,"Ġkurs":6645,"rib":6646,"Ġmetal":6647,"stiller":6648,"ĠMindre":6649,"yper":6650,"Ġout":6651,"Ġlid":6652,"Ġudst":6653,"Ġofficielle":6654,"Ġindsamler":6655,"Ġemail":6656,"Ġmaden":6657,"Ġlejligheder":6658,"administ":6659,"ĠmÃ¦ngder":6660,"otter":6661,"genhed":6662,"ĠKolding":6663,"Ġtasten":6664,"ĠLarsen":6665,"ĠNorge":6666,"Ġvidunder":6667,"ĠÃ¥rlige":6668,"Ġbalance":6669,"ĠhÃ¦nge":6670,"Ġbefinder":6671,"ĠlÃ¸g":6672,"Ġitalien":6673,"eliv":6674,"ygter":6675,"ĠHels":6676,"tryk":6677,"Ġmarkant":6678,"ejst":6679,"Ġkog":6680,"Ġlangsomt":6681,"Ġlette":6682,"urs":6683,"Ġspecielle":6684,"Ġholdet":6685,"stoffer":6686,"stÃ¦ndigheder":6687,"Ġbesvar":6688,"Ġtrivsel":6689,"vente":6690,"Ġbogst":6691,"OS":6692,"ĠtilfÃ¦ldet":6693,"ĠDeres":6694,"ĠFC":6695,"Ġtydelig":6696,"grundlag":6697,"ĠKir":6698,"Ġangiv":6699,"Ġavis":6700,"Ġkollega":6701,"Ġvink":6702,"Ġ48":6703,"Ġkommenter":6704,"Ġmidten":6705,"Ġlaves":6706,"Ġkant":6707,"Ġrart":6708,"Ġbonus":6709,"skraft":6710,"Ġ..":6711,"Ġpsykisk":6712,"ĠplanlÃ¦gning":6713,"Ġbind":6714,"Ġutroligt":6715,"Ġtekster":6716,"ĠTer":6717,"Ġinspireret":6718,"Ġlove":6719,"Ġprote":6720,"ĠUndersÃ¸g":6721,"ĠbÃ¦re":6722,"ĠprÃ¦sentere":6723,"pon":6724,"Ġfan":6725,"tagere":6726,"ĠWeb":6727,"ĠBud":6728,"Ġinstitutioner":6729,"Ġopgaven":6730,"Ġskoven":6731,"Ġgavn":6732,"Ġvinduer":6733,"planen":6734,"Ġordin":6735,"skrifter":6736,"ĠgrÃ¦s":6737,"Ġkategorier":6738,"ĠMa":6739,"Ġandels":6740,"ĠÃ¦gteskab":6741,"rust":6742,"ec":6743,"ladt":6744,"Ġph":6745,"Ġ2003":6746,"urg":6747,"ffen":6748,"Ġbrugeren":6749,"Ġpyn":6750,"Ġkreative":6751,"Ã¸rrelse":6752,"sÃ¦ttelses":6753,"ĠGen":6754,"ĠlÃ¦ger":6755,"produktion":6756,"Tryk":6757,"âĢĻ,":6758,"Ġindtryk":6759,"ĠCan":6760,"Ġfind":6761,"openhagen":6762,"ĠHj":6763,"Ġmotiver":6764,"Ġblomst":6765,"Ġpassende":6766,"Komm":6767,"ĠbedÃ¸":6768,"ĠVI":6769,"ĠEks":6770,"Ġfaldet":6771,"ĠLin":6772,"vnen":6773,"Ġforventninger":6774,"timering":6775,"Ġsocialt":6776,"ĠnÃ¦st":6777,"Ġbehandlet":6778,"pas":6779,"Ġfransk":6780,"Ġyngre":6781,"ham":6782,"ĠvÃ¦relses":6783,"ĠPedersen":6784,"Ġgodkendelse":6785,"abrik":6786,"unge":6787,"ledningen":6788,"igheder":6789,"ĠvÃ¦rker":6790,"ĠAc":6791,"ĠsprÃ¸j":6792,"Ġvirkning":6793,"ĠLou":6794,"ĠÃ¦ldste":6795,"ĠHot":6796,"ĠNÃ¸g":6797,"ĠPoliti":6798,"Ġ01":6799,"ĠJavaScript":6800,"imer":6801,"bund":6802,"etil":6803,"iness":6804,"Ġkapitel":6805,"mos":6806,"useum":6807,"greb":6808,"Ġadvokat":6809,"bring":6810,"profil":6811,"Ġcer":6812,"2014":6813,"Ã¸en":6814,"Ġkage":6815,"ĠindforstÃ¥et":6816,"ĠSag":6817,"ĠsÃ¸ges":6818,"ĠBel":6819,"ĠUdvikling":6820,"Ġkombination":6821,"aten":6822,"Ġbidrag":6823,"ynde":6824,"sop":6825,"ĠNation":6826,"ĠkÃ¸bet":6827,"ĠvÃ¦sentligt":6828,"ĠmÃ¸dte":6829,"ĠfÃ¸lelse":6830,"ĠLever":6831,"ĠItalien":6832,"dÃ¦k":6833,"Ġudenlandske":6834,"Ġudtrykk":6835,"Ġydelser":6836,"ningens":6837,"PR":6838,"Ġisol":6839,"ĠomstÃ¦ndigheder":6840,"Ġklokken":6841,"Ġnyhed":6842,"Ġvor":6843,"Ġforretnings":6844,"Ġstillet":6845,"Ġtraditionelle":6846,"ĠredegÃ¸relse":6847,"ĠPolitik":6848,"ĠRom":6849,"Ġbestemmelser":6850,"ksemp":6851,"Ġprov":6852,"ĠforhÃ¥nd":6853,"piger":6854,"ĠKunst":6855,"Ġcentral":6856,"Ġinddr":6857,"Over":6858,"ransport":6859,"slam":6860,"Ġmilit":6861,"HED":6862,"ĠLille":6863,"ĠKÃ¦re":6864,"visningen":6865,"08":6866,"Ġprocessen":6867,"Ġopfattelse":6868,"ygg":6869,"stig":6870,"Ġbyr":6871,"ĠJesper":6872,"Ġpassword":6873,"ĠErik":6874,"mÃ¦rke":6875,"ĠkÃ¸kkenet":6876,"Ġmatem":6877,"tiklen":6878,"Ġsnakke":6879,"Ġband":6880,"fug":6881,"ĠCarl":6882,"Ġme":6883,"ĠsmÃ¸r":6884,"Ġ43":6885,"ĠInst":6886,"systemet":6887,"ĠTlf":6888,"Ġsommerhus":6889,"TE":6890,"Ġmester":6891,"Ġflyttet":6892,"75":6893,"Ġhenvendelse":6894,"Ġstoppe":6895,"Ġdygtig":6896,"Ġnysger":6897,"industri":6898,"ĠHerefter":6899,"ĠMob":6900,"Ġgenbrug":6901,"Ġhandels":6902,"esb":6903,"Ã¦nke":6904,"asen":6905,"osof":6906,"Ġacceptere":6907,"anien":6908,"Ã¸mte":6909,",Â«":6910,"Ġbevar":6911,"ement":6912,"Ġparter":6913,"Ġvirksomhedens":6914,"salg":6915,"Ġhverdage":6916,"Ġrapp":6917,"ĠSport":6918,"Fra":6919,"Ã¦kkende":6920,"Ġpositivt":6921,"TV":6922,"rÃ¸je":6923,"Ġkopi":6924,"Ġberegnet":6925,"Ġmy":6926,"Ġledelses":6927,"ĠmÃ¥lrettet":6928,"90":6929,"spor":6930,"Ġbesluttede":6931,"Ġ46":6932,"skende":6933,"zon":6934,"Ġ42":6935,"omen":6936,"ĠEngland":6937,"OP":6938,"Ġudd":6939,"ĠÃ¥rene":6940,"ĠtrÃ¦nings":6941,"Ġfriske":6942,"Ġdokumenter":6943,"armer":6944,"atten":6945,"ĠMovellas":6946,"ĠSikker":6947,"GI":6948,"ĠER":6949,"lic":6950,"Ġtusind":6951,"ĠBus":6952,"ĠSÃ¦r":6953,"ĠknÃ¦":6954,"ĠBro":6955,"ĠSand":6956,"dren":6957,"Ġmangel":6958,"oren":6959,"Ġuniversitet":6960,"cy":6961,"Ġoplyses":6962,"Ġillust":6963,"ĠStrand":6964,"Ġkommunerne":6965,"ĠTrÃ¦":6966,"planer":6967,"ĠmÃ¸rk":6968,"Ġboede":6969,"Ġmyndighed":6970,"ĠWe":6971,"2018":6972,"ureau":6973,"Ġmennesket":6974,"alp":6975,"progra":6976,"eting":6977,"Ġsteg":6978,"ĠkÃ¸rsel":6979,"tab":6980,"Ġstrand":6981,"ards":6982,"ĠSortÃ©r":6983,"ĠhÃ¦r":6984,"ĠoplÃ¦g":6985,"ĠHorsens":6986,"Ġkontant":6987,"Ġrelation":6988,"Ġhermed":6989,"Ġpkt":6990,"Ġinspirere":6991,"Ġtilrettel":6992,"mmeret":6993,"Ġsamtlige":6994,"Ġventil":6995,"Ġsags":6996,"spris":6997,"ĠnedenstÃ¥ende":6998,"ĠNem":6999,"skift":7000,"Ġsmartph":7001,"Ã¸rt":7002,"Ġafholdes":7003,"ĠSn":7004,"ĠskÃ¸nt":7005,"ĠLy":7006,"vang":7007,"Ġindeb":7008,"lemmerne":7009,"vises":7010,"ĠMÃ¸d":7011,"Ġstik":7012,"ola":7013,"Ġunderholdning":7014,"ĠmÃ¥le":7015,"Ġposition":7016,"givningen":7017,"Kan":7018,"Ã¦nderne":7019,"Ġminister":7020,"Ġetableret":7021,"Ġspillede":7022,"ĠlÃ¦ngde":7023,"ĠÃĺster":7024,"ĠHvil":7025,"04":7026,"Ġmyndigheder":7027,"uck":7028,"Ġsymptomer":7029,"sprodu":7030,"Ġhistoriske":7031,"Ġdim":7032,"fÃ¦re":7033,"ĠStigende":7034,"ĠFÃ¸rste":7035,"Ġlyset":7036,"Ġsports":7037,"behand":7038,"bens":7039,"ĠindlÃ¦gget":7040,"ela":7041,"reen":7042,"Ġopfylde":7043,"Ġredskaber":7044,"Ġindretning":7045,"udgifter":7046,"ĠÃ¸jen":7047,"Ġindblik":7048,"Ġmisbrug":7049,"Ġotte":7050,"aftalen":7051,"Ġpunkter":7052,"Ġangreb":7053,"fÃ¸lgning":7054,"ĠskÃ¸nhed":7055,"dragelse":7056,"Ġsent":7057,"ĠhÃ¥ndvÃ¦rk":7058,"ple":7059,"akning":7060,"Ġlivsstil":7061,"Ġdanne":7062,"artnere":7063,"ĠMorten":7064,"Ġvurderer":7065,"Ġrefleks":7066,"Ġerstatning":7067,"ĠCyk":7068,"Ġgas":7069,"slovens":7070,"Ã¦den":7071,"agram":7072,"Ġhandel":7073,"Ġmodne":7074,"cks":7075,"ĠApS":7076,"Ġudseende":7077,"Ch":7078,"ĠtÃ¸":7079,"ĠmÃ¥lrette":7080,"ĠWind":7081,"Ġalternativ":7082,"try":7083,"ĠdÃ¥rlige":7084,"Ġros":7085,"ĠbesÃ¸get":7086,"Ġ1000":7087,"bogen":7088,"lÃ¸":7089,"ĠSF":7090,"istisk":7091,"Ġmedarbejderne":7092,"Ġchef":7093,"Ġfry":7094,"ylling":7095,"02":7096,"ĠreprÃ¦sentant":7097,"Ġangst":7098,"Ġmaven":7099,"link":7100,"Ġoplysningerne":7101,"Ġtastaturgen":7102,"ĠCent":7103,"cl":7104,"ĠPen":7105,"ĠChristensen":7106,"95":7107,"ĠdÃ©r":7108,"Ġarm":7109,"hjul":7110,"Ġtidlig":7111,"Ġfranske":7112,"ĠunderstÃ¸tter":7113,"Ã¸ring":7114,"Ġtlf":7115,"Ġdo":7116,"vanza":7117,"Ġinstaller":7118,"Ġvivanza":7119,"ĠMidtjylland":7120,"ficere":7121,"Ġprot":7122,"holdende":7123,"air":7124,"listen":7125,"afdeling":7126,"Ð¸":7127,"Ġmente":7128,"Ġindividuelle":7129,"ĠNye":7130,"ĠHvid":7131,"ĠÃ¸verste":7132,"Ġethvert":7133,"ĠsvÃ¦re":7134,"34":7135,"ĠlÃ¦rt":7136,"ĠspÃ¸rgsmÃ¥lstegnet":7137,"Ġbidrager":7138,"ynder":7139,"ĠMer":7140,"ĠMinister":7141,"ĠforegÃ¥ende":7142,"edyr":7143,"Ġfrihed":7144,"hone":7145,"ĠMette":7146,"bh":7147,"ĠOle":7148,"Ġhalvdelen":7149,"Ġvokser":7150,"Ġ44":7151,"ĠMellem":7152,"Ġbordet":7153,"Ã¸rgsel":7154,"Ġ195":7155,"Ġtastaturgenvejene":7156,"estÃ¥ende":7157,"Ġentre":7158,"Hun":7159,"ĠBÃ¸r":7160,"ĠFÃ¸de":7161,"Ġholdes":7162,"100":7163,"ĠFrederiksberg":7164,"Ġvirksomheds":7165,"ĠHistor":7166,"ĠlÃ¦sning":7167,"Ġgangen":7168,"Ġhurtigst":7169,"andin":7170,"Ġstorm":7171,"ĠÃ¸g":7172,"Ġtynd":7173,"Ġorganisationer":7174,"Ġhypp":7175,"Ġteksten":7176,"ular":7177,"ĠGar":7178,"akob":7179,"ĠÃĺnske":7180,"Ġfavorit":7181,"ĠOl":7182,"ĠpÃ¥beg":7183,"selv":7184,"ep":7185,"EF":7186,"ĠSim":7187,"Ġ65":7188,"ĠGrÃ¸nland":7189,"tifikat":7190,"ĠgrÃ¸nts":7191,"esel":7192,"ruppen":7193,"entlige":7194,"ĠpÃ¥virker":7195,"oksen":7196,"07":7197,"Ġmoden":7198,"ĠFormÃ¥l":7199,"Ġ194":7200,"sition":7201,"Ġsan":7202,"Emne":7203,"ĠhÃ¥rde":7204,"bevÃ¦g":7205,"olution":7206,"Ġhvoraf":7207,"ĠByr":7208,"Ã¦ndene":7209,"Ġusikker":7210,"Ġtilpas":7211,"Ġhavet":7212,"ĠRÃ¸d":7213,"Ġbyde":7214,"splads":7215,"ĠbrÃ¦nde":7216,"alistisk":7217,"ĠDerefter":7218,"Ġlinje":7219,"Ġgi":7220,"Ġforskelligt":7221,"ĠrÃ¥dgiver":7222,"ĠHerning":7223,"aliseret":7224,"Ġovenfor":7225,"illi":7226,"sikkerhed":7227,"Ġeftermiddag":7228,"ĠvÃ¦lges":7229,"Ġrettet":7230,"ĠRad":7231,"ĠsÃ¸lv":7232,"ĠselvstÃ¦ndig":7233,"ĠBir":7234,"Ġbestiller":7235,"inci":7236,"its":7237,"Ġproduceret":7238,"Ġsamler":7239,"Ġforskellig":7240,"ĠCVR":7241,"Ġklassisk":7242,"son":7243,"Ġarranger":7244,"ĠKlub":7245,"Ã¦nkning":7246,"Ġbasis":7247,"back":7248,"vurdering":7249,"Ġveninde":7250,"ĠstrÃ¥":7251,"orienter":7252,"Ġavan":7253,"smÃ¦gler":7254,"ĠThor":7255,"Ġrevision":7256,"ĠPÃħ":7257,"Ġarbejdsmarkedet":7258,"Ġhjemmel":7259,"Ġandel":7260,"varende":7261,"Ġkode":7262,"sal":7263,"priser":7264,"Ġindik":7265,"ĠKvalitet":7266,"Faldende":7267,"hn":7268,"Ġgro":7269,"kkeste":7270,"âĢĻ.":7271,"freds":7272,"ule":7273,"telefon":7274,"ĠtrÃ¦ne":7275,"jek":7276,"ĠSÃ¸r":7277,"ĠforÃ¦ldrene":7278,"ydelser":7279,"ĠPsyk":7280,"ystemet":7281,"selskaber":7282,"Ã¦ndelse":7283,"Ġmedie":7284,"ĠlÃ¦rere":7285,"Ġsygeplejer":7286,"Ġryggen":7287,"ĠHele":7288,"ĠVejledning":7289,"vask":7290,"Ġpakker":7291,"Ġbjerg":7292,"vandet":7293,"ĠStigendeFaldende":7294,"Ġprim":7295,"Ġindkomst":7296,"Ġvels":7297,"Ġplante":7298,"ĠDV":7299,"istent":7300,"tilskud":7301,"Ġinteressante":7302,"Ġfortalt":7303,"onst":7304,"Ġtunge":7305,"Ġfremtidige":7306,"Ġskam":7307,"Ġtils":7308,"Ġsnakker":7309,"okument":7310,"ĠRasmussen":7311,"Ġblanding":7312,"ĠpÃ¦dagogiske":7313,"Ġmal":7314,"Ġforhandler":7315,"ĠÃ¸nsket":7316,"Ġtantra":7317,"Ġkompetence":7318,"ĠInternation":7319,"Ġlufthavn":7320,"Skrevet":7321,"kvalitet":7322,"ĠsÃ¸gning":7323,"Ġsmerte":7324,"ĠefterÃ¥r":7325,"ĠÃĺnsker":7326,"Ġkrimin":7327,"Ġlyn":7328,"ĠkÃ¦mp":7329,"Ġforhandling":7330,"Ġetc":7331,"Ġfoto":7332,"Ġvagt":7333,"Ġeksist":7334,"rika":7335,"ĠKomp":7336,"tiget":7337,"OV":7338,"Tak":7339,"elin":7340,"Ġstrikke":7341,"Ġkonsek":7342,"boliger":7343,"Ġsamtidigt":7344,"mÃ¥ling":7345,"cykel":7346,"ĠtilfÃ¸j":7347,"Ġbehandle":7348,"pri":7349,"Ġgruppen":7350,"UL":7351,"atch":7352,"igere":7353,"Ġtalte":7354,"Ġoversk":7355,"ĠvÃ¥ben":7356,"gest":7357,"staltninger":7358,"ĠstÃ¸t":7359,"vÃ¦rktÃ¸j":7360,"Ġemnet":7361,"Ġindbakke":7362,"visninger":7363,"pum":7364,"Ġtegne":7365,"Ġlyse":7366,"Ġsmerter":7367,"ĠundersÃ¸gelsen":7368,"ĠMere":7369,"ĠJÃ¸rgen":7370,"):":7371,"ĠIntroduktion":7372,"GE":7373,"ĠprÃ¦get":7374,"Ġrelativt":7375,"Ġtotal":7376,"Ġfinger":7377,"iseret":7378,"Ġmave":7379,"staden":7380,"ube":7381,"Ġep":7382,"Ġ$":7383,"Ġforvente":7384,"ĠAfdeling":7385,"givende":7386,"kant":7387,"Ġresul":7388,"ffes":7389,"tillÃ¦g":7390,"Ġbeb":7391,"ĠFal":7392,"Ġmur":7393,"Ġplas":7394,"Ġopfylder":7395,"Ġmotiv":7396,"andinav":7397,"Ġanbefalinger":7398,"danmark":7399,"lemme":7400,"Ġopt":7401,"ination":7402,"kurren":7403,"ĠkÃ¸leskab":7404,"Ġla":7405,"ralt":7406,"Ġ<":7407,"Ø±Ø±Ø±Ø±Ø±Ø±Ø±Ø±":7408,"Ġdokumen":7409,"Ġmax":7410,"Ġordet":7411,"ĠtÃ¦ttest":7412,"Ġsvenske":7413,"hi":7414,"ĠfÃ¸lte":7415,"Ġjuster":7416,"Ã¦det":7417,"Ġspred":7418,"ĠprÃ¦cist":7419,"projekter":7420,"Ġoriginale":7421,"issionen":7422,"rut":7423,"retten":7424,"plade":7425,"Ġspecifikke":7426,"ĠKL":7427,"ĠskÃ¦rmen":7428,"ĠAller":7429,"ĠhÃ¦ng":7430,"IC":7431,"Ġsmager":7432,"Ġenig":7433,"ĠBog":7434,"kode":7435,"skoler":7436,"Ġopbevaring":7437,"ĠStra":7438,"Ġarbejdspladser":7439,"pren":7440,"Ġstammer":7441,"Ġgrunden":7442,"ĠbesvÃ¦r":7443,"Ġarbejdsmarked":7444,"ĠForord":7445,"ino":7446,"Ġhellere":7447,"ĠClaus":7448,"imp":7449,"Ġfortr":7450,"Ġjub":7451,"ktivitet":7452,"Ġhusk":7453,"ĠPrÃ¸v":7454,"kontrol":7455,"Ġ2019":7456,"ĠrÃ¸v":7457,"ĠvÃ¦lg":7458,"ĠFil":7459,"ĠJuni":7460,"Ġforeningen":7461,"ĠÃ¥bnings":7462,"Ġ400":7463,"Ġoblig":7464,"Ġrisikoen":7465,"Ġlook":7466,"Ġbestemte":7467,"ĠBla":7468,"33":7469,"Ġlukke":7470,"Ġkilometer":7471,"Ġbeslutninger":7472,"ineret":7473,"Ġdigitalt":7474,"akket":7475,"Ġdriv":7476,"Ġimponer":7477,"ĠÃ¥rsag":7478,"ions":7479,"ĠÃĨnd":7480,"Ġmaskiner":7481,"ĠPort":7482,"Ã¦ser":7483,"rÃ¦ts":7484,"skÃ¦rm":7485,"ĠSy":7486,"eu":7487,"Ġtablet":7488,"Ġmodul":7489,"ĠskÃ¦rm":7490,"ĠbÃ¸n":7491,"kkelse":7492,"Ġbeskytte":7493,"ĠvÃ¥g":7494,"Ġhalvt":7495,"Ġbegejst":7496,"ĠLog":7497,"ĠKo":7498,"ĠovenstÃ¥ende":7499,"ĠKaren":7500,"ĠVV":7501,"agerer":7502,"ĠLyng":7503,"VÃ¦lg":7504,"Ġudvalgt":7505,"rettede":7506,"ĠMarie":7507,"Ġborgerne":7508,"oss":7509,"web":7510,"Ġkong":7511,"vÃ¦gt":7512,"Ġmunden":7513,"Ġtendens":7514,"Ġtillader":7515,"edel":7516,"ĠUnge":7517,"Ġrelationer":7518,"ĠBeskÃ¦ftigelses":7519,"ingÃ¸r":7520,"Ġbrun":7521,"ĠOpfyldt":7522,"Ġture":7523,"Ġkontroller":7524,"ĀĀĀĀĀĀĀĀ":7525,"Ġav":7526,"ĠvÃ¦sentlige":7527,"demokra":7528,"Ġsigt":7529,"akk":7530,"ĠForfatterSkrevet":7531,"Ġventet":7532,"ouse":7533,"ĠÃ¸ger":7534,"Ġutal":7535,"jent":7536,"Ġgulvet":7537,"ĠNÃ¦st":7538,"Ġhest":7539,"Ġvit":7540,"Ġpal":7541,"ĠKvinde":7542,"OD":7543,"Ġakk":7544,"Ġweekenden":7545,"Ġsamarbejder":7546,"Ġstede":7547,"regning":7548,"Ġpladser":7549,"Ġkonsekvent":7550,"ĠFortsat":7551,"albestyrelsen":7552,"Ġsty":7553,"ĠprÃ¦sident":7554,"ĠÃ¸nskes":7555,"rÃ¸nd":7556,"Ġaftalt":7557,"ĠBesÃ¸g":7558,"ĠkÃ¦mper":7559,"meter":7560,"Ġalders":7561,"AP":7562,"ĠAk":7563,"Ġbeder":7564,"skema":7565,"ĠMÃ¦nd":7566,"ampen":7567,"las":7568,"ÑĤ":7569,"play":7570,"asker":7571,"Ġkalde":7572,"ĠMe":7573,"Ġkaka":7574,"Ġsnar":7575,"ĠDire":7576,"Ġseksuelle":7577,"Ġbetragtes":7578,"ĠVÃ¦kst":7579,"ĠLav":7580,"Ġsvaret":7581,"mte":7582,"skrav":7583,"sites":7584,"Ġfremad":7585,"illerÃ¸d":7586,"ĠleverandÃ¸r":7587,"spillet":7588,"Ġtildelt":7589,"Ġhertil":7590,"onn":7591,"Ġpersondata":7592,"ĠstÃ¸d":7593,"drende":7594,"ĠLa":7595,"Ġbringer":7596,"Ġpause":7597,"Ġchance":7598,"anceret":7599,"modtager":7600,"proces":7601,"ĠSU":7602,"Ġskolens":7603,"ĠsÃ¸rg":7604,"Ã¦ner":7605,"kender":7606,"ĠService":7607,"Ġgemmer":7608,"Din":7609,"manden":7610,"Ġlak":7611,"Ġmake":7612,"Ġkendet":7613,"ĠfÃ¦rdigheder":7614,"ĠGÃ¥":7615,"ondon":7616,"ana":7617,"Ġlokaler":7618,"tende":7619,"stilles":7620,"ĠhÃ¥ndtering":7621,"ĠForfatterSkrevetEmne":7622,"Ġstim":7623,"siske":7624,"ĠIKKE":7625,"ferien":7626,"imÃ¦rk":7627,"Ġregeringen":7628,"Ġhard":7629,"ktiver":7630,"ceres":7631,"Ġrod":7632,"ĠBaggrund":7633,"Ġoplyst":7634,"oni":7635,"Ġgaver":7636,"Ġkunderne":7637,"ĠfÃ¸devarer":7638,"ĠNordic":7639,"inet":7640,"ĠSpil":7641,"usse":7642,"ĠbevÃ¦ger":7643,"centret":7644,"Hvordan":7645,"ografer":7646,"Ġanonym":7647,"opyr":7648,"Ġbespar":7649,"Ġomsorg":7650,"ĠSkive":7651,"ĠAntal":7652,"illa":7653,"ĠMic":7654,"terier":7655,"Ġdir":7656,"oseks":7657,"ĠtilhÃ¸rer":7658,"Alt":7659,"sammen":7660,"Ġfoder":7661,"ĠhÃ¸jst":7662,"Ok":7663,"Ġlytte":7664,"Ġafslutning":7665,"Ã¦kket":7666,"Ġdame":7667,"Ġselskaber":7668,"Ġstiger":7669,"Ġpersonlighed":7670,"kortet":7671,"Ġlede":7672,"gebyrer":7673,"Ġloven":7674,"Ġflytter":7675,"Ġkirken":7676,"avne":7677,"Ġlykkes":7678,"ORD":7679,"dommen":7680,"Ġgevin":7681,"Ġenkel":7682,"astrup":7683,"ktivt":7684,"ĠstÃ¥et":7685,"ppen":7686,"EU":7687,"ĠInternet":7688,"Ġperioder":7689,"entes":7690,"press":7691,"ĠbÃ¦rer":7692,"klasse":7693,"rÃ¥der":7694,"Ġtanken":7695,"ulÃ¦re":7696,"valtningen":7697,"miljÃ¸":7698,"ãģ":7699,"Ġbarnets":7700,"Ġmodst":7701,"ĠFilm":7702,"Ġfelt":7703,"Ġrene":7704,"Ã¦stet":7705,"Ġgo":7706,"biler":7707,"Ġvort":7708,"ĠbrÃ¦nder":7709,"Ġkons":7710,"ĠAft":7711,"rukne":7712,"ĠTelefon":7713,"indlÃ¦g":7714,"Ġkonsulent":7715,"atorer":7716,"Ġoffentligt":7717,"ots":7718,"Ġannonc":7719,"iri":7720,"Ġhundrede":7721,"ĠforsÃ¸gt":7722,"opyright":7723,"Ġpassion":7724,"Ġfiske":7725,"ĠSvar":7726,"pligtende":7727,"ĠÃ¸kologisk":7728,"ĠÃ¥rgang":7729,"Ġdeltog":7730,"Ġreal":7731,"ĠindebÃ¦rer":7732,"Ġskifter":7733,"Ġtjenester":7734,"ledet":7735,"behag":7736,"Ġinder":7737,"ĠvaremÃ¦rker":7738,"orld":7739,"ĠÃ¸r":7740,"Ġnyere":7741,"ĠdÃ¸gn":7742,"Des":7743,"ĠLED":7744,"ĠPri":7745,"Ġpersonalet":7746,"ĠÃ¦":7747,"Ġorgas":7748,"Ġ49":7749,"iru":7750,"Ġhunden":7751,"Ġlogget":7752,"Ġeffektive":7753,"ĠforetrÃ¦kker":7754,"ĠnÃ¸gle":7755,"NB":7756,"Ġvirkelighed":7757,"ĠNov":7758,"angen":7759,"Ġ47":7760,"Ġfritid":7761,"irl":7762,"Ġbos":7763,"ĠLund":7764,"Ġmulighederne":7765,"fold":7766,"sg":7767,"Ġdynam":7768,"Ġnedsat":7769,"formand":7770,"marked":7771,"ĠStil":7772,"Ġbetrag":7773,"Ġkiggede":7774,"Ġskel":7775,"Ġendelige":7776,"OK":7777,"ĠfÃ¦rdige":7778,"ĠCl":7779,"ĠSelskab":7780,"aktioner":7781,"Ġudsatte":7782,"Ġfabri":7783,"ĠRegn":7784,"kelse":7785,"ĠVM":7786,"Ġklager":7787,"har":7788,"Ġsvarede":7789,"iks":7790,"Ġforbedringer":7791,"trÃ¦ning":7792,"Ġbrugerven":7793,"stillingen":7794,"Ġkerne":7795,"atient":7796,"Ġhur":7797,"Ã¥den":7798,"umer":7799,"Ġhyggelige":7800,"Ġkontakter":7801,"Ġdanmark":7802,"Ġantage":7803,"seg":7804,"Ġkritik":7805,"melding":7806,"lunde":7807,"ĠÃħrs":7808,"ĠUddannelses":7809,"sÃ¦tningen":7810,"bygger":7811,"Ġinvestering":7812,"Ġtjekke":7813,"NE":7814,"Ġskub":7815,"Ġnormale":7816,"Ġrust":7817,"Ġsejr":7818,"ĠBekendtgÃ¸relse":7819,"immel":7820,"Ġsvag":7821,"Ġdistri":7822,"organisation":7823,"ĠlÃ¸fte":7824,"ĠUD":7825,"Ġker":7826,"Ġbestemme":7827,"Ġsunde":7828,"inerer":7829,"ĠbekrÃ¦ftelses":7830,"ĠmedfÃ¸rer":7831,"ĠhÃ¸rte":7832,"Ġudform":7833,"ĠhjÃ¸rne":7834,"sprojekt":7835,"ĠJakob":7836,"ĠPC":7837,"itness":7838,"ĠOrg":7839,"Ġsoftware":7840,"komne":7841,"Ġworkshop":7842,"mmel":7843,"fonden":7844,"tagelser":7845,"ĠtrÃ¦er":7846,"ryg":7847,"agten":7848,"Ġglemt":7849,"ĠIfÃ¸lge":7850,"Ġansvaret":7851,"Ġsituationen":7852,"Priserne":7853,"ĠÃĨl":7854,"itu":7855,"vention":7856,"Ġanses":7857,"icia":7858,"Ġkompon":7859,"elter":7860,"Ġfrist":7861,"Ã¦gger":7862,"ĠOrd":7863,"kap":7864,"unget":7865,"Ġtelefonen":7866,"ĠdÃ¸re":7867,"edskab":7868,"ĠEuropÃ¦":7869,"vejer":7870,"Ġfris":7871,"ĠamatÃ¸r":7872,"ĠJournal":7873,"somrÃ¥det":7874,"vÃ¦kst":7875,"ĠPlus":7876,"okale":7877,"Ġdanner":7878,"billeder":7879,"oper":7880,"Ġplanlagt":7881,"rens":7882,"Ġetablering":7883,"Ġformentlig":7884,"ĠiPhone":7885,"Ġsiges":7886,"lÃ¥n":7887,"ruppe":7888,"sender":7889,"Ġtalent":7890,"ĠmedfÃ¸re":7891,"Ġqu":7892,"ĠhumÃ¸r":7893,"Ġforvalt":7894,"Ġinternational":7895,"Ġomh":7896,"kunst":7897,"apeut":7898,"ĠSpr":7899,"kkere":7900,"Ġforhind":7901,"rskov":7902,"annoncer":7903,"lÃ¦r":7904,"ĠTw":7905,"ĠOK":7906,"Ġudveks":7907,"skrig":7908,"ĠgÃ¥rd":7909,"rings":7910,"ĠKina":7911,"seret":7912,"orien":7913,"ytning":7914,"Ġareal":7915,"aktiviteter":7916,"Ġmedlems":7917,"AC":7918,"Ġidentitet":7919,"ĠParis":7920,"ting":7921,"Ġheldig":7922,"ĠAg":7923,"Ġmodstand":7924,"Ġudsted":7925,"Ġstopper":7926,"ĠErhverv":7927,"Ġbagefter":7928,"ides":7929,"uddannelser":7930,"ĠMor":7931,"parti":7932,"ĠMÃ¸ller":7933,"bnb":7934,"Ġluften":7935,"ĠBri":7936,"loven":7937,"Ġforlade":7938,"Ġvinteren":7939,"ĠforlÃ¸bet":7940,"Ġopfyldt":7941,"Ġsystemer":7942,"Ġforeninger":7943,"igheden":7944,"isterne":7945,"Ġvedtaget":7946,"Ġturner":7947,"Ġstartet":7948,"ĠhjÃ¸r":7949,"sider":7950,"Ġskriftlig":7951,"tit":7952,"fekt":7953,"ĠTre":7954,"El":7955,"igent":7956,"Ġtilstede":7957,"Ġstolt":7958,"Kon":7959,"ĠSan":7960,"andens":7961,"irm":7962,"emidler":7963,"ĠMaria":7964,"ĠPR":7965,"oster":7966,"rg":7967,"Ġbetalings":7968,"ejer":7969,"Ġproducent":7970,"ĠhÃ¸":7971,"asses":7972,"ĠopfÃ¸rt":7973,"ĠforudsÃ¦tning":7974,"Ġnational":7975,"Ġche":7976,"\":":7977,"ĠSP":7978,"ĠAirbnb":7979,"ĠvÃ¦rste":7980,"tellig":7981,"uleret":7982,"fÃ¸lger":7983,"ĠExtra":7984,"regnskab":7985,"Ġstole":7986,"livs":7987,"Ġretningslinjer":7988,"ĠLind":7989,"Ã¸nt":7990,"Ġmilj":7991,"Ġstoffet":7992,"ĠRig":7993,"Ġaspe":7994,"Ġirri":7995,"Ġherom":7996,"ĠIND":7997,"ĠPiger":7998,"Ġgumm":7999,"2017":8000,"Ġdertil":8001,"Ġvundet":8002,"ĠskÃ¥l":8003,"undervisning":8004,"Ġfrig":8005,"Ġhandicap":8006,"Ġulov":8007,"Ġbeliggenhed":8008,"Ġminim":8009,"Ġuforpligtende":8010,"ĠArk":8011,"byder":8012,"ĠLis":8013,"tekst":8014,"ĠMED":8015,"ĠKapitel":8016,"fession":8017,"ĠLÃ¸b":8018,"ktoren":8019,"Ã¦gte":8020,"rÃ¸r":8021,"ĠHvilke":8022,"ĠmÃ¥ler":8023,"Ġmek":8024,"Ġ86":8025,"Ġbelast":8026,"ĠÃ¸velser":8027,"ĠforelÃ¸b":8028,"Ġswinger":8029,"Ġsengen":8030,"Ġeksamen":8031,"ĠSpanien":8032,"ENS":8033,"hjÃ¦l":8034,"Ġkvindelige":8035,"Ġ2002":8036,"punkter":8037,"adig":8038,"fest":8039,"Ġomkost":8040,"list":8041,"Ġdukker":8042,"ĠOffentligt":8043,"Ġpornofilm":8044,"specificeret":8045,"Ġtakt":8046,"kj":8047,"Ã¦ndende":8048,"Ġpladsen":8049,"Ġryd":8050,"Ġbebyg":8051,"ummer":8052,"Ġperspektiv":8053,"39":8054,"Ġdeltagerne":8055,"ĠKÃ¸ge":8056,"ĠMy":8057,"ĠbeskÃ¦":8058,"ĠindkÃ¸bskur":8059,"ĠmedfÃ¸r":8060,"ĠkrÃ¦ves":8061,"ĠSlag":8062,"38":8063,"Ġslette":8064,"vning":8065,"Ġalvorligt":8066,"Ġundervisnings":8067,"Ġkilde":8068,"ionen":8069,"ryder":8070,"Ġstigning":8071,"Ġkammer":8072,"Ġaftalen":8073,"Ġlokalplan":8074,"Ġvalget":8075,"ĠVerden":8076,"Ġfotos":8077,"ĠNÃ¦stved":8078,"Ġgraviditet":8079,"Ġalderen":8080,"sdato":8081,"strÃ¸m":8082,"usiv":8083,"tidige":8084,"Ġindled":8085,"ĠrÃ¦kker":8086,"Ġfortsatte":8087,"DF":8088,"fejl":8089,"ĠtrÃ¦nger":8090,"terings":8091,"Ġgennemgang":8092,"tikken":8093,"ulere":8094,"Ġintrodu":8095,"Ġforelig":8096,"Ġindvand":8097,"Ġlandsd":8098,"Ġforg":8099,"Ġatmos":8100,"ĠTop":8101,"ailand":8102,"ĠSkriv":8103,"ona":8104,"achel":8105,"ĠViden":8106,"Ġoverensk":8107,"Ġsvarende":8108,"Ġfede":8109,"rost":8110,"ĠdÃ¦kke":8111,"afe":8112,"ĠMac":8113,"Ġidag":8114,"Ġrul":8115,"Ġandres":8116,"Ġfagligt":8117,"dags":8118,"Ġgens":8119,"Ġlokalt":8120,"Ġfunktionalitet":8121,"ĠUspecificeret":8122,"Ð½":8123,"Ġforsik":8124,"Ġforholdet":8125,"ĠJer":8126,"ĠBas":8127,"ĠSof":8128,"Ġadskillige":8129,"fast":8130,"Ġekstremt":8131,"ĠKr":8132,"post":8133,"Ġdef":8134,"ama":8135,"ilitet":8136,"erings":8137,"LS":8138,"Ġrimelig":8139,"Ġrummer":8140,"ĠLondon":8141,"rÃ¸d":8142,"IM":8143,"ĠTru":8144,"virksomheder":8145,"Ġhidtil":8146,"Ġfjernet":8147,"Be":8148,"Ġforbehold":8149,"aben":8150,"Ġmister":8151,"Ġartiklen":8152,"Ġvarerne":8153,"MÃ¥":8154,"ĠMikk":8155,"Varighed":8156,"Ġkoldt":8157,"ĠfortÃ¦lling":8158,"sbesk":8159,"stekn":8160,"Ġspilde":8161,"ENT":8162,"umb":8163,"abor":8164,"Ġluksus":8165,"ĠbÃ¸l":8166,"ese":8167,"ĠvÃ¦rksted":8168,"Ġhandlinger":8169,"LED":8170,"Â«.":8171,"Ġyog":8172,"Ġmeddelelse":8173,"Ġindrettet":8174,"abol":8175,"ĠmodsÃ¦tning":8176,"bringe":8177,"Ġlukkede":8178,"ĠIP":8179,"rÃ¸mme":8180,"Ġtravlt":8181,"osti":8182,"SÃ¥dan":8183,"Ġteknolog":8184,"ĠvÃ¦rre":8185,"Ġsold":8186,"Ġtjener":8187,"atin":8188,"EST":8189,"Ġlast":8190,"idder":8191,"Ġ--":8192,"Ġtilsk":8193,"somhed":8194,"Ġudarbejde":8195,"ĠtÃ¸rre":8196,"SS":8197,"top":8198,"Form":8199,"program":8200,"Ġskema":8201,"ends":8202,"vÃ¦rd":8203,"ktet":8204,"ateg":8205,"omb":8206,"Ġbegivenheder":8207,"Ġbab":8208,"banen":8209,"ĺħ":8210,"Ġenkle":8211,"ĠKli":8212,"inerende":8213,"reprÃ¦sent":8214,"ĠmiljÃ¸et":8215,"ĠBrand":8216,"ĠBestyrelsen":8217,"ĠMiddel":8218,"aktÃ¸r":8219,"Ġvarigheder":8220,"Ġindvend":8221,"2013":8222,"ĠbekrÃ¦ftelseslink":8223,"ivirk":8224,"ĠWindows":8225,"foren":8226,"beste":8227,"Ġsubjektiv":8228,"ĠbevÃ¦ge":8229,"ĠbadevÃ¦relse":8230,"Â¥":8231,"Su":8232,"ĠMil":8233,"iej":8234,"ysning":8235,"ades":8236,"rydelses":8237,"ping":8238,"ĠgrÃ¸nt":8239,"ĠÃ¥benbart":8240,"esen":8241,"sa":8242,"ĠIsland":8243,"ĠpÃ¥virke":8244,"ĠnÃ¸je":8245,"melt":8246,"Ġudsalg":8247,"Ġteater":8248,"Ġpligt":8249,"Ġerst":8250,"Ġnabo":8251,"etten":8252,"Ġpolitikere":8253,"itz":8254,"legetÃ¸j":8255,"ĠudmÃ¦rk":8256,"Ġimens":8257,"serende":8258,"ĠtÃ¦ller":8259,"Ġkolde":8260,"Ġsymbol":8261,"valget":8262,"eringen":8263,"Ġkunnet":8264,"ĠFigur":8265,"Ġtabt":8266,"way":8267,"Ġbestemmer":8268,"styrr":8269,"selskabet":8270,"ĠDav":8271,"Ġudvidet":8272,"Ġsygehus":8273,"ygdomme":8274,"ĠSÃ¸g":8275,"Ġrente":8276,"31":8277,"ĠspÃ¸rgeskema":8278,"sninger":8279,"ĠprÃ¦senterer":8280,"ni":8281,"ĠSÃ¥fremt":8282,"que":8283,"Ġfylde":8284,"urt":8285,"ĠMennes":8286,"Ã¦ves":8287,"lÃ¦ggelse":8288,"Ġrens":8289,"Ġudbytte":8290,"ĠBlandt":8291,"ums":8292,"Ã¸rte":8293,"Arbej":8294,"eloven":8295,"Ġbakter":8296,"tÃ¦gt":8297,"Ġdepression":8298,"Ġmulti":8299,"avrskov":8300,"pot":8301,"ÃħR":8302,"bal":8303,"Ã¦se":8304,"ids":8305,"Ġforetager":8306,"ÑĢ":8307,"ĠfÃ¸rt":8308,"rationer":8309,"yldigt":8310,"EC":8311,"ovÃ¦r":8312,"Ġforandring":8313,"put":8314,"Ġ56":8315,"mÃ¦ssig":8316,"ĠFly":8317,"'.":8318,"vÃ¦relser":8319,"ĠHam":8320,"ĠElev":8321,"ĠDI":8322,"Ġeventuel":8323,"Ġgaden":8324,"onden":8325,"itation":8326,"ĠSvendborg":8327,"eladende":8328,"Ġtjene":8329,"Ġvelegnet":8330,"ustral":8331,"Derfor":8332,"ruer":8333,"aterialer":8334,"ĠAnna":8335,"ĠFaktisk":8336,"!!!":8337,"Ġklogere":8338,"sbetingelser":8339,"ĠlÃ¦gen":8340,"kÃ¦r":8341,"Ġslappe":8342,"Ġteknik":8343,"Ġspeciel":8344,"ĠforhÃ¥b":8345,"Ġdansker":8346,"The":8347,"ĠSyn":8348,"Ġfaglig":8349,"ĠsÃ¸ster":8350,"feltet":8351,"uft":8352,"Ġbetyde":8353,"Ġbestilt":8354,"apper":8355,"Ġelektronisk":8356,"fyn":8357,"ĠmÃ¦lk":8358,"Ġtilmelder":8359,"Ġindbygget":8360,"Hver":8361,"Ġbillet":8362,"havsret":8363,"Ġafstem":8364,"Ġkyst":8365,"Ġvarianter":8366,"Ġhelhed":8367,"meldt":8368,"Ġbehagelig":8369,"Ġtegner":8370,"Ġerotiske":8371,"ĠkrÃ¦ve":8372,"oplevelser":8373,"skaff":8374,"Ġbestyrelse":8375,"Ġfugle":8376,"ĠmÃ¥ltid":8377,"ĠFodbold":8378,"Ġubehag":8379,"ĠvÃ¦rk":8380,"Ġskarp":8381,"Ġbygnings":8382,"mmelsen":8383,"ĠGenerelt":8384,"ĠvÃ¥d":8385,"ĠKommuneplan":8386,"Ġlandskab":8387,"Tilmeld":8388,"Ã¡":8389,"ĠEksemp":8390,"ĠKor":8391,"Ġpakken":8392,"butik":8393,"Ġspurgt":8394,"Ġgebyr":8395,"Ġsignal":8396,"elovens":8397,"ĠCon":8398,"Ġtilknyttet":8399,"Ġbytte":8400,"Ġduft":8401,"Ġkines":8402,"Ġsandsynligvis":8403,"ĠuafhÃ¦ngigt":8404,"ĠGro":8405,"ĠâĨ":8406,"peratur":8407,"ĠPoulsen":8408,"ĠDesign":8409,"Ġsammenligne":8410,"okaler":8411,"ofte":8412,"ĠBestil":8413,"ĠHelt":8414,"Ġtilt":8415,"Ġslutter":8416,"Ġ2001":8417,"Ġhenvender":8418,"klin":8419,"Ġstilles":8420,"datab":8421,"88":8422,"Ġskud":8423,"ejser":8424,"rul":8425,"Ġcykler":8426,"bol":8427,"parat":8428,"ORT":8429,"ĠAss":8430,"lÃ¸bet":8431,"ĠPal":8432,"jet":8433,"ilÃ¦":8434,"Ġlukker":8435,"arch":8436,"ĠLÃ¦r":8437,"ĠligesÃ¥":8438,"ovn":8439,"Ġ41":8440,"ĠGuld":8441,"svej":8442,"ĠIsÃ¦r":8443,"Ã¦dvan":8444,"Ġfastsat":8445,"gik":8446,"sprogram":8447,"esom":8448,"lykke":8449,"Ġ99":8450,"Ġdesto":8451,"sbil":8452,"Ġbeboere":8453,"Ġas":8454,"ĠsÃ¦sonen":8455,"ĠopnÃ¥r":8456,"Ġoveralt":8457,"Ġstyrker":8458,"ĠGymnas":8459,"Ġsammensat":8460,"Ġcar":8461,"Ġkys":8462,"uri":8463,"Ġfjernes":8464,"meddel":8465,"Ġfaktorer":8466,"ĠmÃ¦rket":8467,"slÃ¥":8468,"Ġ250":8469,"prisen":8470,"bevid":8471,"Skal":8472,"Ġtilbydes":8473,"igen":8474,"Ġtrukket":8475,"ĠSÃ¸rensen":8476,"ĠidrÃ¦t":8477,"elever":8478,"fÃ¸relsen":8479,"ĠnÃ¦ppe":8480,"ĠKnud":8481,"ĠOffentlig":8482,"auff":8483,"Ġdate":8484,"Ġspe":8485,"ĠBi":8486,"Ġimponerende":8487,"ĠlÃ¦ste":8488,"alistiske":8489,"omkostninger":8490,"Ġbarnd":8491,"Ġkaldt":8492,"hÃ¦nge":8493,"ĠtÃ¦ttere":8494,"Ġindberet":8495,"ĠSÃ¸ger":8496,"Ġkonstater":8497,"46":8498,"ĠHT":8499,"ĠdrÃ¸mmer":8500,"ĠLÃ¦g":8501,"ĠGÃ¸r":8502,"ĠtÃ¥r":8503,"angel":8504,"Ġudnytte":8505,"Ġvindu":8506,"onde":8507,"ĠtrÃ¦ffe":8508,"ĠStart":8509,"ĠHelsingÃ¸r":8510,"ĠKim":8511,"Ñģ":8512,"Ġed":8513,"Ġfugt":8514,"blog":8515,"Ġafvik":8516,"Ġkab":8517,"Ġtilfredse":8518,"panel":8519,"Ġenormt":8520,"Ġafsluttet":8521,"skifte":8522,"pige":8523,"Ġherhjemme":8524,"certifikat":8525,"lÃ¦n":8526,"ĠlÃ¦sere":8527,"Ġredskab":8528,"mest":8529,"Ġfrie":8530,"ĠfrÃ¸":8531,"ika":8532,"ĠLau":8533,"Ġintegration":8534,"Ġforsy":8535,"etrÃ¦":8536,"ĠforlÃ¦ngelse":8537,"eddel":8538,"ĠHa":8539,"Ġgolf":8540,"Ġrige":8541,"dal":8542,"Ġrets":8543,"Ġrefer":8544,"ĠGodt":8545,"Ġdekor":8546,"Ġvedligehold":8547,"Ġfornuftig":8548,"tiger":8549,"sled":8550,"Ã¦mpe":8551,"Ġarbejdes":8552,"Ã¸erne":8553,"agner":8554,"Ġtrygt":8555,"ivet":8556,"ibe":8557,"ĠâĨĴ":8558,"ĠForsikring":8559,"bruget":8560,"Ġudfylde":8561,"ĠEle":8562,"Ġbrede":8563,"Ġkortere":8564,"Ġafdelinger":8565,"ĠBry":8566,"Ã¦ndinge":8567,"Ġmikro":8568,"Ġpriserne":8569,"Ġglat":8570,"ĠPat":8571,"Ġkraftigt":8572,"vo":8573,"smand":8574,"ĠÃ¥bnede":8575,"ĠlÃ¸st":8576,"holdene":8577,"Ġvarmen":8578,"Ġforklare":8579,"Ġvik":8580,"Ġprivatliv":8581,"ĠKal":8582,"ĠgennemfÃ¸res":8583,"ĠOpret":8584,"Ġfasc":8585,"ĠÃĺv":8586,"Ġtilpasse":8587,"Ġbudskaber":8588,"ĠBogen":8589,"oker":8590,"Ġhvori":8591,"Ġsmykker":8592,"gebyr":8593,"Ġslippe":8594,"ĠbrÃ¦t":8595,"Ġbilligste":8596,"styrelsens":8597,"ĠstÃ¸tter":8598,"istrer":8599,"ĠbemÃ¦rkninger":8600,"ĠbestrÃ¦":8601,"ĠHjÃ¦lp":8602,"Ġbrem":8603,"Ġgeneralforsamlingen":8604,"acc":8605,"result":8606,"Ġengager":8607,"ineres":8608,"Ġboligen":8609,"ĠSommer":8610,"ĠBal":8611,"Ġunikt":8612,"nt":8613,"Ġteori":8614,"redienser":8615,"ĠvedrÃ¸rer":8616,"37":8617,"falds":8618,"ĠApple":8619,"Ġvilje":8620,"Le":8621,"PL":8622,"ya":8623,"mÃ¸n":8624,"ĠfÃ¸dder":8625,"Ġbevil":8626,"medlemmer":8627,"Ġliter":8628,"anken":8629,"Ġkorrekte":8630,"SD":8631,"Ã¸mt":8632,"Ġlover":8633,"Ġciv":8634,"ĠMine":8635,"historie":8636,"Ġakut":8637,"Ġmodtog":8638,"Ġfulgte":8639,"Jo":8640,"essor":8641,"ction":8642,"Ġalm":8643,"ĠopgÃ¸r":8644,"aftaler":8645,"ĠEnergi":8646,"ĠbestÃ¥ende":8647,"ĠComm":8648,"jenester":8649,"Ġtone":8650,"ikation":8651,"ĠprimÃ¦re":8652,"fÃ¦rds":8653,"forsk":8654,"Ġtrykke":8655,"slet":8656,"branchen":8657,"Ġvurderes":8658,"klÃ¦dning":8659,"Ġforsend":8660,"ynge":8661,"Â®":8662,"Ġfront":8663,"Ġopretter":8664,"Selvom":8665,"ited":8666,"Ġsamarbejdspartnere":8667,"Ġarkitekt":8668,"isser":8669,"Ġspring":8670,"ormon":8671,"tagen":8672,"ĠopnÃ¥et":8673,"Ġstjerner":8674,"Ġflygtninge":8675,"aB":8676,"ĠPrivat":8677,"ĠhÃ¥ret":8678,"Ġkonver":8679,"Ġfornemmelse":8680,"ognen":8681,"ita":8682,"ĠdrÃ¸m":8683,"ĠSenere":8684,"Ġreelt":8685,"ĠMads":8686,"ceptet":8687,"Ġindh":8688,"Ġwh":8689,"Ġopfyld":8690,"plader":8691,"aritet":8692,"Ġbeton":8693,"gennem":8694,"Ġomt":8695,"fac":8696,"hv":8697,"Ġhurtige":8698,"asper":8699,"skont":8700,"Ġblik":8701,"Ġflyve":8702,"Ġeksperi":8703,"ĠSÃ¦t":8704,"Ġgal":8705,"ĠprÃ¦sentation":8706,"slÃ¸b":8707,"Ġ09":8708,"Ġfantasi":8709,"rosoft":8710,"go":8711,"Ġpeber":8712,"hul":8713,"ĠudfÃ¸rer":8714,"Ġbeboer":8715,"parken":8716,"ĠdrÃ¦b":8717,"oritet":8718,"Sn":8719,"ĠMens":8720,"Ġfremgang":8721,"Ġâĸ":8722,"ktions":8723,"Ġomhandler":8724,"Ġvanskelig":8725,"Ġappar":8726,"omet":8727,"afgift":8728,"krav":8729,"SL":8730,"Ġkolleger":8731,"Ġall":8732,"ĠInstitut":8733,"pul":8734,"Ġlaveste":8735,"ĠDigital":8736,"ii":8737,"ĠRis":8738,"avisen":8739,"32":8740,"Ġpsykolog":8741,"Reg":8742,"Ġeksperter":8743,"Ġforklaring":8744,"ams":8745,"Ġkjole":8746,"Ġlejer":8747,"bage":8748,"Ġbevare":8749,"Ġkatte":8750,"Ġeksklusive":8751,"Ġnegativ":8752,"ĠansÃ¸ger":8753,"-/":8754,"Ġlevetid":8755,"ĠstrÃ¦":8756,"Â²":8757,"estyrelsens":8758,"bag":8759,"!\"":8760,"ygdom":8761,"ĠJon":8762,"ĠOfte":8763,"ĠCol":8764,"sleder":8765,"Ġregistrerede":8766,"Ġoplyser":8767,"gmail":8768,"Mit":8769,"Ġreducere":8770,"behov":8771,"Ġhenvend":8772,"Ġtilsyneladende":8773,"Ġindsamle":8774,"Ġbivirk":8775,"Ġsundt":8776,"Ġkrydder":8777,"Ġbiograf":8778,"Ġtav":8779,"Vejledning":8780,"spension":8781,"ĠEkstra":8782,"Ġkonge":8783,"Ġopv":8784,"ĠBorger":8785,"kendes":8786,"jyske":8787,"ĠbesÃ¸gte":8788,"Ġoffentliggjort":8789,"Ġinkluderet":8790,"ĠhÃ¦nderne":8791,"Ġindkvarter":8792,"Ġelement":8793,"ĠBrÃ¸nd":8794,"riks":8795,"Ġlyser":8796,"ĠCD":8797,"ĠDB":8798,"Ġmenu":8799,".[":8800,"Ġmini":8801,"ux":8802,"ĠprÃ¦senteret":8803,"ĠCookies":8804,"Ġtimers":8805,"ĠDermed":8806,"Ġoptimering":8807,"fond":8808,"fred":8809,"ĠflÃ¸j":8810,"Ġmedlemmerne":8811,"rukket":8812,"ĠSus":8813,"ĠUdarbejdet":8814,"Ġregnskabs":8815,"ĠovertrÃ¦":8816,"smiljÃ¸":8817,"Ġmorgenen":8818,"Ġopvarm":8819,"estyrelses":8820,"Ġkanaler":8821,"ĠKOMM":8822,"gul":8823,"Ġrummet":8824,"ardet":8825,"administrator":8826,"baseret":8827,"indsats":8828,"ĠBre":8829,"lysningerne":8830,"ĠDej":8831,"landsk":8832,"ĠidÃ©er":8833,"ĠstÃ¸rrelsen":8834,"Ġlyde":8835,"Ġdriver":8836,"pakke":8837,"Ġpeger":8838,"Ġelskede":8839,"ĠmÃ¥let":8840,"VER":8841,"jener":8842,"ĠTrop":8843,"Ġdon":8844,"Ġfeltet":8845,"ĠafhÃ¦ngigt":8846,"kri":8847,"elÃ¸bet":8848,"virksomheden":8849,"axe":8850,"ĠYou":8851,"Ġfremmed":8852,"ĠEuropÃ¦iske":8853,"ius":8854,"Ġsingle":8855,"Ġproduktionen":8856,"ĠUndervisning":8857,"Ġfyre":8858,"Ġbla":8859,"mmede":8860,"ablere":8861,"Ġflest":8862,"ĠnÃ¸jagtighed":8863,"ente":8864,"Ġforbind":8865,"esult":8866,"Ġkaster":8867,"Ġforesp":8868,"Ġhjerne":8869,"Ġdimension":8870,"Bolig":8871,"gÃ¸rende":8872,"ĠIsra":8873,"ĠfremhÃ¦":8874,"Ġhistorisk":8875,"Ġstu":8876,"Ġopst":8877,"ĠvÃ¦relsespris":8878,"Ġjap":8879,"centre":8880,"ĠStyr":8881,"agsorden":8882,"inerede":8883,"ĠOM":8884,"85":8885,"cipl":8886,"Ġforstand":8887,"Ġhjemsted":8888,"Ġface":8889,"Ġfaktura":8890,"Ġ85":8891,"Ġoverraskende":8892,"skar":8893,"Ġtrak":8894,"Ġlic":8895,"Ġmission":8896,"kassen":8897,"Ġproducenter":8898,"ĠpÃ¥begynd":8899,"ĠpÃ¥lidelighed":8900,"fÃ¸j":8901,"user":8902,"tens":8903,"ftede":8904,"Ġinnovation":8905,"Ġcasino":8906,"skrevet":8907,"Ġregistrering":8908,"ĠQu":8909,"Nogle":8910,"ĠLÃ¸n":8911,"estere":8912,"idrag":8913,"Ġplast":8914,"Ġintellig":8915,"Ġboard":8916,"Ġgider":8917,"ĠlÃ¦ses":8918,"Ġryt":8919,"Ġnysgerrig":8920,"egner":8921,"Ġmaskin":8922,"ĠbÃ¸s":8923,"sitet":8924,"Ġkurset":8925,"ĠbÃ¸rnehave":8926,"ĠfÃ¦ngsel":8927,"Ġtryghed":8928,"Ġforeningens":8929,"prom":8930,"Ġplak":8931,"ĠsamvÃ¦r":8932,"Ġoplagt":8933,"ĠAll":8934,"ydelse":8935,"Ġhuller":8936,"Ã¦mpelse":8937,"Ġkompli":8938,"OG":8939,"ĠKÃ¦r":8940,"ĠVind":8941,"Ġsmukkeste":8942,"Ġbedt":8943,"Ġkru":8944,"Ã¦nker":8945,"aktiver":8946,"Ġevner":8947,"Ã¸konom":8948,"ĠgrÃ¸ntsager":8949,"ĠlandsdÃ¦kkende":8950,"Ġforelsk":8951,"ĠbeskÃ¦ftigelse":8952,"Ġhotelgebyrer":8953,"ĠsÃ¥kaldt":8954,"Ġudtrykkelige":8955,"Ġgeneration":8956,"ĠflÃ¸de":8957,"Ġkasser":8958,"Ġtemmelig":8959,"Ġyou":8960,"aktionen":8961,"ĠNic":8962,"UM":8963,"ege":8964,"rejser":8965,"Ġkalender":8966,"myndig":8967,"install":8968,"Ġpan":8969,"ensborg":8970,"Ġbeskrive":8971,"ĠMat":8972,"Ġgemmes":8973,"Ġshow":8974,"Ġbeskyttet":8975,"ĠÂ©":8976,"BR":8977,"Ġordentlig":8978,"Ġerfarne":8979,"ĠGer":8980,"Ġvanskeligt":8981,"ĠtilstrÃ¦kkelig":8982,"ĠbÃ¸gerne":8983,"Ġbatteri":8984,"Ġstuen":8985,"Ġklassen":8986,"Ġkortet":8987,"gaver":8988,"Ġreklame":8989,"stebro":8990,"Ġintroduktion":8991,"ĠDAN":8992,"ĠforudsÃ¦tninger":8993,"Ġgammelt":8994,"ĠfÃ¦n":8995,"Ġstj":8996,"Ġrefleksion":8997,"Ġevaluering":8998,"ĠTest":8999,"ĠfÃ¸rte":9000,"Ġcont":9001,"ĠGrÃ¦":9002,"ĠSidste":9003,"bert":9004,"Ġudvalget":9005,"Ġatter":9006,"Ġerotisk":9007,"aret":9008,"Th":9009,"Ġudviklings":9010,"ĠJÃ¸rgensen":9011,"Ġangiver":9012,"ĠHÃ¥r":9013,"ĠleverandÃ¸rer":9014,"Ġunderstre":9015,"Ġlesb":9016,"maskiner":9017,"ĠNat":9018,"ĠÃ¦gtefÃ¦l":9019,"fÃ¦rdig":9020,"Ġsans":9021,"Ġforhindre":9022,"Ġ52":9023,"ĠHandels":9024,"ĠNyk":9025,"Ġsynd":9026,"ĠBra":9027,"Ġaftens":9028,"Ġsejl":9029,"Ġgemt":9030,"Ġnerv":9031,"Ġderhjemme":9032,"ĠindendÃ¸rs":9033,"ĠTem":9034,"YG":9035,"ficerede":9036,"Ġfilosof":9037,"Ġopslag":9038,"Ġsupport":9039,"ĠundgÃ¥r":9040,"ĠTilbud":9041,"ĠÃ¥rige":9042,"Ġkandidat":9043,"Ġkug":9044,"Ġbukser":9045,"fang":9046,"ĠDelt":9047,"Ġforekomme":9048,"tiet":9049,"ĠEllers":9050,"perioden":9051,"Ġendeligt":9052,"Ġinstallation":9053,"ĠIdenti":9054,"oet":9055,"Ġfastholde":9056,"ĠData":9057,"ĠgÃ¦ld":9058,"Ġarbejdspladsen":9059,"ĠFisk":9060,"ĠansÃ¦ttelses":9061,"ĠUdover":9062,"ĠLÃ¸":9063,"Ġadministra":9064,"ĠEvent":9065,"ĠnÃ¦rvÃ¦rende":9066,"avnet":9067,"Ġplant":9068,"Ġflyttede":9069,"institutioner":9070,"ĠforsÃ¸gte":9071,"fit":9072,"Ġmillion":9073,"Ġinviteret":9074,"nÃ¦st":9075,"Ġindkvarterings":9076,"Ġhind":9077,"End":9078,"Ġpum":9079,"obe":9080,"ĠÃ¸re":9081,"Ġskiftet":9082,"bureau":9083,"forsyning":9084,"pede":9085,"44":9086,"Ġ57":9087,"',":9088,"ĠLyngby":9089,"Ġforholde":9090,"Ġkaste":9091,"Ġminut":9092,"ctor":9093,"Ġsolid":9094,"Ġflad":9095,"ĠberÃ¸mte":9096,"sisk":9097,"ĠComp":9098,"ĠaktÃ¸rer":9099,"Ġvindm":9100,"ull":9101,"ĠAltsÃ¥":9102,"ĠKen":9103,"Ã¦sonen":9104,"sering":9105,"Ġejere":9106,"ĠDesvÃ¦rre":9107,"ĠstÃ¦rkere":9108,"Ġforestille":9109,"Ġglobale":9110,"ĠEro":9111,"Ġpu":9112,"Ġsynlig":9113,"ĠbesÃ¸gt":9114,"tikker":9115,"atoriske":9116,"Ġkommerci":9117,"Ġforventet":9118,"Ġger":9119,"ĠHillerÃ¸d":9120,"Ġ06":9121,"iler":9122,"ĠTa":9123,"faglige":9124,"Ġtor":9125,"Ġjust":9126,"Ġfulgt":9127,"Ġdyrt":9128,"Ġspons":9129,"Ġvarsel":9130,"krÃ¦n":9131,"abetes":9132,"kage":9133,"ĠforeslÃ¥":9134,"Ġinternationalt":9135,"ĠglÃ¦d":9136,"ĠYork":9137,"ĠHolm":9138,"Ġ72":9139,"ĠHER":9140,"indende":9141,"Ġpap":9142,"Ġblandet":9143,"Ġknappen":9144,"rÃ¦ft":9145,"Ġstation":9146,"habil":9147,"Ġvokse":9148,"Ġpigerne":9149,"alske":9150,"achelor":9151,"ĠDine":9152,"Ġreklamer":9153,"Ġforpligtet":9154,"Ġtitler":9155,"Ġkassen":9156,"Ġnemme":9157,"lÃ¸g":9158,"ĠbÃ¸rns":9159,"Â«,":9160,"ophold":9161,"lagen":9162,"Ġproced":9163,"Ġsend":9164,"ĠbÃ¥d":9165,"Ġboghandel":9166,"Ġlykke":9167,"nets":9168,"Ġcentralt":9169,"Ġinten":9170,"ĠÃ¥bnet":9171,"ĠMedlem":9172,"ffekt":9173,"Nord":9174,"bad":9175,"ĠslÃ¦g":9176,"kultur":9177,"Ġegnethed":9178,"fyr":9179,"Ġstren":9180,"Ġtilmelding":9181,"oriseret":9182,"ĠCre":9183,"Ġkartof":9184,"Ġvalut":9185,"older":9186,"Ġherre":9187,"ĠstrÃ¸":9188,"blad":9189,"RI":9190,"server":9191,"Ġsektor":9192,"allage":9193,"Ġâĸł":9194,"Ġdiskret":9195,"Ġtestet":9196,"diske":9197,"Ġovervejer":9198,"ĠSti":9199,"Ġudfl":9200,"Ġdans":9201,"TripAdvisor":9202,"adal":9203,"skomm":9204,"Ã¦sten":9205,"Ġoplevelsen":9206,"Ġfjerde":9207,"Ġmistet":9208,"usen":9209,"Ġgenerel":9210,"hel":9211,"Ġforesl":9212,"Ġopfordrer":9213,"Ġbane":9214,"Ġbefolkning":9215,"Ġforsvinder":9216,"Ġlejligheden":9217,"Ġvirkede":9218,"umin":9219,"Ġbehageligt":9220,"Ġreaktion":9221,"ĠGal":9222,"Ġarbejdede":9223,"ĠÃ¥rhundrede":9224,"ĠplanlÃ¦gge":9225,"ugter":9226,"Ġforskere":9227,"ĠÃ¸verst":9228,"status":9229,"kel":9230,"Ġindtast":9231,"Ã¥lmod":9232,"sager":9233,"ba":9234,"2012":9235,"ĠnytÃ¥r":9236,"medicin":9237,"Ġkoncert":9238,"Ġradio":9239,"una":9240,"vÃ¦k":9241,"ĠUnd":9242,"Ãĺn":9243,"ĠsÃ¸gte":9244,"ĠStand":9245,"Ġmatematik":9246,"ulation":9247,"ĠhÃ¥ndvÃ¦rker":9248,"idende":9249,"ott":9250,"evne":9251,"ĠAT":9252,"Ġholdninger":9253,"ding":9254,"ĠNorm":9255,"God":9256,"Ġpsykiatri":9257,"Ġcerti":9258,"yggeligt":9259,"Ġislam":9260,"ĠSten":9261,"Ġdrej":9262,"ĠÃ¸en":9263,"serie":9264,"Ġoverd":9265,"ministeriet":9266,"ipp":9267,"Ġ66":9268,"ualitet":9269,"ĠBare":9270,"olland":9271,"ygte":9272,"ĠPol":9273,"Ġfare":9274,"Ġveninder":9275,"ĠhÃ¦nd":9276,"ica":9277,"ĠAM":9278,"aterialet":9279,"Ġstillede":9280,"Ã¸bt":9281,"kkens":9282,"Ġherfra":9283,"appar":9284,"Ġnordiske":9285,"ĠtÃ¦nk":9286,"essen":9287,"Ġpt":9288,"Ġressource":9289,"reste":9290,"ĠEnergimÃ¦rk":9291,"Ġovervejelser":9292,"Ġhjemmeb":9293,"ulerer":9294,"Ġvendte":9295,"istand":9296,"ĠMusik":9297,"ĠtilgÃ¦ngeligt":9298,"ĠLuft":9299,"ĠOb":9300,"Ġindgang":9301,"Kom":9302,"Ġalmen":9303,"ĠPaul":9304,"bus":9305,"cm":9306,"Ġoprindeligt":9307,"Ġ120":9308,"Ġgard":9309,"Ġovergang":9310,"Ġarv":9311,"Ġvariere":9312,"Ġdagtilbud":9313,"Ð¾Ð":9314,"Ġfral":9315,"ĠBerlin":9316,"Ġfokusere":9317,"ĠpÃ¥ske":9318,"ĠreprÃ¦senterer":9319,"Ġudkast":9320,"ĠCity":9321,"Ġarbejdskraft":9322,"Ġtilladelser":9323,"zen":9324,"ĠskÃ¦re":9325,"Ġfeed":9326,"AK":9327,"Ġbeskriv":9328,"Ġrid":9329,"ĠBÃ¸ger":9330,"ĠDating":9331,"Ġoptimalt":9332,"Ġbager":9333,"ornÃ¥r":9334,"agede":9335,"Ġsmarte":9336,"Ġvoldsomt":9337,"Ġpotentiale":9338,"Ġhjernen":9339,"Ġtvang":9340,"alsk":9341,"Ġstillinger":9342,"ĠAD":9343,"Ġuen":9344,"ata":9345,"Ġsange":9346,"Ġudvide":9347,"ĠÃĨldre":9348,"Ġaktier":9349,"Ġkilder":9350,"sbes":9351,"aim":9352,"Ġalvorlige":9353,"ĠmÃ¸nster":9354,"sniveau":9355,"Ġregner":9356,"forstÃ¥ede":9357,"Ġkonklusion":9358,"ĠsammenhÃ¦ngende":9359,"ĠFavrskov":9360,"disk":9361,"Ġblade":9362,"rummet":9363,"gÃ¥rden":9364,"Ġresultaterne":9365,"ĠusÃ¦dvan":9366,"rapp":9367,"Ġprivatlivs":9368,"Ġdanbolig":9369,"ye":9370,"ĠÃ¥rig":9371,"yen":9372,"ameter":9373,"ĠSa":9374,"egang":9375,"ĠnÃ¦vnes":9376,"Ġetablere":9377,"Disse":9378,"Ġbryder":9379,"Ġdirigent":9380,"visende":9381,"ĠHu":9382,"fÃ¦lles":9383,"ns":9384,"kÃ¸bing":9385,"ĠRusland":9386,"Ġdrive":9387,"Ã¦ndringer":9388,"atisti":9389,"Ġkylling":9390,"Ġvirksomhederne":9391,"Ġ95":9392,"typer":9393,"Ġodense":9394,"ĠOnline":9395,"Ġeksterne":9396,"esteder":9397,"enhed":9398,"ĠlÃ¦rings":9399,"Ġtotalt":9400,"ortering":9401,"ĠEd":9402,"ĠLandbrug":9403,"ĠBegge":9404,"Ã¸rring":9405,"ĠskrÃ¦dder":9406,"useet":9407,"Ġhastighed":9408,"ĠprÃ¸vede":9409,"Ġprop":9410,"Ġfaciliteter":9411,"ĠNik":9412,"Ġkonsekvens":9413,"DC":9414,"Ġboardet":9415,"Ġsms":9416,"ĠpopulÃ¦r":9417,"Ġsamtaler":9418,"Ġklip":9419,"ĠvÃ¦ggen":9420,"ĠmÃ¸b":9421,"Ġmonteret":9422,"kede":9423,"Ġ08":9424,"ĠKirk":9425,"systemer":9426,"procent":9427,"--------":9428,"ĠÃĺkonomi":9429,"Ġogs":9430,"Kont":9431,"Ġterrasse":9432,"Ġskaffe":9433,"Ġkontin":9434,"ĠmÃ¦ngden":9435,"Ġalb":9436,"angt":9437,"Ġankom":9438,"ĠFjern":9439,"ĠKlar":9440,"Mod":9441,"Ġkoge":9442,"Brug":9443,"ĠHolbÃ¦k":9444,"Ġkulturelle":9445,"koder":9446,"Ġforholdsvis":9447,"ĠBlog":9448,"Ġmg":9449,"bank":9450,"bekrÃ¦ft":9451,"Ġoperation":9452,"Ġinterne":9453,"Ã¸dning":9454,"ĠsammenhÃ¦nge":9455,"Ġberetning":9456,"Ġuhel":9457,"ĠNational":9458,"Ġdemonst":9459,"omi":9460,"Ġprodukterne":9461,"institution":9462,"Ġproducerer":9463,"ĠHelle":9464,"Ġforfat":9465,"forlÃ¸bet":9466,"Ġhavne":9467,"hr":9468,"48":9469,"ĠBeskrivelse":9470,"Ġaffil":9471,"ĠtilstrÃ¦kkeligt":9472,"Ġmiste":9473,"Ġoplyse":9474,"Ġdram":9475,"Ġflaske":9476,"ĠNY":9477,"Ġvenlige":9478,"ĠAmager":9479,"ĠGode":9480,"Ġkok":9481,"Ġvokset":9482,"Ġpus":9483,"Ġbefolkningen":9484,"Ġbenene":9485,"Ġintim":9486,"Ġingredienser":9487,"ĠunderforstÃ¥et":9488,"Ġ02":9489,"problemer":9490,"Ġfolkeskolen":9491,"konstru":9492,"ĠTantra":9493,"Ġrejsen":9494,"skriften":9495,"Ġkristne":9496,"Ġindkvarteringssteder":9497,"Ġslot":9498,"Ġskriftligt":9499,"armerende":9500,"Ġledelsen":9501,"ĠforegÃ¥":9502,"smidler":9503,"âĢ¦.":9504,"arbejdere":9505,"...]":9506,"ĠMuseum":9507,"Ġoptimale":9508,"artikler":9509,"Ġpiz":9510,"Ġpsykiske":9511,"Ġflertal":9512,"Ġbyggeri":9513,"institut":9514,"Ġfrav":9515,"Ġelske":9516,"ric":9517,"Ġprincipper":9518,"agtig":9519,"Ġjobbet":9520,"Ġberettiget":9521,"ommens":9522,"ĠgrÃ¦nsen":9523,"ani":9524,"Ġstudiet":9525,"ksomme":9526,"Ġkvinden":9527,"ĠnÃ¦vne":9528,"Ġcomputeren":9529,"Danmark":9530,"49":9531,"elsescertifikat":9532,"pension":9533,"Ġarrang":9534,"ĠHeldigvis":9535,"Ġfattig":9536,"ĠSalg":9537,"UT":9538,"sty":9539,"ato":9540,"Ġfree":9541,"ĠPet":9542,"ficering":9543,"ĠFredericia":9544,"ĠanlÃ¦gs":9545,"ĠCopenhagen":9546,"ĠðŁĺī":9547,"ames":9548,"ĠHjer":9549,"Ġmaskine":9550,"ĠMang":9551,"ĠudmÃ¦rkelsescertifikat":9552,"Ġbevis":9553,"ĠJanuar":9554,"Ġsimpel":9555,"instru":9556,"Ġfinansielle":9557,"Ġforventede":9558,"Ġprocesser":9559,"ĠID":9560,"Ġniveauer":9561,"tikel":9562,"Ġreligion":9563,"Ã¦lt":9564,"ĠfralÃ¦gger":9565,"Ġfange":9566,"Ġturist":9567,"ĠTillÃ¦g":9568,"Ġbrud":9569,"Ġtitel":9570,"ĠYder":9571,"Ġafholder":9572,"ĠAB":9573,"vogne":9574,"Ġkunstnere":9575,"âĺħ":9576,"ano":9577,"Ġmegen":9578,"Ġoplysning":9579,"egÃ¥rd":9580,"Ġdyrke":9581,"ellerup":9582,"ĠReal":9583,"redsen":9584,"Ġjan":9585,"industrien":9586,"raksis":9587,"Ġhttps":9588,"Ġstaten":9589,"Ġnylig":9590,"Ġkontrollere":9591,"ummet":9592,"lÃ¦sning":9593,"Ġinitiativ":9594,"VÃ¦relser":9595,"ĠHendes":9596,"FT":9597,"Ġaccept":9598,"Ġair":9599,"bragt":9600,"HOL":9601,"spligt":9602,"ira":9603,"Ġmarketing":9604,"ĠDrag":9605,"ĠMicrosoft":9606,"Ġgear":9607,"Ġbetegn":9608,"Ġopgra":9609,"ini":9610,"Ġtyk":9611,"Ã¦ret":9612,"Ġkrise":9613,"uge":9614,"ĠHave":9615,"Ġafg":9616,"ĠtilrettelÃ¦g":9617,"Ġansigtet":9618,"Ġopskriften":9619,"Ġpatienten":9620,"ĠInde":9621,"kammer":9622,"Ġnogenlunde":9623,"Ġbold":9624,"somrÃ¥der":9625,"ĠtilfÃ¸jer":9626,"rerer":9627,"Ġreligi":9628,"time":9629,"Ġvib":9630,"ĠVisit":9631,"Ġklubber":9632,"Ġcenter":9633,"adalafil":9634,"Ã¥gning":9635,"reder":9636,"Ġ77":9637,"analyse":9638,"Ġrecep":9639,"rister":9640,"plej":9641,"Ġsmage":9642,"Ġnot":9643,"Hytte":9644,"Ġblad":9645,"Ġikon":9646,"hvor":9647,"ĠDS":9648,"Ġuover":9649,"position":9650,"Ġparforhold":9651,"Ġsikkerheden":9652,"ĠEmil":9653,"ĠMorgen":9654,"markedet":9655,"ÃĨG":9656,"ĠbekrÃ¦fte":9657,"Ġsildenafil":9658,"55":9659,"Ġvarierer":9660,"ĠÃ¸del":9661,"sprodukter":9662,"Ġmia":9663,"ĠTR":9664,"ng":9665,"Ġhenvisning":9666,"Ġligefrem":9667,"Find":9668,"Â½":9669,"Ġtip":9670,"Ġderudover":9671,"ĠWh":9672,"Ġselskabets":9673,"........":9674,"Ġopbygning":9675,"Ġforskellen":9676,"uger":9677,"Ġfremtidens":9678,"ĠFun":9679,"Ã¦rende":9680,"farve":9681,"opÃ¦l":9682,"krÃ¦nkelse":9683,"ĠEndelig":9684,"Ġrolig":9685,"midt":9686,"Ġafgift":9687,"orium":9688,"Ġcon":9689,"ĠlÃ¸d":9690,"Ġbrugernavn":9691,"ĠunderforstÃ¥ede":9692,"Ġdejen":9693,"Ã¦ve":9694,"Ġforebyggelse":9695,"habili":9696,"amens":9697,"bered":9698,"ĠRapp":9699,"lit":9700,"ĠTal":9701,"ĠannoncÃ¸rer":9702,"Ġtilpasset":9703,"Ġbeskytter":9704,"ĠSig":9705,"ĠNÃ¦r":9706,"spÃ¸rgsmÃ¥l":9707,"Ġinfe":9708,"last":9709,"lister":9710,"ĠÃ¥rhus":9711,"cker":9712,"version":9713,"tigheds":9714,"udi":9715,"ĠopsÃ¦tning":9716,"stjeneste":9717,"ĠBrÃ¸ndby":9718,"Ġfarvel":9719,"Ġengagement":9720,"Ġbjer":9721,"ĠfÃ¸lges":9722,"Ġtilslutning":9723,"Ġforsikrings":9724,"ĠhjÃ¦lpemidler":9725,"ĠKri":9726,"enten":9727,"ĠForening":9728,"ĠCharl":9729,"Ġskjul":9730,"Ġydelse":9731,"ĠbÃ¥nd":9732,"Ġsalgbarhed":9733,"ĠLeder":9734,"ismen":9735,"rÃ¦ner":9736,"Ġafk":9737,"esko":9738,"ĠsmÃ¥t":9739,"Ġpoin":9740,"viste":9741,"indhold":9742,"OA":9743,"Ġslipper":9744,"bek":9745,"ĠUngdom":9746,"Ġhobby":9747,"Ġeksport":9748,"Ġforsink":9749,"Ġhomoseks":9750,"ĠHÃ¸r":9751,"sministeren":9752,"Ġforkerte":9753,"Ġhvorfra":9754,"Ġbragt":9755,"Ġelektroniske":9756,"irken":9757,"Ġmodsatte":9758,"hÃ¸jde":9759,"sforhold":9760,"Ġpin":9761,"Ġfak":9762,"owjob":9763,"Nej":9764,"rebro":9765,"Ġminer":9766,"Ġhon":9767,"linge":9768,"Ġimm":9769,"Ġforvir":9770,"ĠSidst":9771,"Ġsteget":9772,"ĠEndvidere":9773,"ĠÃ¸kologiske":9774,"retter":9775,"Ġkomprom":9776,"ĠTeam":9777,"Ġild":9778,"ĠOversÃ¦ttelse":9779,"Ġgn":9780,"ĠafsÃ¦t":9781,"Ġkombineret":9782,"ĠFN":9783,"ada":9784,"Ġglip":9785,"ĠDom":9786,"jorde":9787,"fikken":9788,"Ġnedb":9789,"Ġslid":9790,"periode":9791,"oph":9792,"Ġwebsitet":9793,"Ġovnen":9794,"cam":9795,"batter":9796,"Ġopdaget":9797,"ĠivÃ¦rksÃ¦tter":9798,"Ġryger":9799,"Ġbox":9800,"Ġfora":9801,"?\"":9802,"ydende":9803,"Ã¦nkt":9804,"Ġtilfredsstil":9805,"Ġydre":9806,"Ġpast":9807,"guide":9808,"Ġprem":9809,"Ġsparer":9810,"ĠLokalplan":9811,"ĠInternational":9812,"Ġforsknings":9813,"Ġprofessionelt":9814,"tv":9815,"Ġgrundet":9816,"ĠDagsorden":9817,"rive":9818,"Siden":9819,"armen":9820,"jurs":9821,"ĠspÃ¦nding":9822,"Ġmedlemskab":9823,"Ġkabel":9824,"Ġdesigner":9825,"Ġtadalafil":9826,"Ġderude":9827,"Ġsaf":9828,"rÃ¥dgiver":9829,"Ġ64":9830,"Ġintegreret":9831,"Ġkonflikt":9832,"ĠEL":9833,"Ġasi":9834,"Ġere":9835,"gelsen":9836,"osen":9837,"ĠunÃ¸d":9838,"Ġgreb":9839,"bekendtgÃ¸relse":9840,"Ġsekund":9841,"Ġgrav":9842,"Ġtusindvis":9843,"Ġagg":9844,"dansk":9845,"egning":9846,"ĠundersÃ¸gt":9847,"ĠSil":9848,"reber":9849,"Ġinds":9850,"tegn":9851,"Ġsover":9852,"dresse":9853,"entning":9854,"alisme":9855,"ĠbrÃ¦tspil":9856,"astro":9857,"ĠTur":9858,"ĠAugust":9859,"maden":9860,"ordens":9861,"Ġpool":9862,"hÃ¥r":9863,"ĠtrÃ¦kkes":9864,"gÃ¸ring":9865,"Ġadvar":9866,"personer":9867,"pa":9868,"ĠTro":9869,"Ġprincip":9870,"ĠFordi":9871,"sik":9872,"Ġsekret":9873,"Ġmusikken":9874,"Ġelegant":9875,"kun":9876,"Ġvardenafil":9877,"IR":9878,"bi":9879,"denser":9880,"ookie":9881,"bladet":9882,"mÃ¸det":9883,"Ġmenuen":9884,"86":9885,"skade":9886,"ejder":9887,"etÃ¸j":9888,"rapporten":9889,"ous":9890,"ĠdÃ¦kning":9891,"hh":9892,"Ġoversku":9893,"ĠlÃ¦ngst":9894,"Ġhust":9895,"Ġannonce":9896,"Ġbetragtning":9897,"ĠfÃ¸lelses":9898,"Ġ600":9899,"ĠbesÃ¦t":9900,"ĠTabel":9901,"Sund":9902,"Ġboet":9903,"Ġkommunal":9904,"Ġfingre":9905,"Ġ54":9906,"kommet":9907,"Ġsmide":9908,"erm":9909,"ATION":9910,"ekn":9911,"Ġtilknytning":9912,"skal":9913,"ĠanfÃ¸rt":9914,"urening":9915,"beskriv":9916,"ĠRÃ¥det":9917,"Ġbarne":9918,"Ġkvad":9919,"ĠJohannes":9920,"ĠAR":9921,"ĠopstÃ¥et":9922,"piller":9923,"Ġrejste":9924,"hotel":9925,"gives":9926,"ĠdÃ¸gnet":9927,"Ġmakeup":9928,"Ġhilsen":9929,"ĠRest":9930,"ĠovennÃ¦vnte":9931,"Ġvelv":9932,"Ġloft":9933,"Ġudkommer":9934,"zin":9935,"Ġdilemm":9936,"Ã¦ttet":9937,"Ġpc":9938,"Ġinspirerende":9939,"plejen":9940,"ĠbegrÃ¦nsninger":9941,"Ġtrus":9942,"iseres":9943,"Ġim":9944,"Ġhavnen":9945,"Ġtruffet":9946,"Ġbivirkninger":9947,"sevne":9948,"Ġdrevet":9949,"serien":9950,"Ġalli":9951,"DER":9952,"atorisk":9953,"sind":9954,"olitikken":9955,"ĠKOMMUN":9956,"ĠForÃ¦ldre":9957,"ĠFeb":9958,"imlen":9959,"Ġgade":9960,"?âĢĿ":9961,"Ġsgu":9962,"Ġuly":9963,"Ġtabe":9964,"osis":9965,"regnes":9966,"Ġalvorlig":9967,"Ġperman":9968,"samfund":9969,"Ġudfyld":9970,"Ġplaceres":9971,"Ġinteresserede":9972,"Ġdannelse":9973,"ĠVenstre":9974,"Ġmatcher":9975,"ĠDavid":9976,"ĠvÃ¦ske":9977,"ĠjÃ¦vnligt":9978,"ĠJap":9979,"ju":9980,"Ġfiler":9981,"klÃ¦der":9982,"ĠjubilÃ¦":9983,"Ġudvidede":9984,"Ġklubbens":9985,"ĠomsÃ¦tning":9986,"sigelse":9987,"ÌĬ":9988,"Ġsolsk":9989,"ĠOversigt":9990,"ftiger":9991,"Ġfinansiering":9992,"Ġkreativitet":9993,"Ġmenneskelige":9994,"Hold":9995,"creme":9996,"Ġforskelle":9997,"kontra":9998,"Ġstuder":9999,"Ġstres":10000,"Ã¸rste":10001,"ĠcafÃ©":10002,"ĠbevÃ¦gelser":10003,"Ġbegivenhed":10004,"nesk":10005,"yal":10006,"hvis":10007,"Ġangive":10008,"Ġbaggrunden":10009,"Ġfundament":10010,"ĠtÃ¸jet":10011,"ĠivÃ¦rksÃ¦t":10012,"Ġproducere":10013,"ĠMadsen":10014,"Ġtemaer":10015,"ĠmÃ¦lke":10016,"nyt":10017,"Ġorgasme":10018,"ordninger":10019,"Ġsvensk":10020,"ĠUdgivet":10021,"LER":10022,"brit":10023,"Ġflyver":10024,"Land":10025,"ĠHK":10026,"garn":10027,"bordet":10028,"Ġpresset":10029,"Ġlun":10030,"ray":10031,"ĠafgrÃ¦n":10032,"âĢ¢":10033,"spul":10034,"Ġinvestere":10035,"Referat":10036,"hjel":10037,"skop":10038,"Ġamerikansk":10039,"Ġminde":10040,"Ġhenviser":10041,"Ġkorn":10042,"Kl":10043,"Ġstiv":10044,"prÃ¸ver":10045,"ĠPrisen":10046,"ĠfastsÃ¦ttes":10047,"Ġjulem":10048,"Ġvestlige":10049,"Ġhenvises":10050,"Ġhovedsag":10051,"Ġultim":10052,"Ġmdr":10053,"ĠBorg":10054,"Ġudlejning":10055,"elvist":10056,"ĠstÃ¸rst":10057,"Ġtimes":10058,"Ġnyd":10059,"65":10060,"Ġprotein":10061,"Besk":10062,"ĠGR":10063,"Ġalmene":10064,"talte":10065,"ĠsÃ¦dvanlige":10066,"Ã¸jen":10067,"Person":10068,"ĠBlack":10069,"Ġforetrukne":10070,"skrivning":10071,"uropa":10072,"Ġoptimere":10073,"tor":10074,"Ġnul":10075,"giften":10076,"Ġarter":10077,"gens":10078,"ĠtrafikmÃ¥ling":10079,"riske":10080,"And":10081,"ble":10082,"Ġhit":10083,"bru":10084,"ukker":10085,"ĠatmosfÃ¦re":10086,"Ġ05":10087,"Ġhentet":10088,"Mar":10089,"Ġaspekter":10090,"Ġinitiativer":10091,"Ġleveringstid":10092,"ĠopnÃ¥s":10093,"41":10094,"Ġdec":10095,"ĠNordsjÃ¦lland":10096,"ĠbeskÃ¦ftiger":10097,"Ġskuespiller":10098,"Ġrespektive":10099,"smag":10100,"Ġtillige":10101,"aimassage":10102,"Ġstyring":10103,"Ġregionale":10104,"sch":10105,"Ġvifte":10106,"ibliotek":10107,"Del":10108,"Ġfortrydelses":10109,"Ġ88":10110,"Ġkoste":10111,"ĠDyr":10112,"Ġekster":10113,"lix":10114,"Ġ89":10115,"Ġoplevede":10116,"holt":10117,"ĠTrump":10118,"ĠHovedstaden":10119,"Ãĺnsker":10120,"lie":10121,"Ġnederst":10122,"ĠportrÃ¦t":10123,"stilbud":10124,"%.":10125,"Ġ1999":10126,"Ġnegative":10127,"ĠstadigvÃ¦k":10128,"ĠTrÃ¸je":10129,"Ġaalborg":10130,"areal":10131,"ĠFast":10132,"Ġtilfredshed":10133,"Ġfuck":10134,"ografisk":10135,"sprÃ¸":10136,"has":10137,"ĠHavn":10138,"Ġalsid":10139,"ĠSkol":10140,"Ġreserver":10141,"stÃ¦ndigt":10142,"speriode":10143,"Ġ07":10144,"allerup":10145,"Ġsammenlignet":10146,"ĠvÃ¦gge":10147,"ĠAlex":10148,"sperson":10149,"Ġmekan":10150,"Ġkanten":10151,"ĠformÃ¥let":10152,"havet":10153,"Ġrenovering":10154,"ĠforretningsmÃ¦ssige":10155,"Ġfans":10156,"Ġplade":10157,"Ġordrer":10158,"Ġkager":10159,"garanti":10160,"ĠskrÃ¦ddersy":10161,"ĠnÃ¦tter":10162,"Ġgavekort":10163,"Ġomvendt":10164,"udsig":10165,"Ġudgangen":10166,"arhus":10167,"splanen":10168,"ĠstÃ¥ende":10169,"estol":10170,"Ġkoncept":10171,"Ġsamarbejds":10172,"ĠSlagelse":10173,"Ġbilletter":10174,"lod":10175,"Ġforanstaltninger":10176,"Ġvant":10177,"ĠhÃ¦ve":10178,"Ġfanget":10179,"Ġ74":10180,"Ġkommentere":10181,"pub":10182,"ĠDIN":10183,"oversigt":10184,"Ġrespekter":10185,"Ġbeskrives":10186,"ĠVol":10187,"ydning":10188,"ico":10189,"slutning":10190,"lighederne":10191,"Ġreturret":10192,"ĠnetvÃ¦rks":10193,"ney":10194,"Ġstab":10195,"parter":10196,"ĠterrÃ¦n":10197,"Ġsamles":10198,"enterne":10199,"Ġindsatser":10200,"Ġuret":10201,"berne":10202,"ĠFÃ¦rÃ¸erne":10203,"verdenen":10204,"skilt":10205,"ĠSimon":10206,"Ġhemmelige":10207,"stige":10208,"Skulle":10209,"strategi":10210,"ktÃ¸ren":10211,"Ġokt":10212,"itioner":10213,"Ġudenrig":10214,"Ġkrops":10215,"ĠvÃ¦rt":10216,"Ġteoret":10217,"sbeg":10218,"Ġentrepren":10219,"Ġplanen":10220,"Ġejendoms":10221,"alisere":10222,"sbas":10223,"ĠLet":10224,"Ġopdatering":10225,"ferencen":10226,"ĠElever":10227,"ĠlÃ¦gemidler":10228,"ĠsÃ¸en":10229,"Ġspiste":10230,"ĠArbejdsmarked":10231,"Ġekstraordin":10232,"ART":10233,"ĠSÃ¥ledes":10234,"ture":10235,"bÃ¸l":10236,"ĠSo":10237,"ĠGuide":10238,"ĠvideregÃ¥ende":10239,"Ġent":10240,"Ãħr":10241,"ĠpopulÃ¦rt":10242,"anderborg":10243,"Ġankl":10244,"Ġcom":10245,"Ġplatform":10246,"IGT":10247,"egen":10248,"rys":10249,"ĠBusiness":10250,"Ġuend":10251,"Ġ58":10252,"weiz":10253,"Ġtakket":10254,"neser":10255,"ĠfÃ¸dsel":10256,"ĠFantas":10257,"Ġ@":10258,"Ġindividuelt":10259,"Ġmundt":10260,"olitiske":10261,"teren":10262,"Ġudsol":10263,"Ġgrundig":10264,"ttet":10265,"ĠenestÃ¥ende":10266,"Ġkoordin":10267,"ĠKontrol":10268,"Ġlign":10269,"kat":10270,"Ġliggende":10271,"Hje":10272,"ĠPe":10273,"ĠFamilie":10274,"artet":10275,"Ġhukomm":10276,"ĠXtra":10277,"MÃ¥ske":10278,"iserer":10279,"Ã¸dder":10280,"CE":10281,"Ġtitlen":10282,"ĠÃ¦stet":10283,"ĠLidt":10284,"ĠDeb":10285,"Ġvogn":10286,"Ġscenen":10287,"ĠAaB":10288,"Ġmangfold":10289,"klubben":10290,"ĠSÃħ":10291,"frihed":10292,"ora":10293,"Ġsenior":10294,"jul":10295,"rine":10296,"Ġdebatten":10297,"Ġklarer":10298,"ĠÃ¦rlig":10299,"Ġmaskinen":10300,"besÃ¸g":10301,"Ġfjerner":10302,"Gener":10303,"Ġpersonen":10304,"Ġformel":10305,"alender":10306,"somrÃ¥de":10307,"alisering":10308,".....":10309,"Ġborgmester":10310,"ĠBlÃ¥":10311,"bevis":10312,"DR":10313,"Ġbrevkasse":10314,"Ġbygningen":10315,"Ġtap":10316,"Ġmelder":10317,"ãĥ":10318,"ĠÃħb":10319,"udbyder":10320,"Ġudgivelses":10321,"Ġje":10322,"Ġterror":10323,"Ġgrin":10324,"Ġfinan":10325,"Ġoverordnet":10326,"Ġbolden":10327,"Ġrelaterede":10328,"To":10329,"ĠWi":10330,"do":10331,"bygget":10332,"orme":10333,"Ġbranchen":10334,"kÃ¸rsel":10335,"ĠmÃ¥neders":10336,"SM":10337,"Ġoptimal":10338,"Ġpande":10339,"Ã¦lde":10340,"Ġkritisk":10341,"vinder":10342,"Ġfyn":10343,"idig":10344,"ĠbopÃ¦l":10345,"enting":10346,"Ġknyttet":10347,"Ã¦lges":10348,"ĠÃ¦ndrede":10349,"Ġarealer":10350,"Ġgrill":10351,"Ġcharmerende":10352,"ografiske":10353,"Ġrevi":10354,"Ġvideok":10355,"Ġkompleks":10356,"arden":10357,"rob":10358,"Ġfrivilligt":10359,"Ġlevede":10360,"aktivitet":10361,"Ġlogo":10362,"Ġspilles":10363,"Ġsavner":10364,"Ġderfra":10365,"Ġstre":10366,"Ġspist":10367,"Ġprins":10368,"fru":10369,"stÃ¸j":10370,"ĠvelfÃ¦rd":10371,"ĠOP":10372,"Ġopb":10373,"inerne":10374,"tagelsen":10375,"Ġfitness":10376,"Ġfortolk":10377,"ĠNoget":10378,"ĠLi":10379,"Ġfader":10380,"Ġskabel":10381,"hyd":10382,"ĠefterlÃ¸n":10383,"sprojekter":10384,"ĠInstagram":10385,"Ã¸dt":10386,"Ġoptagelse":10387,"Ġekspert":10388,"Ġforbedring":10389,"unke":10390,"tidspension":10391,"Ġsimple":10392,"uc":10393,"ĠAktiv":10394,"valuering":10395,"ĠBudget":10396,"Ġspecifikt":10397,"Ġanmodning":10398,"NS":10399,"ĠtilfÃ¸jet":10400,"Lov":10401,"ĠbetÃ¸d":10402,"cla":10403,"ĠindtÃ¦gter":10404,"stÃ¥et":10405,"ĠbelÃ¦g":10406,"ĠunderstÃ¸tte":10407,"Ġringede":10408,"Ġbetydelig":10409,"Ġkatalog":10410,"Ġnike":10411,"alkredit":10412,"BER":10413,"Lad":10414,"mÃ¦rkning":10415,"Ġkopier":10416,"agelse":10417,"ĠdÃ¸den":10418,"ĠSM":10419,"ĠUdskrift":10420,"ĠVideo":10421,"sprocessen":10422,"ĠSamlet":10423,"ĠThailand":10424,"ĠKe":10425,"Ġargu":10426,"Ġstrategisk":10427,"telsen":10428,"smÃ¸det":10429,"IDE":10430,"Ġparad":10431,"Ġkrigen":10432,"ĠAP":10433,"Ġoverrasket":10434,"Hvorfor":10435,"cien":10436,"ĠLouise":10437,"Ġded":10438,"Ġhimmel":10439,"Ġrumm":10440,"ageren":10441,"tika":10442,"ics":10443,"Ġ03":10444,"ĠÃ¦re":10445,"ĠsvÃ¸mme":10446,"ĠNÃ¸rrebro":10447,"Ġgule":10448,"smÃ¥":10449,"Ġfremstilling":10450,"Ġstolte":10451,"Â¦":10452,"Ġbygges":10453,"ĠSMS":10454,"ĠKilde":10455,"Ġstrikket":10456,"Ġpartier":10457,"Ġhumor":10458,"Ã¦nget":10459,"ĠvÃ¦rdien":10460,"Side":10461,"Ġlancer":10462,"ĠBan":10463,"agter":10464,"Ġsalgs":10465,"Ã¦lling":10466,"ĠNeden":10467,"ĠProv":10468,"ĠplanlÃ¦gger":10469,"ebygge":10470,"Ġinvesteringer":10471,"Ġglemme":10472,"Ġproduktions":10473,"letal":10474,"arealer":10475,"shospital":10476,"Ġvelkomne":10477,"Ġkasse":10478,"ĠSteen":10479,"ĠhÃ¦ld":10480,"begrÃ¦n":10481,"ĠTom":10482,"Ġ59":10483,"Ġbryde":10484,"Ġfirmaet":10485,"edig":10486,"amel":10487,"Ġsving":10488,"frastruktur":10489,"ĠRos":10490,"ĠbÃ¦redygtig":10491,"kstedet":10492,"Ġelevernes":10493,"Ġreserv":10494,"Ġtide":10495,"amentet":10496,"Ġindsatsen":10497,"Ġsky":10498,"stens":10499,"ĠAmt":10500,"Ġfarven":10501,"ĠpÃ¦dagogisk":10502,"Ġfrust":10503,"Ġum":10504,"ague":10505,"ooth":10506,"Ġrute":10507,"Ġregionen":10508,"Ġafgivet":10509,"TU":10510,"Ġboardadministrator":10511,"47":10512,"Ġsus":10513,"ĠTeater":10514,"ryds":10515,"Ġscene":10516,"roid":10517,"Ġharmon":10518,"risk":10519,"live":10520,"Ġhvorledes":10521,"Ġfacebook":10522,"ĠselvstÃ¦ndige":10523,"Ġfarligt":10524,"Ġindividuel":10525,"Ġwebstedet":10526,"ĠvandlÃ¸b":10527,"Ġgad":10528,"aminer":10529,"ĠbÃ¸rnenes":10530,"Ġopford":10531,"Bet":10532,"ĠIdrÃ¦t":10533,"gÃ¦ng":10534,"ĠstrÃ¦k":10535,"Ġhjulpet":10536,"ĠgennemgÃ¥et":10537,"Ġpolitikker":10538,"Ġpopularitet":10539,"Copyright":10540,"Ġdesser":10541,"teste":10542,"Ġanbefaling":10543,"ĠsundhedsvÃ¦sen":10544,"ĠReferat":10545,"Ġmobile":10546,"ĠfÃ¸lg":10547,"Ġjazz":10548,"pligtig":10549,"ommeren":10550,"Ġ51":10551,"Ġmuseum":10552,"Ġbogstav":10553,"ĠMog":10554,"Ã¦vnt":10555,"Ġhellig":10556,"Ġemballage":10557,"Ġ78":10558,"ĠServic":10559,"ĠPrakti":10560,"Ġrisikerer":10561,"ĠfremstÃ¥r":10562,"ĠselvstÃ¦ndigt":10563,"hu":10564,"aps":10565,"skrive":10566,"kvens":10567,"Ġsolgte":10568,"Ã¸bing":10569,"Ġforekommer":10570,"Ġforsyn":10571,"hÃ¥ndtering":10572,"meldelse":10573,"pperne":10574,"Ġforebygge":10575,"ktivet":10576,"lysning":10577,"ĠrÃ¥varer":10578,"Ikke":10579,"Ġbliv":10580,"ampagne":10581,"Ġundtagelse":10582,"ĠModer":10583,"Ġdelvist":10584,"Ġunderviser":10585,"plant":10586,"rande":10587,"Ġutallige":10588,"ĠUN":10589,"ĠVarem":10590,"driv":10591,"Ġoverlev":10592,"ĠudlÃ¦ndinge":10593,"ĠprÃ¦senteres":10594,"ĠAnaly":10595,"mands":10596,"Ġbredde":10597,"Bilag":10598,"ĠsÃ¸gt":10599,"Ġflag":10600,"2011":10601,"vands":10602,"CH":10603,"ley":10604,"usind":10605,"bukser":10606,"ball":10607,"fj":10608,"Ġhjemmefra":10609,"ĠIr":10610,"ĠÃ¥rsagen":10611,"mord":10612,"Ġfeedback":10613,"Ġbehovet":10614,"ĠHR":10615,"anc":10616,"ĠoplÃ¸sning":10617,"ĠDU":10618,"stÃ¸tte":10619,"vester":10620,"Ġberegning":10621,"arrange":10622,"ĠOut":10623,"ĠtrÃ¥dte":10624,"elÃ¸s":10625,"pine":10626,"Ġsandt":10627,"Ġfrems":10628,"prÃ¸v":10629,"barn":10630,"ingerne":10631,"ĠfÃ¸devare":10632,"byen":10633,"seren":10634,"Ġtyder":10635,"ĠDam":10636,"abelt":10637,"Ġsenge":10638,"ĠÂ½":10639,"Ġopdatere":10640,"Ġho":10641,"ĠKlin":10642,"Ġdrifts":10643,"alderen":10644,"ĠCamping":10645,"drej":10646,"Ġdagpenge":10647,"Forslag":10648,"Ġfokuserer":10649,"ĠFinan":10650,"ĠProdukt":10651,"Ġcomputere":10652,"ellness":10653,"Ġinstalleret":10654,"ĠnervÃ¸s":10655,"Ġskyde":10656,"Ġheld":10657,"64":10658,"Ġudvidelse":10659,"ygning":10660,"Ġminutters":10661,"Ġkapit":10662,"modtagere":10663,"Ġskabte":10664,"Ġheldige":10665,"Ġblogs":10666,"djurs":10667,"ners":10668,"ĠBliv":10669,"Ġbetydeligt":10670,"Ġdybe":10671,"Ġmuskler":10672,"ĠAustral":10673,"EB":10674,"Ġarg":10675,"kommun":10676,"ravet":10677,"ĠgÃ¦sterne":10678,"Ġ67":10679,"ĠLo":10680,"Ġorientering":10681,"Ġhash":10682,"Ġsluttede":10683,"Ġudbetaling":10684,"skib":10685,"Ġindbet":10686,"ĠspÃ¦ndt":10687,"Ġforpligtelser":10688,"Ġ87":10689,"aderslev":10690,"nÃ¦r":10691,"hoved":10692,"smateriale":10693,"Ġ1998":10694,"uret":10695,"revne":10696,"Ġopdager":10697,"Ġforandringer":10698,"trÃ¦ng":10699,"IfÃ¸lge":10700,"Ġforsigtigt":10701,"indstillinger":10702,"ĠfravÃ¦r":10703,"ĠHotels":10704,"agtige":10705,"Ġcitron":10706,"irsdag":10707,"ĠSlot":10708,"DK":10709,"sentation":10710,"Ġgrundlagt":10711,"GÃ¦ldende":10712,"ĠopmÃ¦rksomme":10713,"Ġskrot":10714,"kost":10715,"plom":10716,"ativet":10717,"tiker":10718,"Ġdamp":10719,"Ġmobiltelefon":10720,"smÃ¦nd":10721,"ysik":10722,"Ġbegreb":10723,"ĠlÃ¸sningen":10724,"billede":10725,"Ġendt":10726,"Ġtakke":10727,"retningen":10728,"Ġskyl":10729,"Ġeffekter":10730,"Ġslettet":10731,"Ġringer":10732,"askine":10733,"Ġ;-)":10734,"ĠPetersen":10735,"Ġskibe":10736,"Ġnedlagt":10737,"ĠreprÃ¦sentanter":10738,"rerede":10739,"Ġknu":10740,"ĠAsi":10741,"Ġberegnes":10742,"Ġuld":10743,"orienteret":10744,"ĠkÃ¦re":10745,"Ġokay":10746,"Ġanalys":10747,"Ġeksisterer":10748,"ĠÃ¸jeblikk":10749,"Fl":10750,"Ġangri":10751,"Ġindsamling":10752,"Ġordren":10753,"Ġopleves":10754,"ĠbelÃ¸bet":10755,"ĠbÃ¸d":10756,"stog":10757,"ĠEnergimÃ¦rknings":10758,"ĠPÃ¦dagog":10759,"hov":10760,"ĠGent":10761,"iko":10762,":)":10763,"Ġparabol":10764,"cast":10765,"SI":10766,"iere":10767,"Ġpotentielle":10768,"alede":10769,"ynger":10770,"prop":10771,"iseringen":10772,"Ġbibliotek":10773,"Ġkartofler":10774,"!)":10775,"Ġskabes":10776,"Ġalles":10777,"Ġnoveller":10778,"anerne":10779,"Ġorganisationen":10780,"Ġitalienske":10781,"ĠGamle":10782,"Ġdild":10783,"istance":10784,"Ġrevisor":10785,"ĠTri":10786,"ĠKlo":10787,"ĠbekrÃ¦fter":10788,"Ġsamfunds":10789,"Ġophavsret":10790,"ĠkÃ¦lder":10791,"forÃ¦ldre":10792,"Ã¦lk":10793,"neth":10794,"Ġrigeligt":10795,"Ġoverenskomst":10796,"bland":10797,"Ġforlader":10798,"Ġtillade":10799,"Ġhovedstad":10800,"Ġtol":10801,"ĠtrovÃ¦r":10802,"ĠKristian":10803,"ĠOk":10804,"ĠEli":10805,"rÃ¥dt":10806,"ĠSygehus":10807,"cepter":10808,"foreninger":10809,"Ġflydende":10810,"ĠopfÃ¸lgning":10811,"Ġlim":10812,"ERS":10813,"ridisk":10814,"Ġtax":10815,"rad":10816,"ĠtrÃ¦de":10817,"Ġopkald":10818,"Indtast":10819,"Ġidentificere":10820,"ĠtÃ¥lmod":10821,"ĠHolstebro":10822,"Ġtelefoner":10823,"Ġfli":10824,"Ġdrikker":10825,"ledninger":10826,"ĠDo":10827,"ĠGodkendelse":10828,"Ġpakket":10829,"Ġankomst":10830,"Ġstyrket":10831,"Husk":10832,"Ġmot":10833,"Ġindtaste":10834,"ejere":10835,"Ġ53":10836,"Ġudgivelsen":10837,"Ġinvest":10838,"ĠRetning":10839,"ĠforhÃ¥bentlig":10840,"stillede":10841,"Ġjylland":10842,"Ġbegrund":10843,"2010":10844,"sÃ¸gende":10845,"FÃ¸rste":10846,"Ġudbredt":10847,"Ġudviklede":10848,"ella":10849,"type":10850,"Ġback":10851,"Ġvarieret":10852,"bon":10853,"lege":10854,"ĠFree":10855,"Ġudforske":10856,"Ġoptage":10857,"ringes":10858,"ĠlÃ¦rte":10859,"Ġvine":10860,"ĠLolland":10861,"uminium":10862,"bedste":10863,"Ġadministrator":10864,"hente":10865,"Ġforbud":10866,"ĠkÃ¦":10867,"Ġvug":10868,"ĠSÃ¸nderborg":10869,"ditioner":10870,"ĠSor":10871,"Ġaffalds":10872,"Ġtung":10873,"Ġbudskab":10874,"iality":10875,"ĠUds":10876,"Ġskulder":10877,"ĠDigiality":10878,"ĠDon":10879,"egaard":10880,"Plan":10881,"ĠÃ¸rer":10882,"ĠnÃ¦rmer":10883,"ĠindkÃ¸bskurven":10884,"ierede":10885,"Ġhvidt":10886,"ĠsvÃ¸":10887,"Ġantenne":10888,"ĠindfÃ¸rt":10889,"ĠTravel":10890,"ĠLNB":10891,"ĠRejse":10892,"Ġmalet":10893,"Ġhaver":10894,"Ġhalsen":10895,"ĠHvert":10896,"delses":10897,"Ġdetail":10898,"yggen":10899,"Ġservices":10900,"ĠforstÃ¥s":10901,"Ġrapporten":10902,"itor":10903,"Ã¥rd":10904,"ĠKarl":10905,"ĠTekst":10906,"ett":10907,"dannelse":10908,"Ġhenvendelser":10909,"omsten":10910,"ĠreprÃ¦senteret":10911,"Ġarkitektur":10912,"Ġfritids":10913,"Ġklasser":10914,"ptember":10915,"Ġborgeren":10916,"tigheden":10917,"river":10918,"Bl":10919,"Ġbody":10920,"Ġuges":10921,"Ã¦ks":10922,"onsul":10923,"Ġflok":10924,"ĠClub":10925,"ELS":10926,"Ġafslappet":10927,"faldet":10928,"ĠspÃ¦nder":10929,"Ã¸derne":10930,"Ã¥ned":10931,"Ġudarbejdes":10932,"forme":10933,"skat":10934,"ĠforkÃ¦l":10935,"Ġtidlige":10936,"ĠHvornÃ¥r":10937,"ĠanlÃ¦gget":10938,"Ġterm":10939,"Ġvarighed":10940,"Ġafdelingen":10941,"Sm":10942,"ridiske":10943,"mÃ¸der":10944,"hjer":10945,"Sort":10946,"Ġinviterer":10947,"Ġforeligger":10948,"oblemet":10949,"Ġoverfladen":10950,"Ġbehandlinger":10951,"Ġ69":10952,"SC":10953,"Ġopdagede":10954,"Ġmagasin":10955,"ĠnÃ¸jes":10956,"Ġfirmaer":10957,"allene":10958,"ĠDream":10959,"Ġstudier":10960,"Ġsamarbejdspartner":10961,"pasning":10962,"Ġcivil":10963,"ĠAC":10964,"Ġhjalp":10965,"Ġventede":10966,"Ġsamspil":10967,"ĠfÃ¦nomen":10968,"burg":10969,"aves":10970,"gÃ¸relser":10971,"ãĤ":10972,"Ġkval":10973,"billetter":10974,"Ġvendt":10975,"Ġinvolveret":10976,"ĠFÃ¸lg":10977,"__":10978,"Ġkonstruktion":10979,"Ġvedvarende":10980,"ging":10981,"ĠBedste":10982,"udsigt":10983,"ĠKÃ¸kken":10984,"Ġsorg":10985,"sprogra":10986,"Ġtegnet":10987,"elskab":10988,"Ġstraf":10989,"ĠfrÃ¦kt":10990,"Ã¦ren":10991,"ĠBad":10992,"ĠGLS":10993,"ĠGul":10994,"Ġskuff":10995,"skader":10996,"Ġovernatnings":10997,"Ġdybde":10998,"Ġforventning":10999,"ĠAnlÃ¦g":11000,"Ġhalve":11001,"ĠkontanthjÃ¦lp":11002,"Â¸":11003,"Ġgennemsnitlig":11004,"ĠUdbud":11005,"Ġbooke":11006,"edal":11007,"Ġdeltaget":11008,"Ġrammerne":11009,"ystemer":11010,"ptur":11011,"Ã¥be":11012,"fÃ¦lde":11013,"taler":11014,"skvalitet":11015,"Ġfisker":11016,"ĠUdskriftsdato":11017,"ĠarbejdslÃ¸s":11018,"ĠWord":11019,"Ġlinjer":11020,"ĠFy":11021,"Tid":11022,"Ġtilbudt":11023,"Ġmilliarder":11024,"askiner":11025,"Ã¸ns":11026,"Ġforbudt":11027,"Ġost":11028,"ĠBehandling":11029,",,":11030,"likationer":11031,"Ġpiller":11032,"Ġbeslutter":11033,"Ġfremmede":11034,"ĠBang":11035,"ĠBarcel":11036,"Ġbranche":11037,"Ġansvarlige":11038,"Ġkondom":11039,"Ġbiblioteket":11040,"Ġmontering":11041,"Ġ96":11042,"Ġlicens":11043,"ĠKOMMUNE":11044,"Ġseksuelt":11045,"boks":11046,"itar":11047,"Ġtel":11048,"ĠÃ¸jet":11049,"Ġudarbejdelse":11050,"Ġwebsites":11051,"Net":11052,"Ġkonkurrencen":11053,"nÃ¦ring":11054,"Ġveks":11055,"cykler":11056,"Ġbundet":11057,"ĠBred":11058,"ARK":11059,"fulgt":11060,"Ġafslappende":11061,"ÃĨRK":11062,"ĠVin":11063,"ĠKors":11064,"alingen":11065,"Ġproblemstillinger":11066,"Ġfad":11067,"Ġ04":11068,"Ġvejledende":11069,"Ġfabrik":11070,"ĠOktober":11071,"Ġkompromis":11072,"Ġift":11073,"ramme":11074,"ĠjordbÃ¦r":11075,"Ġeftersom":11076,"konsulent":11077,"Ġfrivillig":11078,"hvil":11079,"Ã³":11080,"ĠAnn":11081,"Ġkonkurrencer":11082,"Ġryst":11083,"Ġrefle":11084,"Ġchancen":11085,"spillere":11086,"Ġfemin":11087,"Ġeksempl":11088,"sene":11089,"Ġforbedret":11090,"Gr":11091,"dy":11092,"ĠGolf":11093,"pÃ¦dagog":11094,"alier":11095,"Ġforbeholder":11096,"Ġleger":11097,"fÃ¸rende":11098,"SKE":11099,"alleri":11100,"lovens":11101,"gin":11102,"styrke":11103,"kursus":11104,"ularen":11105,"otten":11106,"Ġmuslim":11107,"Ġakadem":11108,"Ġformidling":11109,"Ġboks":11110,"ĠMotor":11111,"jenesten":11112,"Ġrussiske":11113,"kÃ¸d":11114,"holdere":11115,"ĠSkÃ¦r":11116,"sÃ¦ttelsen":11117,"ostrup":11118,"Ġingenting":11119,"ĠEksempel":11120,"Ġherinde":11121,"ĠBent":11122,"ĠmÃ¥lt":11123,"Ġudvend":11124,"ĠskrÃ¥":11125,"Ġfejre":11126,"Ġdispens":11127,"ĠIsrael":11128,"Ġbror":11129,"ĠLigesom":11130,"ktÃ¸rer":11131,"Ġhval":11132,"!âĢĿ":11133,"gelses":11134,"ÃĨL":11135,"Ġafklar":11136,"Inden":11137,"ĠtrÃ¦ng":11138,"Ġfortid":11139,"ĠtrÃ¦ningen":11140,"Ġsignaler":11141,"ĠHjemmes":11142,"ĠkÃ¸retÃ¸jer":11143,"Ã¦vner":11144,"ĠOlsen":11145,"trÃ¦den":11146,"kager":11147,"ĠerklÃ¦ring":11148,"Ġsupplerende":11149,"Ġtrives":11150,"ĠÃĺkonom":11151,"ĠrÃ¸":11152,"Ġgodkendte":11153,"Ġlovgivningen":11154,"Ġgodkendes":11155,"Ġ98":11156,"Ġeuro":11157,"Ġparterne":11158,"Ġvurderet":11159,"Ġbelysning":11160,"str":11161,"Ġvinkel":11162,"ĠBib":11163,"ĠsvÃ¦rere":11164,"ĠNÃ¦ste":11165,"aljer":11166,"ĠgÃ¦ste":11167,"Ġuheld":11168,"ĠbedÃ¸mmelse":11169,"Ġhjemmelavet":11170,"ĠTÃ¦nk":11171,"ĠblÃ¸dt":11172,"sbor":11173,"Ġbanken":11174,"Ġryge":11175,"ronning":11176,"eleder":11177,"Ġkniv":11178,"Ġmatchende":11179,"ĠTilmeld":11180,"Ġfo":11181,"Ġsun":11182,"ĠoptrÃ¦der":11183,"Ġhhv":11184,"ĠUnited":11185,"hverv":11186,"ĠLÃ¦rer":11187,"ĠEM":11188,"ktionerne":11189,"Ġutro":11190,"Ġferien":11191,"LING":11192,"uten":11193,"Ġskidt":11194,"Ġdiscipl":11195,"Ġstjerne":11196,"Ġudgivelser":11197,"nens":11198,"cit":11199,"ĠStatus":11200,"Ġsydlige":11201,"Ġhormon":11202,"etent":11203,"Ġbesid":11204,"Ġ1990":11205,"Ġhalvdel":11206,"Ġglemmer":11207,"Ġtaske":11208,"Ġfase":11209,"Ġchauff":11210,"Ġsmartphone":11211,"fot":11212,"bevidst":11213,"oteker":11214,"ĠvÃ¦relset":11215,"ĠFÃ¸lgende":11216,"Ser":11217,"koncer":11218,"ols":11219,"Ġetage":11220,"Ġvindue":11221,"Ġsexet":11222,"Flere":11223,"Ġcookiepolitik":11224,"Ġbritiske":11225,"ĠTilfÃ¸j":11226,"Ġforsiden":11227,"Ġkloak":11228,"âĺħâĺħ":11229,"Ġanvendte":11230,"Ã¥s":11231,"Kun":11232,"Ġudefra":11233,"ONG":11234,"itten":11235,"ĠgennemgÃ¥r":11236,"ĠGodkendt":11237,"atoren":11238,"ĠCont":11239,"Lige":11240,"Ġovn":11241,"Ġspot":11242,"Ġerhvervslivet":11243,"ighedsrÃ¥d":11244,"ĠÃ¥re":11245,"Ġmys":11246,"Ġundskyld":11247,"Ġmaling":11248,"Ġinteressen":11249,"Ġspidsen":11250,"ĠJord":11251,"Gra":11252,"Ġtredjeparter":11253,"ĠejendomsmÃ¦gler":11254,"interes":11255,"Ġenergim":11256,"apital":11257,"Ġparf":11258,"ĠDokument":11259,"Ġregioner":11260,"ĠBerling":11261,"ĠMos":11262,"Ġfir":11263,"ĠvÃ¦rdig":11264,"Ġkandidater":11265,"britann":11266,"ĠChristiansborg":11267,"Ġneut":11268,"Ġbug":11269,"ĠvÃ¦sen":11270,"autom":11271,"timod":11272,"ĠStatistik":11273,"Ġdrage":11274,"Ġaktion":11275,"Ġelas":11276,"Ġydes":11277,"ariske":11278,"klÃ¦ring":11279,"Ġdoll":11280,"kasser":11281,"Ġfilter":11282,"Ġskra":11283,"ĠTrafik":11284,"ĠforelÃ¸big":11285,"ĠFokus":11286,"danne":11287,"Ġsammenligning":11288,"Ġkonceptet":11289,"Ġvirkelige":11290,"Ġstige":11291,"Ġafgang":11292,"Ġbarndom":11293,"!.":11294,"stÃ¸rrelse":11295,"lap":11296,"illes":11297,"Ġindstillet":11298,"Ġopbe":11299,"Ġann":11300,"ĠUnivers":11301,"direktÃ¸r":11302,"Ġtilfredsstillende":11303,"Ġbestilte":11304,"Ġsikres":11305,"Ġspeciale":11306,"Ġkraftige":11307,"Ġugers":11308,"Ġhusdyr":11309,"Ġideen":11310,"66":11311,"Ġprint":11312,"ĠFrank":11313,"Ġgevinst":11314,"Ġsalat":11315,"issen":11316,"trÃ¸jer":11317,"smodel":11318,"Ġforslaget":11319,"ĠnÃ¦se":11320,"Ġmuskel":11321,"ĠforfÃ¦rd":11322,"ĠvÃ¥de":11323,"Ġ62":11324,"Ġopbygget":11325,"leden":11326,"ĠbÃ¸":11327,"pert":11328,"Ġtw":11329,"Ġbomuld":11330,"Ġstandarder":11331,"Ġregnet":11332,"ĠÃ¥bnes":11333,"sledelse":11334,"rationen":11335,"ĠMaximum":11336,"ĠfortÃ¦llinger":11337,"ĠHospital":11338,"roen":11339,"sbetingelserne":11340,"Ġstrik":11341,"ĠKron":11342,"ĠsjÃ¦ld":11343,"ĠvÃ¦ld":11344,"istens":11345,"Ġplastik":11346,"Ġsnarere":11347,"glÃ¦de":11348,"Ġvenskab":11349,"ĠAlligevel":11350,"ĠhÃ¸st":11351,"Ã¸rre":11352,"Ġmandlige":11353,"Ġcreme":11354,"ĠHerren":11355,"mbÃ¥nd":11356,"stren":11357,"ĠhÃ¥ndbold":11358,"ĠHvilken":11359,"Ġops":11360,"lekse":11361,"ĠAlm":11362,"ĠbegrÃ¦nse":11363,"ĠAnbef":11364,"inner":11365,"ĠLine":11366,"ĠRigtig":11367,"virkning":11368,"Ġsvine":11369,"sulenter":11370,"ĠgÃ¥rden":11371,"Ġhenvende":11372,"ĠjuletrÃ¦":11373,"eled":11374,"Ġkaldte":11375,"Or":11376,"distri":11377,"Ġwith":11378,"Ġprofessor":11379,"ĠVVS":11380,"Ġrejst":11381,"etence":11382,"apning":11383,"omo":11384,"fi":11385,"claimer":11386,"rids":11387,"ĠforstÃ¥et":11388,"Ġinkluderer":11389,"fikationer":11390,"Ġfysioter":11391,"Ġkampagne":11392,"egler":11393,"ĠprivatlivsvilkÃ¥r":11394,"Ġmaterialet":11395,"Ġshopping":11396,"Ġsuver":11397,"Tekst":11398,"ĠNed":11399,"ĠAdminist":11400,"Ġsim":11401,"rundlag":11402,"ĠSÃ¸rg":11403,"END":11404,"Ġfunktionen":11405,"kontakt":11406,"vÃ¦rdige":11407,"ee":11408,"kok":11409,"ĠundersÃ¸ger":11410,"ĠBjer":11411,"ĠMandag":11412,"Ġskilt":11413,"Ġkilo":11414,"beskyttelse":11415,"situ":11416,"Ġanerkendelse":11417,"ĠformÃ¥r":11418,"Ġskarpe":11419,"arme":11420,"vÃ¦rdier":11421,"Ġtegninger":11422,"ĠNÃ¸rre":11423,"Ġblowjob":11424,"oppen":11425,"Ġpizza":11426,"ĠAnvend":11427,"ĠSyddanmark":11428,"Ġdownload":11429,"ĠForeningen":11430,"irurg":11431,"konto":11432,"Ġskuespil":11433,"olitisk":11434,"ĠMobil":11435,"ĠSags":11436,"Nyt":11437,"mmelserne":11438,"orts":11439,"rama":11440,"aber":11441,"ega":11442,"Ġvandret":11443,"Ġopstod":11444,"Ġ1800":11445,"Ġjuridiske":11446,"Ġforstyr":11447,"ĠpÃ¥virket":11448,"ĠAdresse":11449,"cise":11450,"ĠVarme":11451,"ĠFrÃ¦kke":11452,"Ġtempo":11453,"Ġudsp":11454,"andÃ¸r":11455,"tagelses":11456,"Ġaffilierede":11457,"Ġbegreber":11458,"anna":11459,"Ġtypen":11460,"Ġetn":11461,"Ġtendenser":11462,"nor":11463,"Ġalbum":11464,"ĠmÃ¸nstre":11465,"sive":11466,"Bruger":11467,"gelser":11468,"mak":11469,"Ġejet":11470,"Ġvilla":11471,"98":11472,"ĠJournalnummer":11473,"ĠBilleder":11474,"felt":11475,"ĠBur":11476,"Ġforbered":11477,"sministeriets":11478,"Ġbarns":11479,"Ġudfordrende":11480,"vidde":11481,"Ġkriterier":11482,"Tag":11483,"Ã¶r":11484,"otal":11485,"ĠvÃ¦gttab":11486,"slÃ¥et":11487,"tions":11488,"Ġfotografer":11489,"ĠAV":11490,"Ġluder":11491,"Ġbesvare":11492,"Ġdiskutere":11493,"ĠEj":11494,"ĠafgÃ¸relsen":11495,"Ã¸mning":11496,"Ġudvikles":11497,"Ġmenstru":11498,"Ġplat":11499,"oser":11500,"Ġdennes":11501,"pad":11502,"ĠSend":11503,"Ġrulle":11504,"Ġton":11505,"ives":11506,"rÃ¦s":11507,"Ġ800":11508,"Ġsygdommen":11509,"ĠkÃ¦rligheden":11510,"Ġpress":11511,"Ġantager":11512,"ÃĺB":11513,"HUS":11514,"Ġanmel":11515,"Ġunges":11516,"ĠHV":11517,"Ġrefunder":11518,"ĠSEO":11519,"Ġbortset":11520,"ĠHanne":11521,"Ġflit":11522,"Ġinfl":11523,"TS":11524,"best":11525,"ĠskÃ¦b":11526,"Ġfaldende":11527,"Ġevents":11528,"ĠbrÃ¦ndstof":11529,"Ġforelsket":11530,"Ġjulen":11531,"tillid":11532,"pres":11533,"afsnit":11534,"Ġ68":11535,"ĠSmu":11536,"Ġerstatte":11537,"ĠMc":11538,"kninger":11539,"kateg":11540,"programmer":11541,"Ġscor":11542,"Ġbib":11543,"stedelen":11544,"kurrence":11545,"Ġyndling":11546,"Ġforberede":11547,"Ġforfatteren":11548,"Ġfortjener":11549,"Ġ;)":11550,"Ġmellemrum":11551,"Ġkakao":11552,"brand":11553,"ĠansÃ¦ttelse":11554,"Ġkvarter":11555,"ĠJose":11556,"ĠKjÃ¦r":11557,"tics":11558,"ĠtrÃ¦ffes":11559,"Ġtilbag":11560,"Ġuund":11561,"Ġdiff":11562,"Ġgram":11563,"Ġudbetalt":11564,"slov":11565,"ĠfastsÃ¦tte":11566,"Ġhimlen":11567,"Ġkneppe":11568,"Ġpressemeddel":11569,"Ġreturneres":11570,"Ġteste":11571,"beskrivelse":11572,"Ġblogger":11573,"Ġkravene":11574,"Ġmedierne":11575,"mat":11576,"Ġfleksibel":11577,"ĠfÃ¸res":11578,"forum":11579,"Ġsvamp":11580,"klÃ¦de":11581,"Ġavancerede":11582,"ĠPension":11583,"Ġstiftet":11584,"venlig":11585,"Ville":11586,"ĠBarcelona":11587,"Ġkjoler":11588,"ktorer":11589,"Ġnumre":11590,"allere":11591,"Ġfaktum":11592,"isted":11593,"ĠtrÃ¦ffer":11594,"Ġmotivation":11595,"Ġseksuel":11596,"iment":11597,"Ġdav":11598,"Ġtabte":11599,"Ġopbygge":11600,"affald":11601,"Ġfaget":11602,"ĠHuset":11603,"ĠDF":11604,"Ġsoldater":11605,"ĠSkanderborg":11606,"ĠÃ¥rrÃ¦kke":11607,"ĠFug":11608,"grad":11609,"Ġligestilling":11610,"ĠTour":11611,"Ġtankerne":11612,"Ġvisning":11613,"ĠSÃ¸nderjylland":11614,"ĠMÃ¥let":11615,"Ġegner":11616,"Ġkompetent":11617,"Ġkvinderne":11618,"ĠFOA":11619,"ĠLegal":11620,"Ġoverraskelse":11621,"Ġvinduet":11622,"Ġenden":11623,"Ġteknikker":11624,"Ġgenstande":11625,"Ġwebshoppen":11626,"agens":11627,"hedsbrev":11628,"Ġtilsendt":11629,"cering":11630,"standard":11631,"ĠRum":11632,"ĠSÃ¸n":11633,"zone":11634,"kstil":11635,"idenskab":11636,"row":11637,"ĠAfrika":11638,"Ġnyhedsbreve":11639,"ĠStort":11640,"Ã¸vler":11641,"Ġnordlige":11642,"iejne":11643,"Ġbevidsthed":11644,"Ġsamleje":11645,"Ġgarder":11646,"Ġenheden":11647,"seng":11648,"ĠWil":11649,"styrrelser":11650,"Ġinput":11651,"Ġattraktive":11652,"Ġbegrebet":11653,"Ġbeboerne":11654,"anere":11655,"ĠBygge":11656,"formÃ¥l":11657,"Ġkundens":11658,"indsatsen":11659,"betjening":11660,"ĠPleje":11661,"Ġmale":11662,"Ġure":11663,"Ġbetingelserne":11664,"Ġformanden":11665,"IP":11666,"Ġlyden":11667,"Ġkonkurr":11668,"ĠMulighed":11669,"Ġml":11670,"ĠGymnasium":11671,"uide":11672,"ĠDj":11673,"Ġkonflikter":11674,"ĠShop":11675,"sson":11676,"Ġtredj":11677,"ĠSystem":11678,"ĠhvorpÃ¥":11679,"Ġstrid":11680,"ĠStorbritann":11681,"spiration":11682,"Ġfaktor":11683,"ĠskÃ¦v":11684,"igation":11685,"ĠforudgÃ¥ende":11686,"Ġopdage":11687,"./":11688,"Ġforberedt":11689,"ĠordinÃ¦re":11690,"ĠhÃ¸ring":11691,"opgave":11692,"Ġudstillingen":11693,"Ġgraf":11694,"ifte":11695,"eskolen":11696,"Ġafsnittet":11697,"funktioner":11698,"Ġrapporter":11699,"ĠPolitiken":11700,"ĠpÃ¦ne":11701,"orp":11702,"inationer":11703,"ĠLeague":11704,"ĠpÃ¸l":11705,"serede":11706,"ĠSogn":11707,"ĠdrÃ¸ft":11708,"ĠDisclaimer":11709,"Ġhoppe":11710,"Ã¥rn":11711,"Ġdep":11712,"Ġambul":11713,"farvet":11714,"ĠbÃ¸rnet":11715,"Ġopdelt":11716,"Ġ1997":11717,"rydning":11718,"godt":11719,"ĠSelskabets":11720,"ieret":11721,"ĠIdentifikation":11722,"Ġtelt":11723,"Ġudgiver":11724,"ĠTransport":11725,"ording":11726,"Ġkvadrat":11727,"ĠWorld":11728,"ĠsexlegetÃ¸j":11729,"gaven":11730,"Ġdownloade":11731,"Ġlytter":11732,"Ġvidenskabelige":11733,"ĠUdenrig":11734,"jeret":11735,"Ġinnovative":11736,"Ġdommer":11737,"ĠmÃ¥lsÃ¦tning":11738,"Ġdriften":11739,"Ġsamvit":11740,"ĠMikkel":11741,"familie":11742,"Ġopretholde":11743,"lespil":11744,"ĠindrÃ¸mme":11745,"Ġbeholde":11746,"Ġinvesterings":11747,"riften":11748,"Ġdybere":11749,"Ġcand":11750,"ĠVandvÃ¦rk":11751,"nette":11752,"Ġkonference":11753,"Ġetableres":11754,"ĠSofie":11755,"ĠRÃ¸r":11756,"ĠTing":11757,"Ġprincippet":11758,"Ġpigen":11759,"neste":11760,"ĠEjendom":11761,"Ġvarmepum":11762,"Ġkvit":11763,"Ġ2020":11764,"Ġveget":11765,"Ġovernatning":11766,"Ġudskiftning":11767,"ĠBR":11768,"ĠBa":11769,"ĠForbruger":11770,"Ġforsam":11771,"ĠSprog":11772,"musik":11773,"Ġejeren":11774,"Ġgenkende":11775,"sforlÃ¸b":11776,"Ġkomplekse":11777,"IGE":11778,"Ġdomst":11779,"ĠLÃ¦ge":11780,"amilla":11781,"design":11782,"point":11783,"forstÃ¥else":11784,"Ġmadlav":11785,"xel":11786,"lutning":11787,"alem":11788,"ĠSelskabet":11789,"Ġfleksible":11790,"Ġtjek":11791,"ĠVirksomhed":11792,"inens":11793,"SO":11794,"Derudover":11795,"Ġdebut":11796,"frie":11797,"overe":11798,"Ġtrykker":11799,"ĠBon":11800,"undersÃ¸gelser":11801,"Ġdanse":11802,"fakt":11803,"Ġteknologier":11804,"raa":11805,"Uanset":11806,"Ġbetjening":11807,"ĠprÃ¦ferencer":11808,"ademi":11809,"fÃ¸dte":11810,"eje":11811,"Ġ79":11812,"bÃ¥de":11813,"Ġxxx":11814,"Ġdannet":11815,"ĠseriÃ¸st":11816,"Ġskriftlige":11817,"cis":11818,"ĠFa":11819,"ĠLene":11820,"Ġledig":11821,"Ġspir":11822,"glas":11823,"ĠtÃ¸rt":11824,"Ġbure":11825,"Po":11826,"ĠVÃ¦rdi":11827,"Ġfiskeri":11828,"ĠRingsted":11829,"Ġarme":11830,"ĠTran":11831,"model":11832,"ĠInstitu":11833,"Ġopbevares":11834,"fravÃ¦r":11835,"ĠHo":11836,"flade":11837,"Ġalarm":11838,"Ġulem":11839,"ĠtrÃ¦et":11840,"venlige":11841,"spladsen":11842,"Ġeleven":11843,"ĠuafhÃ¦ngige":11844,"regnskabet":11845,"Ġfond":11846,"Ġhvorved":11847,"Ġforvand":11848,"ĠAN":11849,"Ġgran":11850,"AST":11851,"brudt":11852,"gÃ¥et":11853,"stud":11854,"Ġaluminium":11855,"Produ":11856,"ingent":11857,"Ġpersondat":11858,"Ġbakke":11859,"Ġjournalist":11860,"Ġlejligheds":11861,"ĠfÃ¸dslen":11862,"ĠrÃ¥b":11863,"67":11864,"ĠSkat":11865,"Ã¸ve":11866,"ĠtiltrÃ¦kke":11867,"ybe":11868,"ĠbÃ¸sse":11869,"skabende":11870,"rethe":11871,"gets":11872,"Ġbogstaver":11873,"Ġbeskadig":11874,"Ġturister":11875,"strÃ¦kning":11876,"Ġmonteres":11877,"ĠCa":11878,"ĠvÃ¥":11879,"produkt":11880,"Ġflade":11881,"Ġ63":11882,"Ġserveret":11883,"gener":11884,"bestil":11885,"ssund":11886,"ĠOpgave":11887,"Ġaldersgrupper":11888,"foto":11889,"Ġkusse":11890,"On":11891,"store":11892,"Ġdrikkevarer":11893,"Ġvidunderlige":11894,"ĠUr":11895,"ĠUddannelse":11896,"beth":11897,"Ġhverdags":11898,"Ġsofaen":11899,"rerende":11900,"Ġresterende":11901,"Ġevaluer":11902,"Ġadministrative":11903,"FÃ¦lles":11904,"Ġdistribu":11905,"Ġfaktiske":11906,"Ġhemmelig":11907,"ĠMath":11908,"ĠafslÃ¸rer":11909,"Ġvacc":11910,"Ġregning":11911,"ockt":11912,"ĠEjer":11913,"Ġhustru":11914,"Ġkred":11915,"unktur":11916,"Ġregistrere":11917,"Ġfyldte":11918,"Ġdeci":11919,"ĠudmÃ¦rket":11920,"ĠafgÃ¸relser":11921,"analy":11922,"ĠpÃ¥p":11923,"ĠBek":11924,"Ġvoksende":11925,"hÃ¸r":11926,"Ġpermanent":11927,"ĠRef":11928,"ĠEF":11929,"Ġarbejdstid":11930,"sed":11931,"Ġvejer":11932,"Ġbanker":11933,"dsels":11934,"edagpenge":11935,"ĠvedtÃ¦gter":11936,"verne":11937,"Ġracer":11938,"Ġomhand":11939,"Ġtelefonnummer":11940,"ĠTim":11941,"Ġlik":11942,"Ġdisplay":11943,"ĠPolen":11944,"magt":11945,"Danmarks":11946,"byggeri":11947,"spir":11948,"ĠAnalyse":11949,"ĠPatient":11950,"anker":11951,"motor":11952,"olket":11953,"Ġkategorien":11954,"AF":11955,"sektoren":11956,"ĠTrans":11957,"ures":11958,"Ġafkast":11959,"assistent":11960,"Ġdelte":11961,"frug":11962,"Ġmega":11963,"ĠCreative":11964,"Ġrimeligt":11965,"ĠgennemfÃ¸relse":11966,"seks":11967,"ĠFebruar":11968,"Ġinformere":11969,"ĠAff":11970,"Ġsygeplejerske":11971,"Ġkeram":11972,"Ġtusinde":11973,"Ġsch":11974,"sforvaltningen":11975,"skontrol":11976,"kring":11977,"ĠÃ¸delÃ¦gge":11978,"Sorter":11979,"XX":11980,"LEDNING":11981,"Ġopvarmning":11982,"trÃ¦kning":11983,"Ġjobannoncer":11984,"ĠansÃ¸gninger":11985,"ĠPRO":11986,"ĠVik":11987,"Ġdemokrati":11988,"lejning":11989,"ĠByrÃ¥det":11990,"ĠÃ¸konomien":11991,"ĠlÃ¦seren":11992,"brev":11993,"Ġsingler":11994,"ĠForsk":11995,"ĠÃħrets":11996,"Ġtynde":11997,"ĠHÃ¥ber":11998,"Ġdiabetes":11999,"Ġslik":12000,"ĠRÃ¸nne":12001,"Sikker":12002,"Ġsandsynlighed":12003,"sreg":12004,"Ġasyl":12005,"retnings":12006,"salget":12007,"ussen":12008,"ĠGroup":12009,"Ġvejleder":12010,"pakker":12011,"ĠEC":12012,"Ġtakne":12013,"ĠKristus":12014,"foder":12015,"rÃ¥dets":12016,"ĠSkift":12017,"ĠLigeledes":12018,"Super":12019,"Ġnorske":12020,"ĠPrem":12021,"UND":12022,"Ġsnit":12023,"fa":12024,"Ġplacere":12025,"riksen":12026,"Ġbra":12027,"Ġoverholde":12028,"He":12029,"ĠIndustri":12030,"Ġoriginal":12031,"irekte":12032,"indsigt":12033,"kontrakt":12034,"uch":12035,"ĠTyrk":12036,"ĠTidligere":12037,"gas":12038,"ustit":12039,"Ġholdbarhed":12040,"eliste":12041,"Ġramte":12042,"Ġlivets":12043,"ĠAndroid":12044,"ĠFakt":12045,"ĠÃĺr":12046,"Ġudtrykke":12047,"ĠElekt":12048,"ĠkÃ¸le":12049,"Ġeksamens":12050,"ortere":12051,"dis":12052,"Ġforrige":12053,"ESK":12054,"42":12055,"Ġeftermiddagen":12056,"kkont":12057,"Ġbekymring":12058,"ĠkÃ¸det":12059,"sproblemer":12060,"elementer":12061,"ĠIF":12062,"ĠgennemfÃ¸rer":12063,"ĠKommunen":12064,"ĠjubilÃ¦um":12065,"abe":12066,"ĠPower":12067,"ĠDVD":12068,"brÃ¦nd":12069,"lange":12070,"chester":12071,"vÃ¦rdig":12072,"Ġlevet":12073,"Ġtraditionel":12074,"gerende":12075,"HP":12076,"Ġprofiler":12077,"overing":12078,"ĠHaderslev":12079,"ationerne":12080,"Ġreturnere":12081,"Ġbio":12082,"egl":12083,"ĠeuropÃ¦isk":12084,"Ġkejser":12085,"Ġmodsat":12086,"ĠVejen":12087,"Ġstorby":12088,"ĠTwitter":12089,"sforening":12090,"Ġenorme":12091,"frokost":12092,"Ġperler":12093,"ĠMind":12094,"Ġprosti":12095,"tro":12096,"ĠrÃ¸re":12097,"ĠbÃ¦redygtighed":12098,"AU":12099,"ĠSven":12100,"ĠkÃ¦ledyr":12101,"77":12102,"Ste":12103,"pligtige":12104,"aldt":12105,"mentere":12106,"ĠRingkÃ¸bing":12107,"Ġpornost":12108,"ĠÃ¥bning":12109,"ĠBerlingske":12110,"Ġprostitu":12111,"Ġopdagelse":12112,"ĠCup":12113,"ĠsÃ¸er":12114,"ĠforeslÃ¥r":12115,"Ġkommunikere":12116,"ĠsÃ¸nder":12117,"lets":12118,"uddannede":12119,"ĠhÃ¥bet":12120,"ĠKro":12121,"IND":12122,"Ġforel":12123,"Ġeksped":12124,"Ġbakterier":12125,"talere":12126,"Ġafgifter":12127,"Ġpolitikerne":12128,"stilsynet":12129,"Ġjourn":12130,"ĠHvidovre":12131,"ĠStep":12132,"Ġvelsmag":12133,"ĠlÃ¦gemiddel":12134,",...":12135,"ĠlÃ¸ft":12136,"ssystem":12137,"ĠFem":12138,"Ġbetjen":12139,"Ġreflekter":12140,"Ġglem":12141,"styring":12142,"Ġkvalificeret":12143,"ĠÃ¸er":12144,"Ġtaller":12145,"Ġkanal":12146,"owe":12147,"resund":12148,"Ġfuldk":12149,"ologien":12150,"ĠHerudover":12151,"ĠCarsten":12152,"Ġbrygger":12153,"Ġeje":12154,"Ġ180":12155,"Ġdreje":12156,"ĠdavÃ¦rende":12157,"Ġfyens":12158,"Ġakvar":12159,"zonetil":12160,"ĠfÃ¦llesskabet":12161,"ĠGÃ¦ldende":12162,"Mich":12163,"ĠSKAT":12164,"Ġomhyggeligt":12165,"Ã¸velse":12166,"Ġskilsm":12167,"Ġsnu":12168,"Ġhvile":12169,"iale":12170,"Ġindkald":12171,"byr":12172,"ĠSFO":12173,"Ġkontoret":12174,"rikke":12175,"ĠNogen":12176,"osten":12177,"Ġlovligt":12178,"gle":12179,"ordnet":12180,"Ġbeskeder":12181,"Ġold":12182,"ĠseriÃ¸s":12183,"ĠBM":12184,"ĠovenpÃ¥":12185,"ĠFire":12186,"ĠvelfÃ¦rds":12187,"ĠPres":12188,"KÃ¦re":12189,"ĠAltern":12190,"Ġopstart":12191,"Ġudlejer":12192,"Ġdedik":12193,"Ġplet":12194,"ĠmÃ¥nedligt":12195,"Ġalting":12196,"ĀĀĀĀĀĀĀĀĀĀĀĀĀĀĀĀ":12197,"].":12198,"Gennem":12199,"Ġpille":12200,"arv":12201,"Ġdirektiv":12202,"Ġkoncerter":12203,"forbindelse":12204,"organisationer":12205,"ĠHF":12206,"redskaber":12207,"espil":12208,"Ġ1970":12209,"Ġjuridisk":12210,"tto":12211,"Ġreduceret":12212,"ĠBjÃ¸rn":12213,"Ġsiderne":12214,"Ġskum":12215,"Ġmorg":12216,"sere":12217,"Ġplej":12218,"ĠValby":12219,"Ġsamlinger":12220,"Ġceller":12221,"Ġfreder":12222,"Ġpensions":12223,"ĠprÃ¦cise":12224,"Ġ700":12225,"GER":12226,"Ġ110":12227,"Ġworkshops":12228,"ĠSundhedsstyrelsen":12229,"Ġanelse":12230,"ommere":12231,"stilladelse":12232,"EV":12233,"Ġsynlige":12234,"ĠProjektet":12235,"materiale":12236,"cca":12237,"ĠstrÃ¦kker":12238,"Ġtermin":12239,"Ġbegr":12240,"ĠlÃ¦n":12241,"ĠSmart":12242,"Ġforfattere":12243,"Ġmistede":12244,"Ġformue":12245,"ips":12246,"baner":12247,"Ġfrost":12248,"UC":12249,"Ġunderholdende":12250,"ĠTidende":12251,"pol":12252,"ĠrÃ¦kkefÃ¸lge":12253,"Ġfakta":12254,"Danske":12255,"platform":12256,"ĠSing":12257,"Ġradik":12258,"Ġtricks":12259,"Ġogsaa":12260,"Ġsvage":12261,"Ġklat":12262,"oplevelsen":12263,"Ġkliniske":12264,"Ġsyr":12265,"Ġforuden":12266,"ĠLim":12267,"Ġredde":12268,"Ġaug":12269,"rategi":12270,"Ġkommunalbestyrelsen":12271,"Ġlabor":12272,"ariatet":12273,"Ġfortryde":12274,"Ġult":12275,"ahl":12276,"Ġscan":12277,"Ġfjernvarme":12278,"ĠRi":12279,"ensigt":12280,"ĠSwinger":12281,"Ġmedicinsk":12282,"Ã¸den":12283,"Ġauten":12284,"ĠnÃ¦rings":12285,"Ġredigere":12286,"Ġyndlings":12287,"Ġtabel":12288,"ĠidrÃ¦ts":12289,"Ġstemp":12290,"ĠbÃ¸j":12291,"ĠBaby":12292,"ETS":12293,"tigede":12294,"Ġudsend":12295,"ĠRy":12296,"ĠHvilket":12297,"Ġnom":12298,"rich":12299,"ĠMÃ¸lle":12300,"Ġsmartphones":12301,"ventet":12302,"Ġrygs":12303,"Ġrense":12304,"ingets":12305,"sekret":12306,"ĠudfÃ¸relse":12307,"chat":12308,"ĠBig":12309,"ĠbestÃ¥":12310,"Ġskudt":12311,"Ġforlod":12312,"ĠNetto":12313,"ĠstÃ¸vler":12314,"SKAB":12315,"Ġfleksibilitet":12316,"Ġmanglede":12317,"lÃ¦gen":12318,"ĠsÃ¥dant":12319,"ĠOrganis":12320,"Ġbenyttet":12321,"sigter":12322,"Ġscener":12323,"Ġkommuneplan":12324,"Ġpoly":12325,"lÃ¦ger":12326,"fÃ¦lge":12327,"BekendtgÃ¸relse":12328,"Ġattraktiv":12329,"Ã¦ngden":12330,"Ġjun":12331,".).":12332,"Ġnotat":12333,"ĠnetvÃ¦rket":12334,"celle":12335,"axo":12336,"Ġhemmelighed":12337,"Ġfiber":12338,"ĠTand":12339,"Ġscore":12340,"Ġskygge":12341,"Ġklippe":12342,"atienter":12343,"ĠÂ«":12344,"Ġudgift":12345,"kterne":12346,"Ġaldeles":12347,"Ġsalget":12348,"Ġsmagen":12349,"ulÃ¦r":12350,"Ġgravide":12351,"ĠAndet":12352,"lades":12353,"hun":12354,"ĠPrÃ¦sentation":12355,"oe":12356,"Ġbyggeriet":12357,"Ġbestod":12358,"omer":12359,"ĠFjord":12360,"Ġfremh":12361,"mmeb":12362,"sta":12363,"Ġpanel":12364,"Tra":12365,"work":12366,"ĠMinisterium":12367,"ĠnÃ¦vner":12368,"skes":12369,"ĠopgÃ¸relse":12370,"vÃ¦rktÃ¸jer":12371,"Ġtrend":12372,"estue":12373,"ftere":12374,"Ġspringe":12375,"inkel":12376,"Ġsogne":12377,"ĠCommons":12378,"Ġkigget":12379,"ĠÃ¦gtefÃ¦lle":12380,"Ġrealitet":12381,"verdens":12382,"ĠKol":12383,"Ġparat":12384,"Ġbeslutte":12385,"Ġblodet":12386,"Ġanalysere":12387,"vÃ¦rdien":12388,"ĠlÃ¦ngden":12389,"Ġvanvit":12390,"Ġbrugeroplevelse":12391,"Ġindbyggere":12392,"Kommun":12393,"Ġsponsor":12394,"lant":12395,"ĠUSB":12396,"Ġpod":12397,"Ġsul":12398,"rivning":12399,"Ġsommerhuset":12400,"ĠfÃ¦rdigt":12401,"Ġherfor":12402,"Ġovergreb":12403,"Ġseparat":12404,"ĠkÃ¸rekort":12405,"Ġopvaske":12406,"Ġrykker":12407,"Ġforbliver":12408,"Ġmodellen":12409,"Ġvirtu":12410,"Ġuplo":12411,"Ġyoga":12412,"fÃ¦rdighed":12413,"Ġemp":12414,"ĠMest":12415,"Ġmak":12416,"ĠFrederikshavn":12417,"ĠSvan":12418,"Ġgig":12419,"Ġbob":12420,"Ġdeaktiver":12421,"Ġnyligt":12422,"ĠSagen":12423,"Ġtekstil":12424,"ĠmilitÃ¦r":12425,"Ð»":12426,"Ġhigh":12427,"Ġobserv":12428,"ĠprÃ¦mie":12429,"trÃ¦der":12430,"Ġfarlige":12431,"Ġforbrugere":12432,"ĠFerie":12433,"Ġetik":12434,"Ġudsendt":12435,"ĠAndreas":12436,"Ġinse":12437,"umm":12438,"Ġrabatter":12439,"Ġstudenter":12440,"IA":12441,"Ġslap":12442,"dede":12443,"Ġcig":12444,"pat":12445,"ĠtrÃ¦nere":12446,"Lig":12447,"Ġkreditkort":12448,"Ġmeddelt":12449,"ĠÃ¦rligt":12450,"Ġfingrene":12451,"Ġudbydere":12452,"Ġforbinder":12453,"ventyr":12454,"ĠKirsten":12455,"Ġvelly":12456,"ĠSkolen":12457,"mailadresse":12458,"Ġurin":12459,"ocial":12460,"ĠNovember":12461,"centeret":12462,"Ġkonfirm":12463,"Ġ76":12464,"Ġtidens":12465,"Ġlogin":12466,"Ġklinik":12467,"Ġhent":12468,"Ġkompetente":12469,"klima":12470,"Ġlejlighedsvise":12471,"ĠHolland":12472,"Ġguider":12473,"ĠJapan":12474,"Ġsites":12475,"Ġudtaler":12476,"ĠspÃ¦r":12477,"aurant":12478,"ĠlÃ¦ber":12479,"ĠSkrevet":12480,"Ġtemperaturen":12481,"ory":12482,"okke":12483,"ĠFolkeparti":12484,"ĠAmerik":12485,"Ġsystematisk":12486,"Ġisolering":12487,"ĠefterÃ¥rs":12488,"ynt":12489,"ĠUdvik":12490,"drede":12491,"Ġhenter":12492,"ĠmÃ¥neds":12493,"ĠRosen":12494,"lejlighed":12495,"givelserne":12496,"ĠmÃ¸rkt":12497,"ĠVersion":12498,"sme":12499,"ĠAnden":12500,"Ġknog":12501,"ĠMP":12502,"Projekt":12503,"Ġdyrere":12504,"NA":12505,"ĠdÃ¸mt":12506,"kob":12507,"Ġstram":12508,"Ġloftet":12509,"itive":12510,"ruttering":12511,"Ġanerkendt":12512,"udviklingen":12513,"vÃ¦re":12514,"ĠSj":12515,"Ġtykke":12516,"telser":12517,"ĠPige":12518,"ĠhvidlÃ¸g":12519,"lemming":12520,"appede":12521,"Ġforbr":12522,"Ġrenter":12523,"Ġdelvis":12524,"minton":12525,"Ġkaff":12526,"ĠFÃ¸devar":12527,"ĠuafhÃ¦ngig":12528,"Ġopfordre":12529,"ĠPia":12530,"ĠHjÃ¸rring":12531,"Ġkroppens":12532,"Ġafvise":12533,"Ġreparation":12534,"akkede":12535,"ĠbÃ¥l":12536,"Ġspillerne":12537,"Ġsletter":12538,"Ġtilbagebet":12539,"ĠÃ¥rtier":12540,"ĠefterspÃ¸rgsel":12541,"splaner":12542,"iverset":12543,"forslaget":12544,"89":12545,"SR":12546,"iblandt":12547,"gam":12548,"undersÃ¸gelsen":12549,"uddannelses":12550,"Ġkombinere":12551,"bygningen":12552,"ĠovervÃ¥":12553,"sem":12554,"ĠMaster":12555,"Ġtvunget":12556,"Ġsagsbehandling":12557,"lesk":12558,"Ã¸konomi":12559,"ĠfuldstÃ¦ndigt":12560,"Ġbeting":12561,"Ġtilber":12562,"Ġmom":12563,"prÃ¦st":12564,"ĠVarde":12565,"dater":12566,"ĠkÃ¸leskabet":12567,"Ġdetaljeret":12568,"Ġfolkeskol":12569,"rientering":12570,"Ġgader":12571,"Ġrock":12572,"Ġafholde":12573,"egÃ¥rden":12574,"Ġklit":12575,"Ġchok":12576,"Ġlykkelig":12577,"ĠStorbritannien":12578,"ĠkÃ¸retÃ¸j":12579,"Ġrug":12580,"ĠklÃ¦dt":12581,"Ã¼r":12582,"ĠmÃ¦rkeligt":12583,"drift":12584,"Ġtrist":12585,"wa":12586,"ĠByen":12587,"Ġkompens":12588,"ary":12589,"srapport":12590,"ĠklÃ¸":12591,"ĠPL":12592,"funktionen":12593,"Ġspek":12594,"ĠAnvendelse":12595,"Ġkollegaer":12596,"UST":12597,"Ġchancer":12598,"Ġaftensmad":12599,"spladser":12600,"ainer":12601,"Ġyngste":12602,"key":12603,"ĠâĢŀ":12604,"Ġhavn":12605,"programmet":12606,"Ġfolder":12607,"sli":12608,"Ã¸tte":12609,"arn":12610,"Ġposter":12611,"ĠprÃ¦station":12612,"ool":12613,"avede":12614,"Ġdeles":12615,"andet":12616,"ĠInteg":12617,"ĠsÃ¸skende":12618,"ĠdrÃ¦bt":12619,"mÃ¸bler":12620,"Ġmarkeder":12621,"ĠCharlotte":12622,"ameller":12623,"ĠmÃ¸bel":12624,"ĠsÃ¦de":12625,"ktoratet":12626,"ĠKunne":12627,"ĠIde":12628,"rakt":12629,"Ġkritiske":12630,"Natur":12631,"ĠSelvfÃ¸lgelig":12632,"ĠsjÃ¦ldne":12633,"urner":12634,"Ġcover":12635,"rot":12636,"ĠTvÃ¦r":12637,"numre":12638,"Ġstoppede":12639,"ĠtÃ¦ndt":12640,"Ġunderstreger":12641,"elev":12642,"ĠPersonalet":12643,"Cookies":12644,"ĠlÃ¸fter":12645,"Ġreguler":12646,"ĠIndien":12647,"BL":12648,"87":12649,"ĠGiv":12650,"Ġinfrastruktur":12651,"Ġudkom":12652,"stiden":12653,"syge":12654,"lÃ¥s":12655,"ross":12656,"Ġbekymringer":12657,"Ġbygher":12658,"ĠÃ¥rel":12659,"Ġalternative":12660,"Ġindlagt":12661,"Ġrevolution":12662,"Ġskjult":12663,"ĠskÃ¥ret":12664,"ĠrÃ¸dt":12665,"Ġkonkurrenc":12666,"PrÃ¦":12667,"Ġefterlader":12668,"Ġrask":12669,"Ġforsigtig":12670,"Ġcam":12671,"Ġgru":12672,"abenraa":12673,"57":12674,"asing":12675,"Ġ97":12676,"ĠfÃ¸lelsen":12677,"Ġklinisk":12678,"Ġselvmord":12679,"Ġmi":12680,"ĠhÃ¸js":12681,"vurder":12682,"ĠkÃ¦de":12683,"ĠSikkerheds":12684,"Ġdukke":12685,"Ġcyklen":12686,"ĠMagn":12687,"Ġudleveret":12688,"ocktail":12689,"kkel":12690,"fla":12691,"ĠAnsÃ¸g":12692,"partner":12693,"Ġvelkendte":12694,"ĠNÃ¥":12695,"ĠTel":12696,"Ġoverfl":12697,"Ġimpon":12698,"maskinen":12699,"sund":12700,"ibre":12701,"Ġihjel":12702,"stol":12703,"lers":12704,"ĠOne":12705,"udgivelser":12706,"SortÃ©r":12707,"fungerende":12708,"ĠforudsÃ¦tter":12709,"Ġkedeligt":12710,"ĠBade":12711,"Ġ83":12712,"Ġevnen":12713,"ĠForebyg":12714,"ĠhÃ¸jest":12715,"frist":12716,"fx":12717,"holdte":12718,"ÃŃ":12719,"cing":12720,"Ġvaluta":12721,"ONT":12722,"ĠsprÃ¸jte":12723,"Ġveder":12724,"ĠÃ¸ges":12725,"Ġrekord":12726,"ĠVinter":12727,"ianne":12728,"regel":12729,"Ġmors":12730,"Ġanvendelsen":12731,"Ġborde":12732,"finansi":12733,"skabe":12734,"Ġopbakning":12735,"ĠArbejde":12736,"ĠHurtig":12737,"jour":12738,"ĠOffice":12739,"ministeren":12740,"Ġpisk":12741,"ĠtÃ¦tte":12742,"ĠDr":12743,"ĠHerunder":12744,"Ġgenan":12745,"Ġstraff":12746,"ĠgrÃ¦sk":12747,"ĠmedfÃ¸lger":12748,"sung":12749,"Ġglide":12750,"comp":12751,"Ġubet":12752,"Ġrehabili":12753,"ĠTitel":12754,"jo":12755,"ĠHorn":12756,"ĠÃ¥bningstider":12757,"Ġdynamisk":12758,"2008":12759,"Ġmobilen":12760,"Ġmaksimale":12761,"Ġride":12762,"shistor":12763,"zonetilladelse":12764,"Ġhinandens":12765,"ĠBilled":12766,"Ġmarkeret":12767,"menterne":12768,"ĠSpar":12769,"ĠoffentliggÃ¸res":12770,"Ġkalk":12771,"klassen":12772,"kkene":12773,"Ġkaj":12774,"Ġspildevand":12775,"eng":12776,"ĠBirg":12777,"anlÃ¦gget":12778,"Ġafslag":12779,"ĠLuk":12780,"Ġincl":12781,"ĠoversÃ¦ttelse":12782,"isbrug":12783,"ĠKbh":12784,"Ġvirkeligt":12785,"LG":12786,"ĠrÃ¥der":12787,"blÃ¥":12788,"Ġmatche":12789,"Ġdisku":12790,"vejleder":12791,"ï¸":12792,"Ġrobust":12793,"ĠUdvalg":12794,"Ġve":12795,"ĠdÃ¸rene":12796,"ĠstÃ¦vne":12797,"ĠudgÃ¸re":12798,"ikon":12799,"oke":12800,"KÃ¸benhavn":12801,"smÃ¥de":12802,"ĠÃ¦bler":12803,"Ġsperm":12804,"draget":12805,"Ġforordning":12806,"acks":12807,"ĠDEN":12808,"Ġgyldig":12809,"Ġvirus":12810,"Ġlykken":12811,"97":12812,"Ġembed":12813,"ĠPil":12814,"ĠlÃ¦sel":12815,"Ġmeld":12816,"Ġmont":12817,"diken":12818,"Ġfrugter":12819,"mennes":12820,"Ġambiti":12821,"Ġlighed":12822,"sbu":12823,"telefoner":12824,"nel":12825,"raget":12826,"Ġliderlig":12827,"ventil":12828,"ĠGre":12829,"stiger":12830,"Ġbureau":12831,"videnskabelige":12832,"veri":12833,"ĠIndsat":12834,"43":12835,"ml":12836,"ĠsÃ¸nd":12837,"px":12838,"Ġnyttige":12839,"Ġegentlige":12840,"ĠforespÃ¸rgsel":12841,"Ġukendt":12842,"Ġspecifikationer":12843,"ĠtandlÃ¦ge":12844,"baserede":12845,"Ġafsendt":12846,"ĠTirsdag":12847,"Ã¸rerne":12848,"ykning":12849,"lel":12850,"klagen":12851,"inding":12852,"ĠÃ¥rsregnskab":12853,"Ġcoach":12854,"Ġunderligt":12855,"ningsskema":12856,"Ġligget":12857,"ĠAustralien":12858,"Ġfusion":12859,"Ġafslapning":12860,"ĠIndtil":12861,"xt":12862,"Ġtaber":12863,"kanten":12864,"Ġmagnet":12865,"Ġformat":12866,"Ġbekymret":12867,"eskyttelse":12868,"Ġmild":12869,"ĠmÃ¸dre":12870,"idens":12871,"isere":12872,"ĠhjÃ¸rnet":12873,"Ġuf":12874,"Ġbase":12875,"Hus":12876,"2009":12877,"Ġyt":12878,"ĠlÃ¥net":12879,"Ġsvampe":12880,"emb":12881,"Ġstave":12882,"Ġudsagn":12883,"faglig":12884,"Ġbitter":12885,"ĠTit":12886,"ĠHund":12887,"Ġmul":12888,"Ġlidelse":12889,"Ġindbrud":12890,"ĠtrÃ¦l":12891,"ĠImp":12892,"Ġcheck":12893,"Ġtrafikken":12894,"Ġforholder":12895,"orteret":12896,"Ġskit":12897,"Mad":12898,"dÃ¦kning":12899,"Ġmedvirke":12900,"ĠfÃ¸rtidspension":12901,"ĠÃ¥revis":12902,"ĠNordisk":12903,"ĠColle":12904,"Ġfilt":12905,"ppede":12906,"Ġgyld":12907,"otiske":12908,"Ġgry":12909,"Ġsandheden":12910,"ĠResultatet":12911,"sur":12912,"ĠMulti":12913,"Ġerind":12914,"Ġfradrag":12915,"ĠAnal":12916,"ĠprÃ¦senterede":12917,"Ġkonkl":12918,"HÃ¸j":12919,"ĠmÃ¥ling":12920,"drivende":12921,"Ã¸ster":12922,"Ã¦ndring":12923,"ĠStandard":12924,"Ġsolidt":12925,"ĠFR":12926,"cover":12927,"Ġhospitalet":12928,"ĠUge":12929,"Ġkampagner":12930,"projektet":12931,"olumen":12932,"blade":12933,"Ġarkiv":12934,"agnen":12935,"ĠNicol":12936,"shirt":12937,"ĠvÃ¦rdifulde":12938,"Ġudfordre":12939,"Ġgennems":12940,"jagt":12941,"ĠMarg":12942,"esÃ¦t":12943,"Ġkoord":12944,"FÃ¸rst":12945,"Ġbestemmelse":12946,"Ġnuancer":12947,"Stone":12948,"ĠBook":12949,"Ġblande":12950,"ĠForlag":12951,"ĠblÃ¦ser":12952,"Ġtrygge":12953,"ĠdÃ¸mme":12954,"belÃ¸b":12955,"vedele":12956,"rifter":12957,"ĠEb":12958,"forbruget":12959,"Ġslip":12960,"Ġif":12961,"ĠBjar":12962,"Ġfigurer":12963,"Ġiagt":12964,"ĠtilgÃ¦ngelighed":12965,"Ġsved":12966,"ĠbekrÃ¦ftelse":12967,"SÃ¸gningen":12968,"Ġtilsat":12969,"ĠDE":12970,"Ġnyheds":12971,"Ġnydelse":12972,"ï¸ı":12973,"Ġvol":12974,"ĠHerre":12975,"regne":12976,"Ġportal":12977,"ĠALT":12978,"Ġrestauranten":12979,"ĠforstÃ¦rker":12980,"Ã¥se":12981,"skaffe":12982,"Ġopdaterer":12983,"ATIS":12984,"ĠNyheder":12985,"Ġstrej":12986,"Frem":12987,"litteratur":12988,"Ġindsk":12989,"ĠvedhÃ¦":12990,"kret":12991,"ĠfastsÃ¦tter":12992,"Ġ1996":12993,"asken":12994,"VAR":12995,"ĠSkulle":12996,"uddannelserne":12997,"ĠEnhver":12998,"ĠTDC":12999,"Ġvend":13000,"Ġunderlagt":13001,"Ġindehaver":13002,"ĠHum":13003,"ĠBetÃ¦nkning":13004,"Ġvidens":13005,"ĠDET":13006,"Ġlug":13007,"mentet":13008,"ĠÃ¸delagt":13009,"ime":13010,"Ġgaranteret":13011,"omfru":13012,"Ġelektriske":13013,"mode":13014,"ourin":13015,"inal":13016,"Ġferi":13017,"ikre":13018,"ĠRegnskab":13019,"Ġkemik":13020,"Ġpassager":13021,"serer":13022,"ĠOplev":13023,"fristen":13024,"inering":13025,"Ġudstillinger":13026,"Ġod":13027,"Ġsandsynligt":13028,"studerende":13029,"Ġrettes":13030,"Ġgenerationer":13031,"Ġforhandlere":13032,"kÃ¸kken":13033,"ryl":13034,"Ġmindske":13035,"HD":13036,"aktive":13037,"ĠGeorg":13038,"Ġbesparelser":13039,"OF":13040,"Ġlidelser":13041,"stykke":13042,"ĠvÃ¦rende":13043,"Ġvelfungerende":13044,"Ġkolon":13045,"ĠJobagent":13046,"Ġvuggest":13047,"bekrÃ¦ftelse":13048,"Fi":13049,"Ġkbh":13050,"Ġskjorter":13051,"bry":13052,"Ġfordeling":13053,"ĠspÃ¸rg":13054,"ĠCit":13055,"ĠafgÃ¸re":13056,"ĠVan":13057,"Ġkongen":13058,"ĠhÃ¦fter":13059,"Ġast":13060,"ĠKa":13061,"Ġcas":13062,"Ġmaksimalt":13063,"Ġreagerer":13064,"ĠbestrÃ¦ber":13065,"SF":13066,"?...":13067,"Ġvelsmagende":13068,"Ġirriterende":13069,"Ġlamper":13070,"Ġforestilling":13071,"Ã¦nket":13072,"betÃ¦ndelse":13073,"redning":13074,"jysk":13075,"Ġkemiske":13076,"Ġvelkomst":13077,"ĠnÃ¦rvÃ¦r":13078,"farver":13079,"Ġspanske":13080,"vald":13081,"estyrelsesmÃ¸de":13082,"Ġsammenlignes":13083,"prÃ¦m":13084,"sigtede":13085,"Ġmistanke":13086,"Ġserviceoplysninger":13087,"ĠMarts":13088,"ĠLÃ¸rdag":13089,"ĠÃħben":13090,"firmaet":13091,"Ġmeldt":13092,"Ġsandhed":13093,"Ġstund":13094,"Ġopdateringer":13095,"lÃ¦gningen":13096,"brog":13097,"Ġfaglighed":13098,"PP":13099,"Ġuro":13100,"ĠSÃ¸ndag":13101,"ĠGreen":13102,"falder":13103,"Ġ1980":13104,"inans":13105,"ĠKommunalbestyrelsen":13106,"gÃ¥rds":13107,"eskyttelses":13108,"ĠansÃ¸gningen":13109,"Ġkosttilskud":13110,"Ġapps":13111,"Ġlufthavnen":13112,"ĠHome":13113,"reres":13114,"BEJ":13115,"stein":13116,"kvali":13117,"Ġelektrisk":13118,"Ġeder":13119,"Ġhang":13120,"ĠDaniel":13121,"esser":13122,"Ġbredere":13123,"Ġkryp":13124,"Ġglobal":13125,"Ġudtalelse":13126,"ĠForskel":13127,"Ġaktuelt":13128,"ĠOd":13129,"Ġspejl":13130,"Ġglim":13131,"ĠTorben":13132,"ĠsÃ¦rskilt":13133,"Ġafsluttes":13134,"Ġreservere":13135,"Ġgummi":13136,"Ġimplementering":13137,"Kort":13138,"Ġfestival":13139,"Ġ82":13140,"ĠlÃ¸ser":13141,"Ġspeciall":13142,"ĠChe":13143,"Ġventilation":13144,"ĠVirk":13145,"ĠIntet":13146,"Ġlatter":13147,"ĠFo":13148,"Ġline":13149,"GÃ¥":13150,"Ġindstille":13151,"bekendtgÃ¸relsen":13152,"oller":13153,"Ġtidspunkter":13154,"parts":13155,"datter":13156,"Ã¦ver":13157,"ĠMÃ¸de":13158,"Ġvaretage":13159,"forskning":13160,"ĠtilfÃ¦ldigt":13161,"Ġreduktion":13162,"Ġfemte":13163,"aha":13164,"ĠLys":13165,"Ġstel":13166,"alings":13167,"Ġhegn":13168,"psyk":13169,"Ġskuffet":13170,"ĠKristensen":13171,"ush":13172,"Ġdosis":13173,"Ġarrangeret":13174,"Ġbeskyttelses":13175,"Ġonde":13176,"Ġmedbringe":13177,"ĠmÃ¥ltider":13178,"Ġindstillingerne":13179,"ĠNÃ¸gne":13180,"Ġomfatte":13181,"ĠoverfÃ¸res":13182,"BÃ¸rne":13183,"Ġomgivet":13184,"ĠbeklÃ¦d":13185,"ĠVerdens":13186,"Ġhylde":13187,"ĠvelvÃ¦re":13188,"ala":13189,"Ġmeningen":13190,"lÃ¸sninger":13191,"ĠAG":13192,"ĠIgen":13193,"ladsaxe":13194,"Ġgarantere":13195,"Ġfamiliens":13196,"pilot":13197,"ĠMennesker":13198,"Red":13199,"Ġlaks":13200,"Ġ61":13201,"Ġvred":13202,"Ġmidlertidig":13203,"Ġsagens":13204,"59":13205,"ĠLyd":13206,"Ġsynge":13207,"grÃ¦nse":13208,"Ġkontaktoplysninger":13209,"ĠforÃ¦lder":13210,"Ġombord":13211,"fod":13212,"Ac":13213,"ĠMik":13214,"ĠRob":13215,"ĠmÃ¦rkes":13216,"Ġsult":13217,"Ġtilbuds":13218,"jÃ¦r":13219,"IE":13220,"ĠhÃ¦ndelser":13221,"ĠSchweiz":13222,"ĠManchester":13223,"ĠMÃ¸r":13224,"Ġambass":13225,"ĠbÃ¦l":13226,"Ġcool":13227,"ĠTrin":13228,"ĠvÃ¦kker":13229,"ĠUndersÃ¸gelsen":13230,"ĠTorsdag":13231,"Ġuop":13232,"ĠSmÃ¥":13233,"pakning":13234,"fen":13235,"bydende":13236,"tise":13237,"Ã¸velser":13238,"familien":13239,"lande":13240,"pes":13241,"Ġmanu":13242,"act":13243,"Ġskjulte":13244,"utt":13245,"Ðº":13246,"ĠKasper":13247,"ĠJust":13248,"Ġmails":13249,"Ġindvi":13250,"Ġoprettelse":13251,"Ġsplit":13252,"Ġfattige":13253,"ĠRÃ¸de":13254,"ashion":13255,"Ġnederste":13256,"Ġanerkendte":13257,"sejend":13258,"acy":13259,"ilder":13260,"Ġprivatlivspolitik":13261,"BB":13262,"ĠNykÃ¸bing":13263,"Ġindirekte":13264,"ĠTÃ¸nder":13265,"Ġcan":13266,"ĠAllerede":13267,"Ġudsolgt":13268,"Ġkatastro":13269,"Ġkinesiske":13270,"Ġomdrej":13271,"senti":13272,"Ġitaliensk":13273,"ĠSamfund":13274,"ource":13275,"Ġnett":13276,"andel":13277,"sperioden":13278,"ĠjÃ¸d":13279,"ĠKommissionen":13280,"ĠChar":13281,"Ġsamvittighed":13282,"Ġvoldsom":13283,"ĠRead":13284,"Ġgirl":13285,"Ġeffekten":13286,"ĠEleverne":13287,"Ġlandbruget":13288,"core":13289,"netvÃ¦rk":13290,"ref":13291,"atning":13292,"Ġwebsteder":13293,"fan":13294,"Ġsundere":13295,"Ã¸dte":13296,"Ġblond":13297,"farvede":13298,"ĠimÃ¸dekommende":13299,"ĠsovevÃ¦relse":13300,"Ġnoter":13301,"Ġbegejstret":13302,"ĠTjek":13303,"parten":13304,"ĠlÃ¸ses":13305,"riere":13306,"adgang":13307,"ĠmÃ¦g":13308,"Ġiv":13309,"Ġmenings":13310,"cip":13311,"Ġvidendeling":13312,"ametre":13313,"rue":13314,"ĠudlÃ¸ber":13315,"Ġfornuftigt":13316,"trin":13317,"boy":13318,"ĠvÃ¦sentligste":13319,"Ġsvig":13320,"Ġtilbuddet":13321,"Ġaftalte":13322,"Ġ125":13323,"Ġrisikere":13324,"vÃ¦rdigt":13325,"ĠfÃ¦llesskaber":13326,"ĠregelmÃ¦ssigt":13327,"Ġankommer":13328,"Ġafhentning":13329,"ĠBYG":13330,"cia":13331,"Ã¨":13332,"Ġsikring":13333,"ĠbÃ¥den":13334,"Ġdispensation":13335,"fladen":13336,"Ġbam":13337,"Ġyderste":13338,"Ġbladet":13339,"Ġordning":13340,"Ġskrue":13341,"Ġregulering":13342,"ĠinstruktÃ¸r":13343,"ordingborg":13344,"kalde":13345,"Ġkategorierne":13346,"ĠSocialdemokra":13347,"Ġ71":13348,"Ġ92":13349,"Ġhovedsageligt":13350,"Ret":13351,"Ġdokumentere":13352,"Mens":13353,"Ġskibet":13354,"ĠTeknik":13355,"Ġaktuel":13356,"Ġbudgettet":13357,"Ġinteresserer":13358,"Ġservicen":13359,"Ġbistand":13360,"Ġaldre":13361,"Ġvoksede":13362,"lelse":13363,"rien":13364,"ĠRadio":13365,"ĠIshÃ¸j":13366,"Ġfesten":13367,"Ġjakke":13368,"ĠEuropas":13369,"ĠHall":13370,"Ġplanlagte":13371,"ĠsammensÃ¦tning":13372,"Ġna":13373,"ĠMiddelfart":13374,"Ġdesigns":13375,"ĠovervÃ¥gning":13376,"Ġkontaktet":13377,"Ġvideoen":13378,"Ã¦lle":13379,"Ġimmun":13380,"Ġarab":13381,"Ġunger":13382,"Ġindeholdt":13383,"ĠnÃ¸r":13384,"istan":13385,"akterer":13386,"ĠBL":13387,"Ã¦kkert":13388,"Ġtoner":13389,"Ġporte":13390,"ĠfremgÃ¥":13391,"Ġkonserv":13392,"ĠAutom":13393,"Ġspecialiseret":13394,"Udover":13395,"almind":13396,"Ġsparring":13397,"Ġgenre":13398,"Ġov":13399,"behandler":13400,"ĠDreambox":13401,"Ġpje":13402,"Ġtidspunktet":13403,"Ġstormvejr":13404,"Ġbinde":13405,"Ġsug":13406,"Ford":13407,"ĠkÃ¸rende":13408,"fugle":13409,"Ġarbejdsdage":13410,"Ġindsamlet":13411,"inket":13412,"Ġcykl":13413,"ĠbredbÃ¥nd":13414,"Ġlandshold":13415,"eskole":13416,"Ġforuren":13417,"Ġreferat":13418,"Ġmands":13419,"Ġturde":13420,"Ġportion":13421,"ĠGudhjem":13422,"beretning":13423,"olin":13424,"Ġugens":13425,"ĠÃ¦rger":13426,"how":13427,"sportal":13428,"angreb":13429,"Ġtons":13430,"71":13431,"fodbold":13432,"Ġdefineret":13433,"oger":13434,"ĠtÃ¦ppe":13435,"iserings":13436,"faring":13437,"Ġnederlag":13438,"historier":13439,"ĠMourin":13440,"DAN":13441,"ĠreligiÃ¸se":13442,"rediens":13443,"ledere":13444,"Ġoverbevist":13445,"ĠBeste":13446,"Ġlangvar":13447,"Ġudgifterne":13448,"ĠGRATIS":13449,"aker":13450,"skriver":13451,"Ġepis":13452,"Ġbul":13453,"Pl":13454,"forsÃ¸g":13455,"ĠProvsti":13456,"ĠKrop":13457,"ĠKlima":13458,"Ġgryde":13459,"Ġtum":13460,"ĠLouis":13461,"Ġdagsordenen":13462,"ML":13463,"Vedt":13464,"DA":13465,"Ġkonstatere":13466,"CO":13467,"Ġvedligeholdelses":13468,"Ġhug":13469,"Ġblind":13470,"ĠbegÃ¥et":13471,"ĠubegrÃ¦n":13472,"Ġkysten":13473,"zer":13474,"ĠApril":13475,"ĠBos":13476,"Ġbragte":13477,"elf":13478,"Ġforank":13479,"ariat":13480,"ĠBis":13481,"levering":13482,"materialer":13483,"Ġforvaltning":13484,"ĠmÃ¥lgruppe":13485,"Ġberegne":13486,"ĠKvalitets":13487,"skridt":13488,"ĠPre":13489,"Ġtegneser":13490,"Ġ[...]":13491,"Ġorienteret":13492,"ĠsuverÃ¦n":13493,"ĠbadevÃ¦relset":13494,"Ġtegning":13495,"ĠCamp":13496,"limer":13497,"Ġseksualitet":13498,"Ã¦kning":13499,"ĠNok":13500,"Ġlivmoder":13501,"smanden":13502,"vd":13503,"Ġdyrker":13504,"radi":13505,"Leder":13506,"bespar":13507,"Ġstift":13508,"ĠtÃ¸m":13509,"etn":13510,"Ġdatabase":13511,"Ġskrives":13512,"board":13513,"skad":13514,"ĠerklÃ¦r":13515,"rÃ¦er":13516,"Ġlovforslag":13517,"vitamin":13518,"ating":13519,"Ġregnvejr":13520,"ĠNyborg":13521,"skomp":13522,"ĠLive":13523,"Ġrammen":13524,"Ġoverstiger":13525,"jene":13526,"Ġaggress":13527,"ĠIV":13528,"arisk":13529,"obil":13530,"Ġtraditioner":13531,"ĠÃ¦ble":13532,"jorte":13533,"ladning":13534,"Ġforbund":13535,"Ġladet":13536,"gon":13537,"ĠNemID":13538,"ĠZe":13539,"Ġlidenskab":13540,"Ã©en":13541,"arin":13542,"Ġdrengen":13543,"96":13544,"Bag":13545,"Ġplader":13546,"Ġbron":13547,"bede":13548,"Ġaccepteret":13549,"Ġforinden":13550,"risen":13551,"Ġhov":13552,"Ġsejler":13553,"husene":13554,"Ġforsvandt":13555,"billet":13556,"ĠBallerup":13557,"hallen":13558,"92":13559,"Ġsynger":13560,"ĠfÃ¦lge":13561,"Ġkommunikations":13562,"Ġnaboer":13563,"Ġdiplom":13564,"kron":13565,"ppes":13566,"Ġforsker":13567,"ĠOnsdag":13568,"Ġformidle":13569,"Ġindeks":13570,"ĠPlay":13571,"kurser":13572,"Ġvrede":13573,"Ġegentligt":13574,"Ġdemens":13575,"ĠPub":13576,"Ġleds":13577,"ĠMask":13578,"Ġlovens":13579,"snr":13580,"Ġpose":13581,"Ġtomme":13582,"skÃ¦der":13583,"iget":13584,"Ġbrands":13585,"ivelse":13586,"Ġusikkerhed":13587,"lens":13588,"Ġbefri":13589,"Ġangivne":13590,"arbejdning":13591,"Ġ900":13592,"Ġeffektivitet":13593,"Ġfair":13594,"kilde":13595,"illen":13596,"Ġkameraet":13597,"Ø§":13598,"dsm":13599,"ĠMarked":13600,"Ġkomponenter":13601,"Ġovern":13602,"Ġroser":13603,"ĠChr":13604,"brede":13605,"ĠFredag":13606,"ĠLink":13607,"Ġofficielt":13608,"Ġdrives":13609,");":13610,"ĠProgram":13611,"IST":13612,"Ġgribe":13613,"Ġpatter":13614,"spark":13615,"ĠFrederikssund":13616,"Ġadressen":13617,"ĠGrand":13618,"butikker":13619,"Ġnemm":13620,"ĠÃ¥n":13621,"lÃ¦rte":13622,"Ġsnor":13623,"Ġstyrer":13624,"ĠDrift":13625,"Ġ73":13626,"Bogen":13627,"Ġomgivelserne":13628,"Ġdefinition":13629,"Ġanvendelses":13630,"Ġdrengene":13631,"Ġsommerferien":13632,"Ġgenstand":13633,"ĠDA":13634,"ansvarlig":13635,"ĠtÃ¦nde":13636,"Ġkup":13637,"ĠudsÃ¦ttes":13638,"FA":13639,"ĠhÃ¦klet":13640,"ioner":13641,"vaner":13642,"inspe":13643,"Ġanskaff":13644,"ĠmÃ¸dtes":13645,"lign":13646,"iluft":13647,"anda":13648,"ligste":13649,"Ġbebyggelse":13650,"figur":13651,"Ġmenneskers":13652,"Ġkonstateret":13653,"ĠĠ":13654,"edage":13655,"ĠforhÃ¸jet":13656,"Ġ%.":13657,"ĠPDF":13658,"aliteter":13659,"Ġarbejdsopgaver":13660,"Ġsejle":13661,"Ġpej":13662,"bragte":13663,"wood":13664,"rÃ¸der":13665,"aderne":13666,"Ġfoden":13667,"ĠDragÃ¸r":13668,"Ġgrov":13669,"itiv":13670,"Ġudpeget":13671,"Ġkirker":13672,"ĠkÃ¸res":13673,"EA":13674,"ĠStar":13675,"ĠFyr":13676,"ĠRa":13677,"Ġtrekant":13678,"Ġparall":13679,"edia":13680,"Ġskulptur":13681,"Ġ1960":13682,"Ġpassede":13683,"yser":13684,"Ġhals":13685,"Ġensartet":13686,"vognen":13687,"skiftet":13688,"osit":13689,"ĠMi":13690,"Ġbrystet":13691,"Ġformiddag":13692,"Ġlovet":13693,"Ġindi":13694,"ues":13695,"ulds":13696,"Ġsogn":13697,"Ġvenligt":13698,"Ġindsamles":13699,"Afstand":13700,"ena":13701,"Ġliderlige":13702,"ls":13703,"Ġskor":13704,"ĠhÃ¦l":13705,"klubber":13706,"ĠÃĺsters":13707,"Ġstak":13708,"andene":13709,"Ġkontrast":13710,"Ġgrus":13711,"Ġbagsiden":13712,"Ġbindende":13713,"avis":13714,"smiddel":13715,"ĠArbejdsmiljÃ¸":13716,"Ġnegle":13717,"ute":13718,"ils":13719,"Ġ130":13720,"ĠPan":13721,"ĠblogindlÃ¦g":13722,"smetoder":13723,"Ġnon":13724,"Ġvinden":13725,"ĠDort":13726,"Ġafv":13727,"ĠOmrÃ¥de":13728,"Ġforebyggende":13729,"ĠDenmark":13730,"ĠSkatte":13731,"BÃ¸rn":13732,"ĠbelÃ¸n":13733,"à¸":13734,"ida":13735,"Ġekstern":13736,"celÃ¦n":13737,"sforsikring":13738,"ĠIII":13739,"organisationen":13740,"Ġreaktioner":13741,"ĠKer":13742,"kostninger":13743,"Ġmodtageren":13744,"Ġattraktivt":13745,"ĠDVB":13746,"Ġbestand":13747,"Ġbornholm":13748,"forn":13749,"bevÃ¦gelsen":13750,"ĠefterspÃ¸rger":13751,"Ġanim":13752,"rÃ¸mmer":13753,"Ġguler":13754,"ĠEnk":13755,"can":13756,"teknologi":13757,"Ġopad":13758,"Ġarrangementet":13759,"bestyrelsen":13760,"Ġavisen":13761,"Ġhandlede":13762,"Ã¦mper":13763,"Ġslikke":13764,"vejledningen":13765,"Ġkronisk":13766,"smester":13767,"ĠbÃ¸de":13768,"ĠvÃ¦n":13769,"Ġoversat":13770,"Ġopfyldelse":13771,"igner":13772,"ĠHP":13773,"NÃ¥":13774,"irts":13775,"formance":13776,"Ġsproget":13777,"Ġkvadratmeter":13778,"2007":13779,"ĠPern":13780,"ĠprÃ¦ster":13781,"ĠResultat":13782,"pool":13783,"Ġsemin":13784,"familier":13785,"ĠlovbekendtgÃ¸relse":13786,"Ġfantasier":13787,"Ġpens":13788,"ĠvindmÃ¸ller":13789,"redet":13790,"ĠMÃ¸det":13791,"ĠUV":13792,"Ġbesiddelse":13793,"skÃ¥l":13794,"uktion":13795,"Ġler":13796,"ĠDren":13797,"Ġsmidt":13798,"Ġhyl":13799,"lagde":13800,"Ġstream":13801,"ĠFuld":13802,"Ġoverflader":13803,"odes":13804,"ĠSelve":13805,"IO":13806,"ĠRetten":13807,"Ġskandinav":13808,"Ġkoncentration":13809,"Ġideelle":13810,"Ġfryg":13811,"56":13812,"Ġopgav":13813,"Ġbaner":13814,"ĠÃ¸velse":13815,"Ġlovlig":13816,"ĠingeniÃ¸r":13817,"ĠforÃ¦ldr":13818,"ĠModel":13819,"igennem":13820,"Ġetager":13821,"undborg":13822,"ĠhÃ¥ndvÃ¦rkere":13823,"Sammen":13824,"ĠFlemming":13825,"artede":13826,"Ġstemningen":13827,"Ġsamtalen":13828,"Ġsviger":13829,"Ġbatteriet":13830,"smail":13831,"Ġmht":13832,"ĠTema":13833,"ĠHavde":13834,"Ġforsynet":13835,"linjen":13836,"eligheden":13837,"Ġ140":13838,"ĠnÃ¦sen":13839,"ĠGeneralfor":13840,"ilie":13841,"Ġherved":13842,"vÃ¦relsen":13843,"Ġbeund":13844,"sre":13845,"Ġspejder":13846,"Ġnum":13847,"Ġredaktion":13848,"Ġhellige":13849,"ĠtilkÃ¸b":13850,"Ġmanuelt":13851,"Ġomb":13852,"DONG":13853,"ĠstÃ¸b":13854,"ĠbrÃ¦":13855,"ĠUdvalget":13856,"ĠMogens":13857,"uetooth":13858,"ĠhalvÃ¥r":13859,"Ġsession":13860,"ĠfÃ¸dderne":13861,"Ġsygepleje":13862,"ĠNavngivelse":13863,"Ġbegyndelse":13864,"Ġandelen":13865,"ĠforÃ¦ld":13866,"anterne":13867,"ĠChat":13868,"Ġstam":13869,"Ġengageret":13870,"ttende":13871,"Ġflasker":13872,"ward":13873,"ĠIl":13874,"ĠJern":13875,"vÃ¦rn":13876,"yggelig":13877,"stor":13878,"ĠRoyal":13879,"Ġpanden":13880,"ykket":13881,"oku":13882,"Ġalternativer":13883,"Ġbetydningen":13884,"pop":13885,"ĠKrav":13886,"ĠnÃ¦re":13887,"ayout":13888,"Ġtyndt":13889,"ĠTyrkiet":13890,"Ġbatterier":13891,"Ġlanceret":13892,"Ġgeneral":13893,"72":13894,"Ġudstedt":13895,"II":13896,"fyldte":13897,"ĠENER":13898,"Ġamt":13899,"elsest":13900,"ĠHÃ¸je":13901,"Ġfineste":13902,"ĠÃ¸gede":13903,"ttaler":13904,"Ġhentes":13905,"Ġstillingen":13906,"isol":13907,"300":13908,"ĠAnsÃ¸gning":13909,"Ġrep":13910,"Ġtilsammen":13911,"ĠDagen":13912,"Ġarbejdsliv":13913,"Ġslanke":13914,"Ã¸rsholm":13915,"Ġaflevere":13916,"Ġhader":13917,"Ġkro":13918,"cc":13919,"Ġgardiner":13920,"Ber":13921,"lÃ¦ring":13922,"Ġallerbedste":13923,"Ġaktivering":13924,"ands":13925,"stÃ¸d":13926,"dam":13927,"ĠJacobsen":13928,"ĠstÃ¸rstedelen":13929,"Ġudsigten":13930,"Ġplad":13931,"Ġtilpasses":13932,"ĠEva":13933,"ota":13934,"lock":13935,"ĠTeknisk":13936,"ĠVVM":13937,"ĠPS":13938,"visors":13939,"Ġmenneskets":13940,"Ġbegrav":13941,"ĠIng":13942,"Ġ1500":13943,"CD":13944,"ĠindfÃ¸re":13945,"ĠFolketingets":13946,"ĠSkib":13947,"rater":13948,"sdage":13949,"Ġscenar":13950,",.":13951,"derede":13952,"ĠPsykiatri":13953,"ĠÃ¥relangt":13954,"illede":13955,"sklasse":13956,"Ġmore":13957,"Ġvedligeholde":13958,"Ġafsat":13959,"ĠoverfÃ¸rt":13960,"Ġfabrikken":13961,"Uddann":13962,"AfstandSe":13963,"slÃ¸se":13964,"Ġsvagt":13965,"Ġlivskvalitet":13966,"gien":13967,"Ġgiven":13968,"?!":13969,"ĠForsy":13970,"ĠBÃ¸rnene":13971,"ĠKrÃ¦ft":13972,"Ġmene":13973,"ĠCom":13974,"ĠFodboldtrÃ¸jer":13975,"retninger":13976,"ĠFac":13977,"grundlaget":13978,"appe":13979,"ĠGammel":13980,"Ã¦be":13981,"ĠsÃ¸geord":13982,"ĠvÃ¦rdipapir":13983,"ĠEndnu":13984,"ĠCykel":13985,"ĠMarianne":13986,"ĠNedenfor":13987,"ĠRober":13988,"ĠHerlev":13989,"flix":13990,"atus":13991,"Ġpakkes":13992,"Ingen":13993,"Ġvidner":13994,"skrÃ¦":13995,"stop":13996,"ĠKonge":13997,"tegnede":13998,"SEL":13999,"Ġhomoseksuelle":14000,"sklub":14001,"ĠMedicin":14002,"ĠhÃ¥be":14003,"Ġbriller":14004,"ilien":14005,"VEJ":14006,"ĠThomsen":14007,"Ġmaksimal":14008,"Ġdist":14009,"ĠglÃ¦den":14010,"ĠÃī":14011,"Ġkriminalitet":14012,"Ġesbjerg":14013,"Ġvoldsomme":14014,"sberg":14015,"Ġeksperimenter":14016,"Ġvejledningen":14017,"asti":14018,"Ġsiddende":14019,"Ġaarhus":14020,"Ġgay":14021,"Ġtyrk":14022,"ĠkrÃ¦nk":14023,"ĠrÃ¸dder":14024,"Ġapr":14025,"ĠtrÃ¦tte":14026,"Ġfremfor":14027,"Ġvon":14028,"ĠCentral":14029,"Ġindledende":14030,"ĠiPad":14031,"denhed":14032,"Ġverdenskrig":14033,
[...]
